{
  "version": "1.0",
  "truncation": null,
  "padding": null,
  "added_tokens": [
    {
      "id": 0,
      "content": "[UNk]",
      "single_word": false,
      "lstrip": false,
      "rstrip": false,
      "normalized": false,
      "special": true
    },
    {
      "id": 1,
      "content": "[CLS]",
      "single_word": false,
      "lstrip": false,
      "rstrip": false,
      "normalized": false,
      "special": true
    },
    {
      "id": 2,
      "content": "[SEP]",
      "single_word": false,
      "lstrip": false,
      "rstrip": false,
      "normalized": false,
      "special": true
    },
    {
      "id": 3,
      "content": "[PAD]",
      "single_word": false,
      "lstrip": false,
      "rstrip": false,
      "normalized": false,
      "special": true
    },
    {
      "id": 4,
      "content": "[MASk]",
      "single_word": false,
      "lstrip": false,
      "rstrip": false,
      "normalized": false,
      "special": true
    }
  ],
  "normalizer": null,
  "pre_tokenizer": null,
  "post_processor": null,
  "decoder": null,
  "model": {
    "type": "BPE",
    "dropout": null,
    "unk_token": "[UNK]",
    "continuing_subword_prefix": null,
    "end_of_word_suffix": null,
    "fuse_unk": false,
    "byte_fallback": false,
    "ignore_merges": false,
    "vocab": {
      "[UNk]": 0,
      "[CLS]": 1,
      "[SEP]": 2,
      "[PAD]": 3,
      "[MASk]": 4,
      "\n": 5,
      "\r": 6,
      " ": 7,
      "!": 8,
      "\"": 9,
      "#": 10,
      "$": 11,
      "%": 12,
      "&": 13,
      "'": 14,
      "(": 15,
      ")": 16,
      "*": 17,
      "+": 18,
      ",": 19,
      "-": 20,
      ".": 21,
      "/": 22,
      "0": 23,
      "1": 24,
      "2": 25,
      "3": 26,
      "4": 27,
      "5": 28,
      "6": 29,
      "7": 30,
      "8": 31,
      "9": 32,
      ":": 33,
      ";": 34,
      "<": 35,
      "=": 36,
      ">": 37,
      "?": 38,
      "@": 39,
      "A": 40,
      "B": 41,
      "C": 42,
      "D": 43,
      "E": 44,
      "F": 45,
      "G": 46,
      "H": 47,
      "I": 48,
      "J": 49,
      "K": 50,
      "L": 51,
      "M": 52,
      "N": 53,
      "O": 54,
      "P": 55,
      "Q": 56,
      "R": 57,
      "S": 58,
      "T": 59,
      "U": 60,
      "V": 61,
      "W": 62,
      "X": 63,
      "Y": 64,
      "Z": 65,
      "[": 66,
      "\\": 67,
      "]": 68,
      "^": 69,
      "_": 70,
      "`": 71,
      "a": 72,
      "b": 73,
      "c": 74,
      "d": 75,
      "e": 76,
      "f": 77,
      "g": 78,
      "h": 79,
      "i": 80,
      "j": 81,
      "k": 82,
      "l": 83,
      "m": 84,
      "n": 85,
      "o": 86,
      "p": 87,
      "q": 88,
      "r": 89,
      "s": 90,
      "t": 91,
      "u": 92,
      "v": 93,
      "w": 94,
      "x": 95,
      "y": 96,
      "z": 97,
      "{": 98,
      "}": 99,
      "~": 100,
      "": 101,
      "": 102,
      "": 103,
      "": 104,
      "": 105,
      "": 106,
      "": 107,
      " ": 108,
      "¡": 109,
      "¢": 110,
      "£": 111,
      "¥": 112,
      "§": 113,
      "¨": 114,
      "©": 115,
      "ª": 116,
      "«": 117,
      "¬": 118,
      "­": 119,
      "®": 120,
      "°": 121,
      "±": 122,
      "²": 123,
      "³": 124,
      "´": 125,
      "µ": 126,
      "¶": 127,
      "¸": 128,
      "»": 129,
      "¿": 130,
      "À": 131,
      "Â": 132,
      "Ã": 133,
      "Ä": 134,
      "Å": 135,
      "É": 136,
      "Î": 137,
      "Ð": 138,
      "Ö": 139,
      "×": 140,
      "Ú": 141,
      "ß": 142,
      "à": 143,
      "á": 144,
      "â": 145,
      "ã": 146,
      "ä": 147,
      "å": 148,
      "æ": 149,
      "ç": 150,
      "è": 151,
      "é": 152,
      "ê": 153,
      "ë": 154,
      "ì": 155,
      "í": 156,
      "î": 157,
      "ï": 158,
      "ð": 159,
      "ñ": 160,
      "ò": 161,
      "ó": 162,
      "ô": 163,
      "õ": 164,
      "ö": 165,
      "ø": 166,
      "ú": 167,
      "û": 168,
      "ü": 169,
      "ý": 170,
      "þ": 171,
      "Ā": 172,
      "ā": 173,
      "ă": 174,
      "č": 175,
      "ī": 176,
      "ň": 177,
      "ō": 178,
      "ş": 179,
      "š": 180,
      "ť": 181,
      "Ŧ": 182,
      "ž": 183,
      "˚": 184,
      "́": 185,
      "Α": 186,
      "Β": 187,
      "Ε": 188,
      "Ζ": 189,
      "Η": 190,
      "Ι": 191,
      "Κ": 192,
      "Μ": 193,
      "Ν": 194,
      "Ο": 195,
      "Ρ": 196,
      "Τ": 197,
      "Υ": 198,
      "Χ": 199,
      "ά": 200,
      "έ": 201,
      "ή": 202,
      "ί": 203,
      "α": 204,
      "ε": 205,
      "η": 206,
      "θ": 207,
      "κ": 208,
      "λ": 209,
      "μ": 210,
      "ν": 211,
      "ο": 212,
      "π": 213,
      "ρ": 214,
      "ς": 215,
      "τ": 216,
      "υ": 217,
      "ύ": 218,
      "Ѕ": 219,
      "Ј": 220,
      "А": 221,
      "Б": 222,
      "В": 223,
      "Г": 224,
      "Д": 225,
      "Е": 226,
      "И": 227,
      "К": 228,
      "М": 229,
      "Н": 230,
      "О": 231,
      "П": 232,
      "Р": 233,
      "С": 234,
      "У": 235,
      "Х": 236,
      "Ч": 237,
      "Э": 238,
      "Я": 239,
      "а": 240,
      "б": 241,
      "в": 242,
      "г": 243,
      "д": 244,
      "е": 245,
      "ж": 246,
      "з": 247,
      "и": 248,
      "й": 249,
      "к": 250,
      "л": 251,
      "м": 252,
      "н": 253,
      "о": 254,
      "п": 255,
      "р": 256,
      "с": 257,
      "т": 258,
      "у": 259,
      "х": 260,
      "ц": 261,
      "ч": 262,
      "ы": 263,
      "ь": 264,
      "я": 265,
      "ѕ": 266,
      "і": 267,
      "ј": 268,
      "،": 269,
      "آ": 270,
      "أ": 271,
      "ئ": 272,
      "ا": 273,
      "ب": 274,
      "ة": 275,
      "ت": 276,
      "ج": 277,
      "ح": 278,
      "خ": 279,
      "د": 280,
      "ر": 281,
      "ز": 282,
      "س": 283,
      "ش": 284,
      "ط": 285,
      "ع": 286,
      "غ": 287,
      "ف": 288,
      "ق": 289,
      "ك": 290,
      "ل": 291,
      "م": 292,
      "ن": 293,
      "ه": 294,
      "و": 295,
      "ي": 296,
      "ٌ": 297,
      "چ": 298,
      "ک": 299,
      "گ": 300,
      "ی": 301,
      "ँ": 302,
      "ं": 303,
      "ः": 304,
      "आ": 305,
      "इ": 306,
      "ई": 307,
      "ऊ": 308,
      "औ": 309,
      "क": 310,
      "ख": 311,
      "ग": 312,
      "च": 313,
      "ज": 314,
      "ठ": 315,
      "ड": 316,
      "ढ": 317,
      "ण": 318,
      "द": 319,
      "न": 320,
      "प": 321,
      "ब": 322,
      "भ": 323,
      "म": 324,
      "र": 325,
      "ल": 326,
      "व": 327,
      "श": 328,
      "स": 329,
      "ह": 330,
      "़": 331,
      "ा": 332,
      "ि": 333,
      "ी": 334,
      "ु": 335,
      "ू": 336,
      "े": 337,
      "ो": 338,
      "ौ": 339,
      "्": 340,
      "আ": 341,
      "ক": 342,
      "গ": 343,
      "চ": 344,
      "ট": 345,
      "ঢ": 346,
      "ত": 347,
      "ম": 348,
      "র": 349,
      "ল": 350,
      "া": 351,
      "্": 352,
      "ਂ": 353,
      "ਅ": 354,
      "ਗ": 355,
      "ਚ": 356,
      "ਡ": 357,
      "ਤ": 358,
      "ਦ": 359,
      "ਨ": 360,
      "ਮ": 361,
      "ਰ": 362,
      "ਲ": 363,
      "ਵ": 364,
      "ਸ": 365,
      "ਹ": 366,
      "ਿ": 367,
      "ੀ": 368,
      "੍": 369,
      "ੜ": 370,
      "ੰ": 371,
      "ੱ": 372,
      "ગ": 373,
      "ન": 374,
      "ભ": 375,
      "ર": 376,
      "વ": 377,
      "ા": 378,
      "ନ": 379,
      "ବ": 380,
      "ଭ": 381,
      "ର": 382,
      "ଶ": 383,
      "ୁ": 384,
      "େ": 385,
      "୍": 386,
      "க": 387,
      "ச": 388,
      "த": 389,
      "ன": 390,
      "ப": 391,
      "ம": 392,
      "ய": 393,
      "ர": 394,
      "ள": 395,
      "ா": 396,
      "ி": 397,
      "ு": 398,
      "ூ": 399,
      "ெ": 400,
      "ை": 401,
      "ோ": 402,
      "்": 403,
      "ം": 404,
      "ത": 405,
      "ന": 406,
      "പ": 407,
      "ര": 408,
      "വ": 409,
      "ി": 410,
      "ു": 411,
      "്": 412,
      "ආ": 413,
      "බ": 414,
      "ය": 415,
      "ව": 416,
      "ා": 417,
      "ි": 418,
      "ේ": 419,
      "ෝ": 420,
      "ก": 421,
      "ง": 422,
      "ท": 423,
      "พ": 424,
      "ร": 425,
      "ฯ": 426,
      "ุ": 427,
      "เ": 428,
      "ྲྀ": 429,
      "ྀ": 430,
      "ྲ": 431,
      " ": 432,
      "​": 433,
      "‎": 434,
      "–": 435,
      "—": 436,
      "‘": 437,
      "’": 438,
      "“": 439,
      "”": 440,
      "•": 441,
      "…": 442,
      "™": 443,
      "←": 444,
      "→": 445,
      "∆": 446,
      "∕": 447,
      "∶": 448,
      "♩": 449,
      "♪": 450,
      "♫": 451,
      "♬": 452,
      "上": 453,
      "乌": 454,
      "京": 455,
      "仔": 456,
      "六": 457,
      "兰": 458,
      "冰": 459,
      "加": 460,
      "北": 461,
      "南": 462,
      "原": 463,
      "厦": 464,
      "合": 465,
      "周": 466,
      "呼": 467,
      "和": 468,
      "哈": 469,
      "埔": 470,
      "士": 471,
      "天": 472,
      "太": 473,
      "威": 474,
      "宁": 475,
      "安": 476,
      "尔": 477,
      "州": 478,
      "巿": 479,
      "广": 480,
      "庆": 481,
      "忌": 482,
      "成": 483,
      "日": 484,
      "昆": 485,
      "明": 486,
      "春": 487,
      "月": 488,
      "木": 489,
      "杭": 490,
      "武": 491,
      "氹": 492,
      "汉": 493,
      "沈": 494,
      "沙": 495,
      "津": 496,
      "济": 497,
      "浩": 498,
      "海": 499,
      "滨": 500,
      "澳": 501,
      "特": 502,
      "福": 503,
      "肥": 504,
      "臺": 505,
      "西": 506,
      "郑": 507,
      "都": 508,
      "重": 509,
      "长": 510,
      "门": 511,
      "阳": 512,
      "雄": 513,
      "頂": 514,
      "高": 515,
      "鲁": 516,
      "齐": 517,
      "산": 518,
      "오": 519,
      "ﬂ": 520,
      "＃": 521,
      "�": 522,
      "an": 523,
      "\r\n": 524,
      "a ": 525,
      "an ": 526,
      "ak": 527,
      ".\r\n": 528,
      "er": 529,
      "i ": 530,
      "ang": 531,
      "ah": 532,
      "en": 533,
      "u ": 534,
      "at": 535,
      "ar": 536,
      "am": 537,
      ", ": 538,
      "ang ": 539,
      "in": 540,
      "al": 541,
      "se": 542,
      "ak ": 543,
      "ya ": 544,
      "ah ": 545,
      "un": 546,
      "ap": 547,
      "ad": 548,
      "it": 549,
      "em": 550,
      "uk": 551,
      "as": 552,
      "ik": 553,
      "el": 554,
      "men": 555,
      "ber": 556,
      "yang ": 557,
      "?\r\n": 558,
      "di": 559,
      "ke": 560,
      "aya ": 561,
      "a.\r\n": 562,
      "at ": 563,
      "per": 564,
      "h ": 565,
      "ti": 566,
      "kan ": 567,
      "akan ": 568,
      "eng": 569,
      "ek": 570,
      "aw": 571,
      "or": 572,
      "ada ": 573,
      "il": 574,
      "- ": 575,
      "!\r\n": 576,
      " d": 577,
      "..": 578,
      "ol": 579,
      "ag": 580,
      "au ": 581,
      "kam": 582,
      "ul": 583,
      "ay": 584,
      "mem": 585,
      "ur": 586,
      "ing": 587,
      "i.\r\n": 588,
      "ter": 589,
      "uk ": 590,
      "mer": 591,
      "us": 592,
      "dak ": 593,
      "et": 594,
      "saya ": 595,
      "on": 596,
      "um": 597,
      "ung": 598,
      "a, ": 599,
      "ut": 600,
      "ari ": 601,
      "is": 602,
      "Saya ": 603,
      "u.\r\n": 604,
      ". ": 605,
      "apa ": 606,
      "im": 607,
      "meng": 608,
      "unt": 609,
      "ir": 610,
      "merek": 611,
      "dan ": 612,
      "an.\r\n": 613,
      "and": 614,
      "tidak ": 615,
      "pada ": 616,
      "am ": 617,
      "es": 618,
      "di ": 619,
      "ita ": 620,
      "untuk ": 621,
      "ole": 622,
      "ia ": 623,
      "ar ": 624,
      "ny": 625,
      "engan ": 626,
      "ab": 627,
      "uh": 628,
      "tak ": 629,
      "orang ": 630,
      "nya ": 631,
      "kamu ": 632,
      "ai ": 633,
      "oleh ": 634,
      "ku ": 635,
      "ih": 636,
      "mereka ": 637,
      "alah ": 638,
      "aku ": 639,
      "a?\r\n": 640,
      "tah": 641,
      "ud": 642,
      "sem": 643,
      "Aku ": 644,
      "lah ": 645,
      "ana ": 646,
      "aik": 647,
      "kau ": 648,
      "awak ": 649,
      "i, ": 650,
      "dia ": 651,
      "dengan ": 652,
      "eb": 653,
      "ukan ": 654,
      "up": 655,
      "itu ": 656,
      "in ": 657,
      "seb": 658,
      "id": 659,
      "alam ": 660,
      "ini ": 661,
      "Kam": 662,
      "say": 663,
      "aj": 664,
      "anya ": 665,
      "mel": 666,
      "mas": 667,
      "ent": 668,
      "u, ": 669,
      "ih ": 670,
      "boleh ": 671,
      "bu": 672,
      "kita ": 673,
      "Ap": 674,
      "angan ": 675,
      "Dan ": 676,
      "ua ": 677,
      "ant": 678,
      "ke ": 679,
      "ap ": 680,
      "any": 681,
      "dap": 682,
      "emb": 683,
      "tel": 684,
      "Al": 685,
      "ama ": 686,
      "ep": 687,
      "...\r\n": 688,
      "ara ": 689,
      ") ": 690,
      "ses": 691,
      "jad": 692,
      "sek": 693,
      "kan": 694,
      "Dia ": 695,
      "api ": 696,
      "amp": 697,
      "ok": 698,
      "anda ": 699,
      " dan ": 700,
      "a-": 701,
      "al ": 702,
      "dari ": 703,
      "sel": 704,
      "atu ": 705,
      "memb": 706,
      "kepada ": 707,
      "eg": 708,
      "ti ": 709,
      "ong": 710,
      "lah": 711,
      "ker": 712,
      "asa ": 713,
      "uh ": 714,
      "ak.\r\n": 715,
      "ika ": 716,
      "adalah ": 717,
      "ac": 718,
      "dir": 719,
      "as ": 720,
      "da ": 721,
      "ub": 722,
      "telah ": 723,
      "ini.\r\n": 724,
      "ikan ": 725,
      "amb": 726,
      "Aw": 727,
      "ungg": 728,
      "agi ": 729,
      "meny": 730,
      "e ": 731,
      "an, ": 732,
      "Apa ": 733,
      "il ": 734,
      "Awak ": 735,
      "pen": 736,
      "Kau ": 737,
      "emp": 738,
      "ingg": 739,
      "kat": 740,
      "dapat ": 741,
      "apa yang ": 742,
      "a\r\n": 743,
      "In": 744,
      "mak": 745,
      "baik": 746,
      "dalam ": 747,
      "ut ": 748,
      "ang-": 749,
      "ain": 750,
      "ug": 751,
      "u?\r\n": 752,
      "Kami ": 753,
      "ian ": 754,
      "ka": 755,
      "nya.\r\n": 756,
      "perl": 757,
      "ahu ": 758,
      "har": 759,
      "i?\r\n": 760,
      "mat": 761,
      "tahu ": 762,
      ": ": 763,
      "ta ": 764,
      "ang.\r\n": 765,
      "aan ": 766,
      "kel": 767,
      "tu ": 768,
      "ik ": 769,
      "pun": 770,
      "sen": 771,
      "a!\r\n": 772,
      "An": 773,
      "ben": 774,
      "sud": 775,
      "jadi ": 776,
      "si": 777,
      "orang yang ": 778,
      "om": 779,
      "perg": 780,
      "dak": 781,
      "ah.\r\n": 782,
      "ir ": 783,
      "bah": 784,
      "us ": 785,
      "kal": 786,
      "Kita ": 787,
      "... ": 788,
      "Per": 789,
      "Ber": 790,
      "buat ": 791,
      "nak ": 792,
      "at.\r\n": 793,
      "Ti": 794,
      " di ": 795,
      "dah ": 796,
      "lak": 797,
      "an\r\n": 798,
      "saya.\r\n": 799,
      "os": 800,
      "awa ": 801,
      "is ": 802,
      "um ": 803,
      "uar": 804,
      "orang-": 805,
      "af": 806,
      "kami ": 807,
      "semua ": 808,
      "uan ": 809,
      "di s": 810,
      "peng": 811,
      "ed": 812,
      "%s": 813,
      "Ini ": 814,
      "tak": 815,
      "Allah ": 816,
      "ebih ": 817,
      "perti ": 818,
      "dat": 819,
      "sed": 820,
      "angg": 821,
      "ump": 822,
      "pad": 823,
      "ser": 824,
      "Mer": 825,
      "elak": 826,
      "atkan ": 827,
      "i\r\n": 828,
      "ken": 829,
      "ib": 830,
      "ukan": 831,
      "hid": 832,
      "ing ": 833,
      "eka ": 834,
      "ungk": 835,
      "uj": 836,
      "Kamu ": 837,
      "lag": 838,
      "ila ": 839,
      "bers": 840,
      "ak, ": 841,
      "tent": 842,
      "angk": 843,
      "lebih ": 844,
      "bar": 845,
      "satu ": 846,
      "man": 847,
      "perlu ": 848,
      "ihat ": 849,
      "Mereka ": 850,
      "ot": 851,
      "ku": 852,
      "ari": 853,
      "itu.\r\n": 854,
      "cak": 855,
      "aga": 856,
      "seperti ": 857,
      "gun": 858,
      "ip": 859,
      "it ": 860,
      "un ": 861,
      "ungguh": 862,
      "seorang ": 863,
      "atau ": 864,
      "atan ": 865,
      "Itu ": 866,
      "menc": 867,
      "ro": 868,
      "ab ": 869,
      "sekar": 870,
      "jal": 871,
      "jug": 872,
      "Ia ": 873,
      "agaim": 874,
      "min": 875,
      "emu": 876,
      "uka ": 877,
      "etul": 878,
      "orang-orang yang ": 879,
      ":\r\n": 880,
      "bert": 881,
      "pas": 882,
      "ic": 883,
      "Anda ": 884,
      "deng": 885,
      "Ter": 886,
      "anj": 887,
      " dengan ": 888,
      "sudah ": 889,
      "od": 890,
      "imp": 891,
      "alam": 892,
      "hidup": 893,
      "temp": 894,
      " dari ": 895,
      "ej": 896,
      "mana ": 897,
      "olong": 898,
      "bagi ": 899,
      "on ": 900,
      "sesu": 901,
      "lal": 902,
      "ima ": 903,
      "ali ": 904,
      "i!\r\n": 905,
      "ar.\r\n": 906,
      "Ya, ": 907,
      "hari ": 908,
      "bukan ": 909,
      "agaimana ": 910,
      "h, ": 911,
      "Tid": 912,
      "y ": 913,
      "tet": 914,
      "mahu ": 915,
      "saj": 916,
      "Tapi ": 917,
      "ungguhnya ": 918,
      "pel": 919,
      "fik": 920,
      "an yang ": 921,
      "hanya ": 922,
      "jika ": 923,
      "ah, ": 924,
      "arkan ": 925,
      "Tuh": 926,
      "Jad": 927,
      "He": 928,
      "\"\r\n": 929,
      "Jangan ": 930,
      "ula ": 931,
      "aaf": 932,
      "angat ": 933,
      "menjadi ": 934,
      "awak.\r\n": 935,
      "Apa yang ": 936,
      "nya": 937,
      "Ay": 938,
      "Tak ": 939,
      "akan": 940,
      "s ": 941,
      "bel": 942,
      "keluar": 943,
      "a yang ": 944,
      "o ": 945,
      "ungkin ": 946,
      "pern": 947,
      "hat": 948,
      "int": 949,
      "), ": 950,
      "Se": 951,
      "ind": 952,
      "..\r\n": 953,
      "dit": 954,
      "ang, ": 955,
      "kas": 956,
      "aran ": 957,
      "mengh": 958,
      "oh": 959,
      "itu": 960,
      "ung ": 961,
      "Tidak ": 962,
      "lagi ": 963,
      "tingg": 964,
      "diri ": 965,
      "kerana ": 966,
      "pergi ": 967,
      "member": 968,
      "nya, ": 969,
      "bi": 970,
      "itahu ": 971,
      "beg": 972,
      "t ": 973,
      " dalam ": 974,
      "Si": 975,
      ": \"": 976,
      "kaw": 977,
      "betul": 978,
      "ulah ": 979,
      "dia.\r\n": 980,
      "bany": 981,
      "anc": 982,
      "; ": 983,
      "or ": 984,
      "pernah ": 985,
      "ger": 986,
      "sangat ": 987,
      "ur ": 988,
      "amat ": 989,
      "ket": 990,
      "ew": 991,
      "ini?\r\n": 992,
      "rasa ": 993,
      "tapi ": 994,
      "bes": 995,
      "ini, ": 996,
      "Jika ": 997,
      "hen": 998,
      "kit": 999,
      "tempat ": 1000,
      "lah, ": 1001,
      "unuh ": 1002,
      "akh": 1003,
      "bal": 1004,
      "tentang ": 1005,
      "fa": 1006,
      "Adak": 1007,
      "Baik": 1008,
      "iny": 1009,
      "e.\r\n": 1010,
      "ahkan ": 1011,
      "angan": 1012,
      "itu, ": 1013,
      "melak": 1014,
      "Adakah ": 1015,
      "Ken": 1016,
      "pem": 1017,
      "ahu": 1018,
      "kemb": 1019,
      "juga ": 1020,
      "Sel": 1021,
      "asi ": 1022,
      "sa": 1023,
      "kem": 1024,
      "kan.\r\n": 1025,
      "lain": 1026,
      "pat": 1027,
      "00": 1028,
      "Sek": 1029,
      "pert": 1030,
      "datang ": 1031,
      "perk": 1032,
      "y.\r\n": 1033,
      "ambil ": 1034,
      "agai ": 1035,
      "sej": 1036,
      "sedang ": 1037,
      "aripada ": 1038,
      "puny": 1039,
      "cara ": 1040,
      "Ada ": 1041,
      "be": 1042,
      "? ": 1043,
      "at, ": 1044,
      "tr": 1045,
      "ec": 1046,
      "Sem": 1047,
      "Mak": 1048,
      "a. ": 1049,
      "...": 1050,
      "ga ": 1051,
      "kata ": 1052,
      "u!\r\n": 1053,
      "menj": 1054,
      "Meng": 1055,
      "Seb": 1056,
      "u\r\n": 1057,
      "ahan ": 1058,
      "san": 1059,
      "dik": 1060,
      "unc": 1061,
      "anak ": 1062,
      "sebel": 1063,
      "akah ": 1064,
      "apa-": 1065,
      "masa ": 1066,
      "ingk": 1067,
      "Oh, ": 1068,
      "masih ": 1069,
      "had": 1070,
      "ingin ": 1071,
      "akan ber": 1072,
      "Men": 1073,
      "! ": 1074,
      "baik ": 1075,
      "an?\r\n": 1076,
      "unj": 1077,
      "maka ": 1078,
      "\" ": 1079,
      "en ": 1080,
      "aku.\r\n": 1081,
      "perc": 1082,
      "berapa ": 1083,
      "uc": 1084,
      "apa?\r\n": 1085,
      "der": 1086,
      "\".\r\n": 1087,
      "lagi.\r\n": 1088,
      "Saya tak ": 1089,
      "sesuatu ": 1090,
      "emudi": 1091,
      "ain ": 1092,
      "mempuny": 1093,
      ",\r\n": 1094,
      "anya.\r\n": 1095,
      "ig": 1096,
      "dis": 1097,
      "cakap ": 1098,
      "acam ": 1099,
      "annya ": 1100,
      "lelak": 1101,
      "melihat ": 1102,
      "dua ": 1103,
      "enar": 1104,
      "mempunyai ": 1105,
      "le": 1106,
      "tu": 1107,
      "lalu ": 1108,
      "y, ": 1109,
      "Ses": 1110,
      "arang ": 1111,
      "etahu": 1112,
      "kec": 1113,
      ".. ": 1114,
      "ima kas": 1115,
      "pal": 1116,
      "semu": 1117,
      "selam": 1118,
      "erj": 1119,
      "up ": 1120,
      "Maaf": 1121,
      "mu ": 1122,
      "kamu.\r\n": 1123,
      "banyak ": 1124,
      "ayah ": 1125,
      "oleh": 1126,
      "op": 1127,
      "Un": 1128,
      "En": 1129,
      ")\r\n": 1130,
      "uny": 1131,
      "rum": 1132,
      "ahai ": 1133,
      "jump": 1134,
      "sebagai ": 1135,
      "sendir": 1136,
      "bag": 1137,
      "ilah ": 1138,
      "benar": 1139,
      "al.\r\n": 1140,
      "Di ": 1141,
      "harus ": 1142,
      "fikir ": 1143,
      "Bagaimana ": 1144,
      "Kal": 1145,
      "saya, ": 1146,
      "berl": 1147,
      "Yang ": 1148,
      "bahawa ": 1149,
      " yang ": 1150,
      "aha ": 1151,
      "awak": 1152,
      "si ": 1153,
      "i-": 1154,
      "tan": 1155,
      "kepad": 1156,
      "az": 1157,
      "sah": 1158,
      "teng": 1159,
      "Kenapa ": 1160,
      "Peng": 1161,
      "dem": 1162,
      "alkan ": 1163,
      "; dan ": 1164,
      "kalau ": 1165,
      "lah.\r\n": 1166,
      "uar ": 1167,
      "pak": 1168,
      "inya ": 1169,
      "asan ": 1170,
      "sy": 1171,
      "og": 1172,
      "kah ": 1173,
      "an!\r\n": 1174,
      "cakap": 1175,
      "sesungguhnya ": 1176,
      "mungkin ": 1177,
      "atas ": 1178,
      "angkan ": 1179,
      "e\r\n": 1180,
      "Pen": 1181,
      "tiap ": 1182,
      "uma ": 1183,
      "ok ": 1184,
      "pul": 1185,
      ").\r\n": 1186,
      "hil": 1187,
      "uba ": 1188,
      "ten": 1189,
      "namp": 1190,
      "kes": 1191,
      "gal": 1192,
      "tidak": 1193,
      "serta ": 1194,
      "sama ": 1195,
      "iz": 1196,
      "Ny": 1197,
      "ik.\r\n": 1198,
      "bur": 1199,
      "am.\r\n": 1200,
      "Tidak, ": 1201,
      "as.\r\n": 1202,
      "an-": 1203,
      "Tiada ": 1204,
      "Mar": 1205,
      "Tet": 1206,
      "ilih": 1207,
      "ukkan ": 1208,
      "kan?\r\n": 1209,
      "Saya akan ": 1210,
      "abila ": 1211,
      "buk": 1212,
      "tem": 1213,
      "emudian ": 1214,
      "manus": 1215,
      "apan ": 1216,
      "lelaki ": 1217,
      "mes": 1218,
      "mereka.\r\n": 1219,
      "perkara ": 1220,
      "- B": 1221,
      "Jadi ": 1222,
      "pun ": 1223,
      "ob": 1224,
      "jat": 1225,
      "daripada ": 1226,
      "0 ": 1227,
      "und": 1228,
      "udah ": 1229,
      "nama ": 1230,
      "us.\r\n": 1231,
      "baw": 1232,
      "berada ": 1233,
      "kerj": 1234,
      "akhir": 1235,
      "mul": 1236,
      "engkau ": 1237,
      "du": 1238,
      "itu?\r\n": 1239,
      "lakukan ": 1240,
      "dengar ": 1241,
      "melakukan ": 1242,
      "tid": 1243,
      "samp": 1244,
      "sini.\r\n": 1245,
      "kau.\r\n": 1246,
      "re": 1247,
      "beritahu ": 1248,
      "su": 1249,
      "(yang ": 1250,
      "ar, ": 1251,
      "ilih ": 1252,
      "sa ": 1253,
      "berj": 1254,
      "ihat": 1255,
      "tiada ": 1256,
      "Sesungguhnya ": 1257,
      "Ch": 1258,
      "suka ": 1259,
      "bil": 1260,
      "hingg": 1261,
      "ini": 1262,
      "St": 1263,
      "sebelum ": 1264,
      "askan ": 1265,
      "ul ": 1266,
      "alah": 1267,
      "th": 1268,
      "jalan ": 1269,
      "anan ": 1270,
      "baru ": 1271,
      "kej": 1272,
      "sesi": 1273,
      "tak boleh ": 1274,
      "jumpa ": 1275,
      "takkan ": 1276,
      "baik.\r\n": 1277,
      "beberapa ": 1278,
      "ow": 1279,
      "ian": 1280,
      "%s\r\n": 1281,
      "ef": 1282,
      "ai.\r\n": 1283,
      "k ": 1284,
      "mus": 1285,
      "nya?\r\n": 1286,
      "pemb": 1287,
      "apa.\r\n": 1288,
      "Tolong": 1289,
      "kh": 1290,
      "Maha ": 1291,
      "uk.\r\n": 1292,
      "me": 1293,
      "/ ": 1294,
      "o.\r\n": 1295,
      "ell": 1296,
      "nam": 1297,
      "ong ": 1298,
      "atakan ": 1299,
      "berh": 1300,
      "gunakan ": 1301,
      "sekal": 1302,
      "a...\r\n": 1303,
      "sat": 1304,
      "dip": 1305,
      "anda.\r\n": 1306,
      "berim": 1307,
      "kead": 1308,
      "Terima kas": 1309,
      "nampak ": 1310,
      "fah": 1311,
      "antara ": 1312,
      "Semua ": 1313,
      "Di": 1314,
      "Ok": 1315,
      "ras": 1316,
      "pu": 1317,
      "- Saya ": 1318,
      "upaya ": 1319,
      "apkan ": 1320,
      "urun": 1321,
      "Kalau ": 1322,
      "main": 1323,
      "berkat": 1324,
      "kur": 1325,
      "Perg": 1326,
      "tidak akan ": 1327,
      "kena ": 1328,
      "na ": 1329,
      "ekerj": 1330,
      "a) ": 1331,
      "bukan": 1332,
      "ketika ": 1333,
      "membuat ": 1334,
      "pula ": 1335,
      "segal": 1336,
      "e, ": 1337,
      "jangan ": 1338,
      "Mas": 1339,
      "d ": 1340,
      "untuk men": 1341,
      "cuba ": 1342,
      "fail ": 1343,
      "Mari ": 1344,
      "ama.\r\n": 1345,
      "er ": 1346,
      "amm": 1347,
      "yang ter": 1348,
      "dun": 1349,
      "unggu ": 1350,
      "ialah ": 1351,
      "ak-": 1352,
      "alu ": 1353,
      "Ke": 1354,
      "cuma ": 1355,
      "Nab": 1356,
      "sedik": 1357,
      "mengen": 1358,
      "bin": 1359,
      "pet": 1360,
      "uh.\r\n": 1361,
      "kembali ": 1362,
      "macam ": 1363,
      "epas ": 1364,
      "kamu, ": 1365,
      "sekarang.\r\n": 1366,
      "alan ": 1367,
      "pasti ": 1368,
      "hingga ": 1369,
      "agian ": 1370,
      "Tuhan ": 1371,
      "ris": 1372,
      "li": 1373,
      "ang?\r\n": 1374,
      "akkan ": 1375,
      "gel": 1376,
      "Sh": 1377,
      "ungan ": 1378,
      "ia.\r\n": 1379,
      "apabila ": 1380,
      "arah ": 1381,
      "kita.\r\n": 1382,
      "Ar": 1383,
      "saja ": 1384,
      "uang ": 1385,
      "Or": 1386,
      "Mungkin ": 1387,
      "mendapat ": 1388,
      "mati ": 1389,
      "kali ": 1390,
      "Bi": 1391,
      "it.\r\n": 1392,
      "uskan ": 1393,
      "sahaj": 1394,
      "et ": 1395,
      "ukan.\r\n": 1396,
      ".\"\r\n": 1397,
      "keret": 1398,
      "uah ": 1399,
      "peremp": 1400,
      "di sini.\r\n": 1401,
      "dapatkan ": 1402,
      "orang-orang ": 1403,
      "supaya ": 1404,
      "saya akan ": 1405,
      "ungi ": 1406,
      "saya?\r\n": 1407,
      "Aku tak ": 1408,
      "peny": 1409,
      "demik": 1410,
      "bagaimana ": 1411,
      "Ras": 1412,
      ", dan ": 1413,
      "Ker": 1414,
      "st": 1415,
      "ira ": 1416,
      "omb": 1417,
      "u-": 1418,
      "bum": 1419,
      "ni": 1420,
      "fikir": 1421,
      "pergi.\r\n": 1422,
      "Bar": 1423,
      "aga ": 1424,
      "Muh": 1425,
      "memberi ": 1426,
      "masuk ": 1427,
      "av": 1428,
      "ch": 1429,
      "ammad": 1430,
      "ai": 1431,
      "Hei, ": 1432,
      "Muhammad": 1433,
      "wahai ": 1434,
      "uran ": 1435,
      "isi ": 1436,
      "Unt": 1437,
      "rumah ": 1438,
      "f ": 1439,
      "bila ": 1440,
      "end": 1441,
      "Nabi ": 1442,
      "annya.\r\n": 1443,
      "tidak boleh ": 1444,
      "etahui ": 1445,
      "ah?\r\n": 1446,
      "Jadi, ": 1447,
      "unci ": 1448,
      "perlukan ": 1449,
      "Apa?\r\n": 1450,
      "dud": 1451,
      "janj": 1452,
      "inya.\r\n": 1453,
      "lang": 1454,
      "bawa ": 1455,
      "imb": 1456,
      "maksud": 1457,
      "cer": 1458,
      "pa ": 1459,
      "yang di": 1460,
      "ang!\r\n": 1461,
      "Kat": 1462,
      "mereka, ": 1463,
      "pes": 1464,
      "suk": 1465,
      "tetapi ": 1466,
      "- T": 1467,
      "Untuk ": 1468,
      "akan.\r\n": 1469,
      "malam ": 1470,
      "bunuh ": 1471,
      "lihat ": 1472,
      "bant": 1473,
      "cep": 1474,
      "uruh ": 1475,
      "belak": 1476,
      "hidup ": 1477,
      "mengambil ": 1478,
      "ti.\r\n": 1479,
      "tahu.\r\n": 1480,
      "aikan ": 1481,
      "buat": 1482,
      "rah": 1483,
      "in.\r\n": 1484,
      "alat ": 1485,
      "Kel": 1486,
      "ingat": 1487,
      "put": 1488,
      "maaf": 1489,
      "Sekarang ": 1490,
      "sesuat": 1491,
      "ui ": 1492,
      "inta ": 1493,
      "pol": 1494,
      "jadikan ": 1495,
      "Aku akan ": 1496,
      "salah ": 1497,
      "Selamat ": 1498,
      "jen": 1499,
      "FF": 1500,
      "arik": 1501,
      "Oke": 1502,
      "lain ": 1503,
      "Th": 1504,
      "semasa ": 1505,
      "lum": 1506,
      "ut.\r\n": 1507,
      "ia": 1508,
      "on.\r\n": 1509,
      "tahu, ": 1510,
      "tahun ": 1511,
      "mencari ": 1512,
      "bul": 1513,
      "cuk": 1514,
      "benda ": 1515,
      "sekarang ": 1516,
      "berlak": 1517,
      "mat ": 1518,
      "ank": 1519,
      "band": 1520,
      "ek ": 1521,
      "Siapa ": 1522,
      "It": 1523,
      "Sy": 1524,
      "sak": 1525,
      "percay": 1526,
      "ja": 1527,
      "mah": 1528,
      "bersama ": 1529,
      "begitu ": 1530,
      "Boleh ": 1531,
      "tahun": 1532,
      "membunuh ": 1533,
      "minta ": 1534,
      "berd": 1535,
      "makan ": 1536,
      "boleh": 1537,
      "terb": 1538,
      "Baiklah, ": 1539,
      "pro": 1540,
      "membawa ": 1541,
      "oc": 1542,
      "beri ": 1543,
      "unjukkan ": 1544,
      "ni ": 1545,
      "tek": 1546,
      "ang\r\n": 1547,
      "At": 1548,
      "sal": 1549,
      "memang ": 1550,
      "saja.\r\n": 1551,
      "anya": 1552,
      "lama ": 1553,
      "o, ": 1554,
      "bis": 1555,
      "berlaku ": 1556,
      "ingat ": 1557,
      "Pem": 1558,
      "impan ": 1559,
      "Mem": 1560,
      "hl": 1561,
      "dia?\r\n": 1562,
      "s.\r\n": 1563,
      "keadaan ": 1564,
      "- S": 1565,
      "antar ": 1566,
      "Cep": 1567,
      "mati.\r\n": 1568,
      "dah": 1569,
      "sini ": 1570,
      "war": 1571,
      "sebenar": 1572,
      "tor": 1573,
      "memer": 1574,
      "ah!\r\n": 1575,
      "kemudian ": 1576,
      "heb": 1577,
      "mesti ": 1578,
      "dih": 1579,
      "g ": 1580,
      "at!\r\n": 1581,
      "terl": 1582,
      "lakukan": 1583,
      "Hanya ": 1584,
      "Tu": 1585,
      "Saya tidak ": 1586,
      "mereka": 1587,
      "tolong": 1588,
      "wak": 1589,
      "(wahai ": 1590,
      "at-": 1591,
      "bay": 1592,
      "awak, ": 1593,
      "aman ": 1594,
      "is.\r\n": 1595,
      "dalam": 1596,
      "unya ": 1597,
      "akan men": 1598,
      "kembal": 1599,
      "hati ": 1600,
      "ister": 1601,
      "ner": 1602,
      "sampai ": 1603,
      "awak?\r\n": 1604,
      "Pas": 1605,
      "an) ": 1606,
      "ikut ": 1607,
      "kap": 1608,
      "azab ": 1609,
      "mar": 1610,
      "sebab ": 1611,
      "kr": 1612,
      "terlalu ": 1613,
      "el ": 1614,
      "neg": 1615,
      "seles": 1616,
      "kamu": 1617,
      "saya tak ": 1618,
      "Deng": 1619,
      "secara ": 1620,
      "' ": 1621,
      "mu": 1622,
      "y?\r\n": 1623,
      "siapa ": 1624,
      "tanpa ": 1625,
      "ont": 1626,
      "par": 1627,
      "belum ": 1628,
      "patut ": 1629,
      "Nya ": 1630,
      "tiasa ": 1631,
      "cari ": 1632,
      "paling ": 1633,
      "sebuah ": 1634,
      "Har": 1635,
      "im ": 1636,
      "berikan ": 1637,
      "mengetahui ": 1638,
      "berkata": 1639,
      "kek": 1640,
      "benar ": 1641,
      "setiap ": 1642,
      "Ayah ": 1643,
      "menyer": 1644,
      "dil": 1645,
      "Okay": 1646,
      "untuk": 1647,
      "sana.\r\n": 1648,
      "mal": 1649,
      "ibu ": 1650,
      "ah\r\n": 1651,
      "pr": 1652,
      "Nam": 1653,
      "ing.\r\n": 1654,
      "on\r\n": 1655,
      "angun": 1656,
      "Tetapi ": 1657,
      "bod": 1658,
      "Pr": 1659,
      "ih.\r\n": 1660,
      "oke": 1661,
      "ver": 1662,
      "Is": 1663,
      "unuh": 1664,
      "penj": 1665,
      "kami.\r\n": 1666,
      "terhad": 1667,
      "Allah": 1668,
      "berg": 1669,
      "manusia ": 1670,
      "pent": 1671,
      "at\r\n": 1672,
      "awan ": 1673,
      "usan ": 1674,
      "yak": 1675,
      "mener": 1676,
      "bekerj": 1677,
      "ah-": 1678,
      "(dengan ": 1679,
      "lain.\r\n": 1680,
      "hal ": 1681,
      "od ": 1682,
      "2 ": 1683,
      "h.\r\n": 1684,
      "older": 1685,
      "meningg": 1686,
      "anya, ": 1687,
      "il.\r\n": 1688,
      "masalah ": 1689,
      "tim": 1690,
      "ij": 1691,
      "kak": 1692,
      "ada di ": 1693,
      "buny": 1694,
      "sedikit ": 1695,
      "ini!\r\n": 1696,
      "percaya ": 1697,
      "Dan (": 1698,
      "ram": 1699,
      "ilik": 1700,
      "kerja ": 1701,
      "tinggal": 1702,
      "ur.\r\n": 1703,
      "atang ": 1704,
      "telah di": 1705,
      "gil": 1706,
      "sesuatu yang ": 1707,
      "tetap ": 1708,
      "tu.\r\n": 1709,
      "- Y": 1710,
      "ikut": 1711,
      "jalan": 1712,
      "Cit": 1713,
      "sebab": 1714,
      "ta": 1715,
      ": %s\r\n": 1716,
      "anggil ": 1717,
      "selalu ": 1718,
      "pin": 1719,
      "senjat": 1720,
      "Nama ": 1721,
      "membant": 1722,
      "Tuhan": 1723,
      "anganlah ": 1724,
      "kir": 1725,
      "amu ": 1726,
      ", saya ": 1727,
      "Br": 1728,
      "hendak": 1729,
      "dek": 1730,
      "Bukan ": 1731,
      "ill": 1732,
      "Am": 1733,
      "sendiri.\r\n": 1734,
      "oh ": 1735,
      "sentiasa ": 1736,
      "ipta ": 1737,
      "dul": 1738,
      "(wahai Muhammad": 1739,
      "-\r\n": 1740,
      "aya.\r\n": 1741,
      "ap.\r\n": 1742,
      "ati ": 1743,
      "if": 1744,
      "bersam": 1745,
      "ak!\r\n": 1746,
      "tib": 1747,
      "luar ": 1748,
      "untuk meng": 1749,
      "dunia ": 1750,
      "betul ": 1751,
      "s\r\n": 1752,
      "aut": 1753,
      "di sini ": 1754,
      "lam": 1755,
      "semula ": 1756,
      "ian.\r\n": 1757,
      "tangan ": 1758,
      "perempuan ": 1759,
      "Tidak.\r\n": 1760,
      "umpul": 1761,
      "gad": 1762,
      "Dengan ": 1763,
      "sehingga ": 1764,
      "ainkan ": 1765,
      "ahl": 1766,
      "anti ": 1767,
      "so": 1768,
      "aan": 1769,
      "ubah ": 1770,
      "tuj": 1771,
      "yang ber": 1772,
      "bawah ": 1773,
      "Pel": 1774,
      "kaf": 1775,
      "angan.\r\n": 1776,
      "tar": 1777,
      "mula ": 1778,
      "Al-": 1779,
      "ini\r\n": 1780,
      "): \"": 1781,
      "malam": 1782,
      "aku, ": 1783,
      "menyel": 1784,
      "% ": 1785,
      "itulah ": 1786,
      "%s ": 1787,
      "ter ": 1788,
      "Fa": 1789,
      "di san": 1790,
      "jel": 1791,
      "lap": 1792,
      "patut": 1793,
      "keku": 1794,
      "kannya ": 1795,
      "urut ": 1796,
      "Apakah ": 1797,
      "i. ": 1798,
      "terhadap ": 1799,
      "Itulah ": 1800,
      "n ": 1801,
      "guna ": 1802,
      "wan": 1803,
      "nerak": 1804,
      "pilih": 1805,
      "dahul": 1806,
      "a... ": 1807,
      "es ": 1808,
      "pergi ke ": 1809,
      "pand": 1810,
      "Amer": 1811,
      "mud": 1812,
      "ni.\r\n": 1813,
      "uh, ": 1814,
      "Maka ": 1815,
      "Ib": 1816,
      "ide": 1817,
      "hal": 1818,
      "alah.\r\n": 1819,
      "kaum ": 1820,
      "angnya ": 1821,
      "memper": 1822,
      "pan": 1823,
      "tad": 1824,
      "- Aku ": 1825,
      "kawan ": 1826,
      "Maafkan ": 1827,
      "kan, ": 1828,
      "telef": 1829,
      "tikan ": 1830,
      "bercakap": 1831,
      "air": 1832,
      "'%s": 1833,
      "jaw": 1834,
      "di dalam ": 1835,
      "a, dan ": 1836,
      "hendak ": 1837,
      "Betul": 1838,
      "sam": 1839,
      "berger": 1840,
      "Kerana ": 1841,
      "Sa": 1842,
      "akan di": 1843,
      "tidak dapat ": 1844,
      "saya!\r\n": 1845,
      "ju": 1846,
      "mu.\r\n": 1847,
      "Bel": 1848,
      "City ": 1849,
      "ar?\r\n": 1850,
      "cik ": 1851,
      "Pap": 1852,
      "keluar dari ": 1853,
      "perkara yang ": 1854,
      "kamu ber": 1855,
      "ped": 1856,
      "melakukan": 1857,
      "ke dalam ": 1858,
      "aca ": 1859,
      "angkap ": 1860,
      "Wahai ": 1861,
      "- M": 1862,
      "kenapa ": 1863,
      "ata ": 1864,
      "yg ": 1865,
      "mesej": 1866,
      "Adakah anda ": 1867,
      "akhir ": 1868,
      "Maksud": 1869,
      "Sekar": 1870,
      "apa-apa ": 1871,
      "irkan ": 1872,
      "sesiapa yang ": 1873,
      "terus ": 1874,
      "aks": 1875,
      "enti ": 1876,
      "hamp": 1877,
      "o\r\n": 1878,
      "sis": 1879,
      "apa-apa.\r\n": 1880,
      "ya.\r\n": 1881,
      "epaskan ": 1882,
      "besar ": 1883,
      "Sudah ": 1884,
      "& ": 1885,
      "5 ": 1886,
      "tidak.\r\n": 1887,
      "Mengapa ": 1888,
      "berk": 1889,
      "embak ": 1890,
      "ahagian ": 1891,
      "uhkan ": 1892,
      "omp": 1893,
      "pertama ": 1894,
      "ahw": 1895,
      "pur": 1896,
      "waktu ": 1897,
      "Orang ": 1898,
      "makhl": 1899,
      "berkata: \"": 1900,
      "Saya rasa ": 1901,
      "sep": 1902,
      "mata ": 1903,
      "Bu": 1904,
      "tidak ada ": 1905,
      "# ": 1906,
      "jah": 1907,
      "tuan.\r\n": 1908,
      "let": 1909,
      "aknya ": 1910,
      "beriman ": 1911,
      "ot ": 1912,
      "City in ": 1913,
      "sekali ": 1914,
      "di mana ": 1915,
      "Tidak dapat ": 1916,
      "gag": 1917,
      "ed ": 1918,
      "Ket": 1919,
      "Al-Q": 1920,
      "ol ": 1921,
      "car": 1922,
      "ajar ": 1923,
      "- H": 1924,
      "bias": 1925,
      "ranc": 1926,
      "dep": 1927,
      "inc": 1928,
      "ho": 1929,
      "an. ": 1930,
      "mend": 1931,
      "lakukan.\r\n": 1932,
      "Ini adalah ": 1933,
      "Pergi ": 1934,
      "gemb": 1935,
      "besar": 1936,
      "1 ": 1937,
      "y!\r\n": 1938,
      "Rasul": 1939,
      "kereta ": 1940,
      "Kemudian ": 1941,
      "wa ": 1942,
      "ex": 1943,
      "betul.\r\n": 1944,
      "juga.\r\n": 1945,
      "keluar ": 1946,
      "i yang ": 1947,
      "berkata ": 1948,
      "ap-": 1949,
      "ok.\r\n": 1950,
      "ala ": 1951,
      "selama ": 1952,
      "Say": 1953,
      "masuk": 1954,
      "il\r\n": 1955,
      "ujud": 1956,
      "Tungg": 1957,
      "Gr": 1958,
      "aian ": 1959,
      "selepas ": 1960,
      "Ralat ": 1961,
      "ev": 1962,
      "hub": 1963,
      "kannya.\r\n": 1964,
      " daripada ": 1965,
      "aku akan ": 1966,
      "ada.\r\n": 1967,
      "- Awak ": 1968,
      "lat": 1969,
      "melainkan ": 1970,
      "mengenai ": 1971,
      "cukup ": 1972,
      "ej ": 1973,
      "Keluar": 1974,
      "I ": 1975,
      "Im": 1976,
      "ist": 1977,
      "upun ": 1978,
      "Car": 1979,
      "untuk mem": 1980,
      "lumat ": 1981,
      "sur": 1982,
      "terus": 1983,
      "urunkan ": 1984,
      "benar-": 1985,
      "sedia ": 1986,
      "mamp": 1987,
      "ala": 1988,
      "yang meng": 1989,
      "Ser": 1990,
      "War": 1991,
      "dia, ": 1992,
      "- Dia ": 1993,
      "kuasa ": 1994,
      "umb": 1995,
      "inan ": 1996,
      "ko": 1997,
      "memberikan ": 1998,
      "ihatan ": 1999,
      "bertem": 2000,
      "berada di ": 2001,
      "saat ": 2002,
      "iti ": 2003,
      "cant": 2004,
      "kon": 2005,
      "tep": 2006,
      "tug": 2007,
      "Tidak": 2008,
      "demikian ": 2009,
      "Set": 2010,
      "intah": 2011,
      "kepal": 2012,
      "ai, ": 2013,
      "i...\r\n": 2014,
      "keter": 2015,
      "tidak ber": 2016,
      "iau ": 2017,
      "kad": 2018,
      "Macam ": 2019,
      "tengah ": 2020,
      "pada hari ": 2021,
      "melal": 2022,
      "- Ya, ": 2023,
      "kita akan ": 2024,
      "harap ": 2025,
      "Ing": 2026,
      "budak ": 2027,
      "huk": 2028,
      "Kit": 2029,
      "kan\r\n": 2030,
      "takan ": 2031,
      "yang saya ": 2032,
      "Seperti ": 2033,
      "umen": 2034,
      "all": 2035,
      "ki": 2036,
      "kehidup": 2037,
      "bagus.\r\n": 2038,
      "ku.\r\n": 2039,
      "t\r\n": 2040,
      "Mel": 2041,
      "ni?\r\n": 2042,
      "semuanya ": 2043,
      "Pilih ": 2044,
      "sepatut": 2045,
      "anjang ": 2046,
      "bak": 2047,
      "nan": 2048,
      "Semu": 2049,
      "ara.\r\n": 2050,
      "itu) ": 2051,
      "Band": 2052,
      "Pro": 2053,
      "bisa ": 2054,
      "gr": 2055,
      ";\r\n": 2056,
      "seseorang ": 2057,
      "aku": 2058,
      "bekerja ": 2059,
      "utup ": 2060,
      "Ad": 2061,
      "terima kas": 2062,
      "tentu ": 2063,
      "), dan ": 2064,
      "sh": 2065,
      "Bag": 2066,
      "hamb": 2067,
      "keluarga ": 2068,
      "aan.\r\n": 2069,
      "janganlah ": 2070,
      "jenis ": 2071,
      "ilai ": 2072,
      "e?\r\n": 2073,
      "ung.\r\n": 2074,
      "olah ": 2075,
      "us, ": 2076,
      "Kek": 2077,
      "punya ": 2078,
      "peg": 2079,
      "atas": 2080,
      "ar\r\n": 2081,
      "tera ": 2082,
      "minta maaf": 2083,
      "dia!\r\n": 2084,
      "elah ": 2085,
      "Allah, ": 2086,
      "asaan ": 2087,
      "ukar ": 2088,
      "mana?\r\n": 2089,
      "Teng": 2090,
      "di antara ": 2091,
      "uhan ": 2092,
      "apakah ": 2093,
      "air ": 2094,
      "besar.\r\n": 2095,
      "folder": 2096,
      "am, ": 2097,
      "ambah ": 2098,
      "tiga ": 2099,
      "Atau ": 2100,
      "benar-benar ": 2101,
      "nik": 2102,
      "Tolong ": 2103,
      "Mus": 2104,
      "Terima kasih": 2105,
      "Dalam ": 2106,
      "for": 2107,
      "menggunakan ": 2108,
      "anak-": 2109,
      "katakan ": 2110,
      "e!\r\n": 2111,
      "anggil": 2112,
      "ikan": 2113,
      "Aku tidak ": 2114,
      "al\r\n": 2115,
      "sebarang ": 2116,
      "ait": 2117,
      "utan ": 2118,
      "sp": 2119,
      "kamu?\r\n": 2120,
      "lup": 2121,
      "semul": 2122,
      "maksud ": 2123,
      "menjadikan ": 2124,
      "memberitahu ": 2125,
      "saud": 2126,
      "lagi, ": 2127,
      "kehil": 2128,
      "empat ": 2129,
      "tahu apa yang ": 2130,
      "Ole": 2131,
      "kau, ": 2132,
      "ack": 2133,
      "pint": 2134,
      "?\"\r\n": 2135,
      "hab": 2136,
      "m\r\n": 2137,
      "mengatakan ": 2138,
      "tidak, ": 2139,
      "uru ": 2140,
      "A ": 2141,
      "hany": 2142,
      "akanlah ": 2143,
      "dar": 2144,
      "sendiri ": 2145,
      "uan.\r\n": 2146,
      "kepada mereka ": 2147,
      "petunj": 2148,
      "ukul ": 2149,
      "aku tak ": 2150,
      "amatkan ": 2151,
      "kanlah ": 2152,
      "osong": 2153,
      "- Kau ": 2154,
      "beb": 2155,
      "mengg": 2156,
      "bahagian ": 2157,
      "bilik ": 2158,
      "Ku": 2159,
      "mendengar ": 2160,
      "sesuatu.\r\n": 2161,
      "Oh ": 2162,
      "ingan ": 2163,
      "00 ": 2164,
      "Di mana ": 2165,
      "sahaja ": 2166,
      "segala ": 2167,
      "belakang ": 2168,
      "Jen": 2169,
      "kenal ": 2170,
      "Kita akan ": 2171,
      "ulis ": 2172,
      "ini adalah ": 2173,
      "ak?\r\n": 2174,
      "melalui ": 2175,
      "untuk di": 2176,
      "Kami telah ": 2177,
      "Ben": 2178,
      "he": 2179,
      "lik": 2180,
      "Oleh ": 2181,
      "Dr": 2182,
      "- L": 2183,
      "AN": 2184,
      "Mana ": 2185,
      "sepatutnya ": 2186,
      "apa, ": 2187,
      "yang kamu ": 2188,
      "ayan ": 2189,
      "ayat ": 2190,
      "menar": 2191,
      "aik ": 2192,
      "tinggal ": 2193,
      ".. ..": 2194,
      "isan ": 2195,
      "bodoh": 2196,
      "mendapatkan ": 2197,
      "ihan ": 2198,
      "tidak di": 2199,
      "a/": 2200,
      "angi ": 2201,
      "Mari kita ": 2202,
      "Ye": 2203,
      "biarkan ": 2204,
      "uri ": 2205,
      "iran ": 2206,
      "ov": 2207,
      "Satu ": 2208,
      "iliki ": 2209,
      "kat ": 2210,
      "kedu": 2211,
      "adakah ": 2212,
      "Sebab ": 2213,
      "Saya dah ": 2214,
      "kau?\r\n": 2215,
      "at?\r\n": 2216,
      "orang.\r\n": 2217,
      "bertemu ": 2218,
      "senar": 2219,
      "seluruh ": 2220,
      "Biar ": 2221,
      "tand": 2222,
      "Sam": 2223,
      "tu?\r\n": 2224,
      "selamat ": 2225,
      "kawan.\r\n": 2226,
      "gadis ": 2227,
      "sembuny": 2228,
      "aja ": 2229,
      "a? ": 2230,
      "mungk": 2231,
      "berb": 2232,
      "Joh": 2233,
      "3 ": 2234,
      "- K": 2235,
      "aku?\r\n": 2236,
      "her": 2237,
      "hit": 2238,
      "ick": 2239,
      "Tent": 2240,
      "Tak ada ": 2241,
      "ingkap ": 2242,
      "kar": 2243,
      "tolong ": 2244,
      "takut ": 2245,
      "tak ada ": 2246,
      "Kami akan ": 2247,
      "gan": 2248,
      "ahli ": 2249,
      "as, ": 2250,
      "tif": 2251,
      "sebahagian ": 2252,
      "melihat": 2253,
      "huj": 2254,
      "mm": 2255,
      "datang.\r\n": 2256,
      "Ia adalah ": 2257,
      "Sen": 2258,
      "bangun": 2259,
      "Terima kasih ": 2260,
      "Me": 2261,
      "ihkan ": 2262,
      "'\r\n": 2263,
      "tik": 2264,
      "api, ": 2265,
      "saya tidak ": 2266,
      "om ": 2267,
      "u. ": 2268,
      "ap-tiap ": 2269,
      "memerl": 2270,
      "nya\r\n": 2271,
      "but": 2272,
      "sese": 2273,
      "Maksud ": 2274,
      "mari ": 2275,
      "Nya": 2276,
      "kg": 2277,
      "ilik ": 2278,
      "ibad": 2279,
      "sembah": 2280,
      "angka ": 2281,
      "kom": 2282,
      "bez": 2283,
      "- D": 2284,
      "sama.\r\n": 2285,
      "kehilangan ": 2286,
      "bimb": 2287,
      "- Apa ": 2288,
      "demi ": 2289,
      "membantu ": 2290,
      "begitu.\r\n": 2291,
      "awak tak ": 2292,
      "dia akan ": 2293,
      "benc": 2294,
      "tungg": 2295,
      "the ": 2296,
      "sedi": 2297,
      "♪ ": 2298,
      "perbu": 2299,
      "ingatlah": 2300,
      "ianya ": 2301,
      "diri.\r\n": 2302,
      "bat": 2303,
      "(dari ": 2304,
      "Ianya ": 2305,
      "Tuan ": 2306,
      "ak\r\n": 2307,
      "perat": 2308,
      "di sini?\r\n": 2309,
      "amat": 2310,
      "pag": 2311,
      "bumi ": 2312,
      "Hey, ": 2313,
      "gamb": 2314,
      "kelihatan ": 2315,
      "ani ": 2316,
      "Bandar ": 2317,
      "enc": 2318,
      "untuk memb": 2319,
      "wanita ": 2320,
      "nya!\r\n": 2321,
      "Sekarang, ": 2322,
      "ani": 2323,
      "meminta ": 2324,
      "en.\r\n": 2325,
      "on, ": 2326,
      "ombor ": 2327,
      "pl": 2328,
      "lah!\r\n": 2329,
      "meninggalkan ": 2330,
      "okay": 2331,
      "menyeb": 2332,
      "Pada ": 2333,
      "sik": 2334,
      "iz ": 2335,
      "al, ": 2336,
      "Fail ": 2337,
      "bercakap ": 2338,
      "kgm\r\n": 2339,
      "annya": 2340,
      "Saya nak ": 2341,
      "datang ke ": 2342,
      "uali ": 2343,
      "am?\r\n": 2344,
      "Awak tak ": 2345,
      "Namp": 2346,
      "tanda ": 2347,
      " dit": 2348,
      "lagi Maha ": 2349,
      "selamatkan ": 2350,
      "kamu akan ": 2351,
      "mereka tidak ": 2352,
      "balik ": 2353,
      "ahnya ": 2354,
      "permain": 2355,
      "sistem": 2356,
      "Fr": 2357,
      "cint": 2358,
      "langit": 2359,
      "Amerik": 2360,
      "Ro": 2361,
      "l ": 2362,
      "khab": 2363,
      "Berapa ": 2364,
      "lar": 2365,
      "awal ": 2366,
      "tinggalkan ": 2367,
      "pintu ": 2368,
      "Bukan": 2369,
      "dok": 2370,
      "ina ": 2371,
      "entikan ": 2372,
      "minum": 2373,
      "hor": 2374,
      "semua.\r\n": 2375,
      "saya boleh ": 2376,
      "buat?\r\n": 2377,
      "Bila ": 2378,
      "ankan ": 2379,
      "urkan ": 2380,
      "ami ": 2381,
      "Saya tahu ": 2382,
      "uhi ": 2383,
      "Sebenar": 2384,
      "En. ": 2385,
      "jam ": 2386,
      "takut": 2387,
      "ai\r\n": 2388,
      "lok": 2389,
      "etakkan ": 2390,
      "Ak": 2391,
      "anda, ": 2392,
      "mereka akan ": 2393,
      "sih": 2394,
      "hampir ": 2395,
      "tip": 2396,
      "Dem": 2397,
      "Gun": 2398,
      "bukan?\r\n": 2399,
      "telefon ": 2400,
      "Buka ": 2401,
      "4 ": 2402,
      "seger": 2403,
      "ambil": 2404,
      "at yang ": 2405,
      "sini, ": 2406,
      "perintah": 2407,
      "mingg": 2408,
      "in, ": 2409,
      "apap": 2410,
      "anya?\r\n": 2411,
      "hanyalah ": 2412,
      "sil": 2413,
      "a:\r\n": 2414,
      "os ": 2415,
      "maklumat ": 2416,
      "Ya.\r\n": 2417,
      "faham ": 2418,
      "pus": 2419,
      "menurut ": 2420,
      "Kap": 2421,
      "tiap-tiap ": 2422,
      "intah ": 2423,
      "senjata ": 2424,
      "kembali.\r\n": 2425,
      "ik, ": 2426,
      "Su": 2427,
      "col": 2428,
      "as\r\n": 2429,
      "alaupun ": 2430,
      "yr": 2431,
      "tengok ": 2432,
      "sesiapa ": 2433,
      "untuk ber": 2434,
      "Pad": 2435,
      "amal ": 2436,
      "AR": 2437,
      "o!\r\n": 2438,
      "an...\r\n": 2439,
      "umber": 2440,
      "kepada Allah ": 2441,
      "Lihat ": 2442,
      "tanya ": 2443,
      "kafir ": 2444,
      "tunggu ": 2445,
      "tak?\r\n": 2446,
      "bersama-": 2447,
      "terjad": 2448,
      "au": 2449,
      "hak": 2450,
      "itu adalah ": 2451,
      "an, dan ": 2452,
      "s, ": 2453,
      "era ": 2454,
      "siapa yang ": 2455,
      "%d": 2456,
      "Gag": 2457,
      "Pat": 2458,
      "ikan.\r\n": 2459,
      "Beritahu ": 2460,
      " (": 2461,
      "Ke ": 2462,
      "dapat": 2463,
      "bij": 2464,
      "--": 2465,
      "etak ": 2466,
      "upakan ": 2467,
      "Dia lah ": 2468,
      ") yang ": 2469,
      "Man": 2470,
      "mereka ber": 2471,
      "berta": 2472,
      "muka ": 2473,
      "menerima ": 2474,
      "\"%s": 2475,
      "duduk": 2476,
      "Hari ": 2477,
      "anda?\r\n": 2478,
      "kepada kamu ": 2479,
      "boleh.\r\n": 2480,
      "Be": 2481,
      "Tr": 2482,
      "iksa ": 2483,
      "tert": 2484,
      "baik, ": 2485,
      "isteri ": 2486,
      "pedul": 2487,
      "ke?\r\n": 2488,
      "dengar": 2489,
      "keluar.\r\n": 2490,
      "emui ": 2491,
      "ont ": 2492,
      "au.\r\n": 2493,
      "mak ": 2494,
      "sebenarnya ": 2495,
      "mampu ": 2496,
      "yang lebih ": 2497,
      "merasa ": 2498,
      "memerlukan ": 2499,
      "Sila ": 2500,
      "mereka (": 2501,
      "bandar ": 2502,
      "]\r\n": 2503,
      "hilang ": 2504,
      "suatu ": 2505,
      "Lebih ": 2506,
      "ia, ": 2507,
      "kau tak ": 2508,
      "awat ": 2509,
      "h!\r\n": 2510,
      "ir.\r\n": 2511,
      "umpulan ": 2512,
      "aku!\r\n": 2513,
      "yo": 2514,
      "og ": 2515,
      "kita boleh ": 2516,
      "ib ": 2517,
      "jauh ": 2518,
      "m ": 2519,
      "bukanlah ": 2520,
      "Mat": 2521,
      "Sal": 2522,
      "zal": 2523,
      "memiliki ": 2524,
      "Siapa yang ": 2525,
      "inkan ": 2526,
      "menyemb": 2527,
      "leb": 2528,
      "mu, ": 2529,
      "utam": 2530,
      "Ab": 2531,
      "terjadi ": 2532,
      "Par": 2533,
      "embal": 2534,
      "\", ": 2535,
      "10": 2536,
      "un, ": 2537,
      "malaik": 2538,
      "ort ": 2539,
      "etapkan ": 2540,
      "hidup.\r\n": 2541,
      "balas": 2542,
      "nas": 2543,
      "masing": 2544,
      "em ": 2545,
      "ajar": 2546,
      "yang tidak ": 2547,
      "penc": 2548,
      "ian, ": 2549,
      "memas": 2550,
      "nama": 2551,
      "str": 2552,
      "pasukan ": 2553,
      "wujud": 2554,
      "indungi ": 2555,
      "an:\r\n": 2556,
      "The ": 2557,
      "ti, ": 2558,
      "Eng": 2559,
      "kehidupan ": 2560,
      "sana ": 2561,
      "kecil ": 2562,
      "gar": 2563,
      "tinggal di ": 2564,
      "tor ": 2565,
      "lay": 2566,
      "sang": 2567,
      "yang men": 2568,
      "Tingg": 2569,
      "kecil": 2570,
      "apa yang kamu ": 2571,
      "sekarang, ": 2572,
      "Mal": 2573,
      "nya) ": 2574,
      "golong": 2575,
      "Kita perlu ": 2576,
      "est": 2577,
      "Kem": 2578,
      "buang ": 2579,
      "i, dan ": 2580,
      "lab": 2581,
      "ihak ": 2582,
      "sebabkan ": 2583,
      "= ": 2584,
      "Papar ": 2585,
      "- J": 2586,
      "apa yang mereka ": 2587,
      "kapal ": 2588,
      "ungguh ": 2589,
      "sus": 2590,
      "ayah.\r\n": 2591,
      "awak akan ": 2592,
      "menjaw": 2593,
      "main ": 2594,
      "ramai ": 2595,
      "Bl": 2596,
      "ip ": 2597,
      "Terima kasih, ": 2598,
      "perbuatan ": 2599,
      "pe": 2600,
      "atan.\r\n": 2601,
      "at dan ": 2602,
      "keterangan ": 2603,
      "an dan ": 2604,
      "Bah": 2605,
      "adi": 2606,
      "satunya ": 2607,
      "hant": 2608,
      "yang lain": 2609,
      "fil": 2610,
      "menyelamatkan ": 2611,
      "Buk": 2612,
      "temb": 2613,
      "Name\r\n": 2614,
      "lem": 2615,
      "berlaku?\r\n": 2616,
      "naf": 2617,
      "agak ": 2618,
      "makhluk ": 2619,
      "); ": 2620,
      "orang": 2621,
      "berhenti ": 2622,
      "10 ": 2623,
      "ion": 2624,
      "baj": 2625,
      "dos": 2626,
      "bahkan ": 2627,
      "sekali.\r\n": 2628,
      "tahun.\r\n": 2629,
      "berf": 2630,
      "es\r\n": 2631,
      "ff": 2632,
      "tiba ": 2633,
      "Macam mana ": 2634,
      "hukum": 2635,
      "Ed": 2636,
      "and ": 2637,
      "sekarang?\r\n": 2638,
      "Tak, ": 2639,
      "akan, ": 2640,
      "orang-orang yang berim": 2641,
      "senarai ": 2642,
      "Dap": 2643,
      "Kau tak ": 2644,
      "pulang ": 2645,
      "Gagal ": 2646,
      "Pol": 2647,
      "ektor": 2648,
      "us\r\n": 2649,
      "Maaf, ": 2650,
      "duduk ": 2651,
      "muk": 2652,
      "selamat.\r\n": 2653,
      "usah": 2654,
      "lagi?\r\n": 2655,
      "mengapa ": 2656,
      "berita ": 2657,
      "terakhir ": 2658,
      "angkah ": 2659,
      "aripad": 2660,
      "waj": 2661,
      "ha": 2662,
      "hantar ": 2663,
      "tur": 2664,
      "ort": 2665,
      "fig": 2666,
      "is\r\n": 2667,
      "ia adalah ": 2668,
      "Ik": 2669,
      "sayang.\r\n": 2670,
      "aku tidak ": 2671,
      "Cuma ": 2672,
      "masa yang ": 2673,
      "Meny": 2674,
      "azab sek": 2675,
      "Dan (ingatlah": 2676,
      "pant": 2677,
      "iri ": 2678,
      "Amb": 2679,
      "pekerj": 2680,
      "uti": 2681,
      "di sana.\r\n": 2682,
      "tam": 2683,
      "polis ": 2684,
      "kepala ": 2685,
      "mana-": 2686,
      "ya, ": 2687,
      "-baik ": 2688,
      "memand": 2689,
      "Semuanya ": 2690,
      "Kec": 2691,
      "Mes": 2692,
      "akan menjadi ": 2693,
      "baru.\r\n": 2694,
      "Dari ": 2695,
      "id ": 2696,
      "itu!\r\n": 2697,
      "gembira ": 2698,
      "Peny": 2699,
      "cepat ": 2700,
      "nes": 2701,
      "sempur": 2702,
      "Okey.\r\n": 2703,
      "pap": 2704,
      "neger": 2705,
      "mengand": 2706,
      "ini. ": 2707,
      "bo": 2708,
      "Encik ": 2709,
      "yakin ": 2710,
      "pik": 2711,
      "peris": 2712,
      "Kitab ": 2713,
      "setelah ": 2714,
      "usaha ": 2715,
      "kis": 2716,
      "bad": 2717,
      "yang telah ": 2718,
      "membel": 2719,
      "And": 2720,
      "lakukan?\r\n": 2721,
      "Masa ": 2722,
      "has": 2723,
      "ayar ": 2724,
      "Stat": 2725,
      "kaki ": 2726,
      "jut": 2727,
      "Pak": 2728,
      "- Apa yang ": 2729,
      "nyat": 2730,
      "eluar": 2731,
      "Apabila ": 2732,
      "ke d": 2733,
      "buruk ": 2734,
      "Beg": 2735,
      "menunggu ": 2736,
      "Ayuh, ": 2737,
      "ihat, ": 2738,
      "masa.\r\n": 2739,
      "anak": 2740,
      "okey?\r\n": 2741,
      "- Baik": 2742,
      "penuh ": 2743,
      "Hell": 2744,
      "lemb": 2745,
      "hebat.\r\n": 2746,
      "paksa ": 2747,
      "syen ": 2748,
      "S ": 2749,
      "betul-": 2750,
      "Dengar, ": 2751,
      "); dan ": 2752,
      "le ": 2753,
      "mimp": 2754,
      "ros": 2755,
      "peluang ": 2756,
      "nilai ": 2757,
      "ad ": 2758,
      "it, ": 2759,
      "top": 2760,
      "itah": 2761,
      "Dia akan ": 2762,
      "disebabkan ": 2763,
      "Mul": 2764,
      "keluarg": 2765,
      "te": 2766,
      "tuh": 2767,
      "itan ": 2768,
      "buat.\r\n": 2769,
      "u...\r\n": 2770,
      "alah, ": 2771,
      "mis": 2772,
      "Ya ": 2773,
      "cinta ": 2774,
      "tahu?\r\n": 2775,
      "epas": 2776,
      "- Itu ": 2777,
      "neraka ": 2778,
      "tig": 2779,
      "sebelah ": 2780,
      "ik\r\n": 2781,
      "asakan ": 2782,
      "rak": 2783,
      "sif": 2784,
      "ri": 2785,
      "♪\r\n": 2786,
      "Kaw": 2787,
      "bek": 2788,
      "Allah Maha ": 2789,
      "John": 2790,
      "memak": 2791,
      "sar": 2792,
      "er.\r\n": 2793,
      "oll": 2794,
      "i) ": 2795,
      "menak": 2796,
      "is, ": 2797,
      "Char": 2798,
      "_B": 2799,
      "perhat": 2800,
      " dah ": 2801,
      "kita ber": 2802,
      "kemat": 2803,
      "mesej ": 2804,
      "aur": 2805,
      "jek ": 2806,
      "buku ": 2807,
      "bercakap dengan ": 2808,
      "Jo": 2809,
      "Le": 2810,
      "yang awak ": 2811,
      "Tak dapat ": 2812,
      "Okay.\r\n": 2813,
      "harg": 2814,
      " deng": 2815,
      "jatuh ": 2816,
      "ans": 2817,
      "setuj": 2818,
      "kejad": 2819,
      "faham.\r\n": 2820,
      "tetingkap ": 2821,
      "tidur": 2822,
      "kau akan ": 2823,
      "kaum": 2824,
      "sepanjang ": 2825,
      "anak-anak ": 2826,
      "ord": 2827,
      "ira": 2828,
      "uju ": 2829,
      "nanti.\r\n": 2830,
      "samb": 2831,
      "mereka?\r\n": 2832,
      "wang ": 2833,
      "ap\r\n": 2834,
      "yang akan ": 2835,
      "bulan ": 2836,
      "pah": 2837,
      "to": 2838,
      "up.\r\n": 2839,
      "Ang": 2840,
      "Sep": 2841,
      "eder": 2842,
      "Lihat": 2843,
      "ihat.\r\n": 2844,
      "ew ": 2845,
      "kebenar": 2846,
      "keput": 2847,
      "imej ": 2848,
      "panggil": 2849,
      "ayat-": 2850,
      "pasal ": 2851,
      "tugas ": 2852,
      "keselam": 2853,
      "pergi, ": 2854,
      "kepadamu ": 2855,
      "Okay, ": 2856,
      "Mak ": 2857,
      "saya": 2858,
      "Beliau ": 2859,
      "Tah": 2860,
      "semua orang ": 2861,
      "jalankan ": 2862,
      "Pe": 2863,
      "bud": 2864,
      ". kgm\r\n": 2865,
      "u-satunya ": 2866,
      "sesudah ": 2867,
      "membuka ": 2868,
      "am!\r\n": 2869,
      "atnya ": 2870,
      "pun.\r\n": 2871,
      "perkat": 2872,
      "- Kamu ": 2873,
      "bahag": 2874,
      "pergi?\r\n": 2875,
      "pilihan ": 2876,
      "folder ": 2877,
      "dulu.\r\n": 2878,
      "Pemb": 2879,
      "hari.\r\n": 2880,
      "Anak ": 2881,
      "buka ": 2882,
      "un.\r\n": 2883,
      "Tidak ada ": 2884,
      "El": 2885,
      "Tunggu ": 2886,
      "angka": 2887,
      "Maaf.\r\n": 2888,
      "bantuan ": 2889,
      "untuk mel": 2890,
      "kembali ke ": 2891,
      "okong": 2892,
      "hi": 2893,
      "rancangan ": 2894,
      "Ambil ": 2895,
      "6 ": 2896,
      "Fij": 2897,
      "Dok": 2898,
      "Sangat ": 2899,
      "sia ": 2900,
      "tul": 2901,
      "perintah ": 2902,
      "kepada": 2903,
      "Dah ": 2904,
      "ond": 2905,
      "abat ": 2906,
      "co": 2907,
      "es.\r\n": 2908,
      "masalah.\r\n": 2909,
      "el\r\n": 2910,
      "umen ": 2911,
      "panggil ": 2912,
      "... dan ": 2913,
      "ota ": 2914,
      "Al-Quran ": 2915,
      "] ": 2916,
      "unia ": 2917,
      "dic": 2918,
      "Saya ada ": 2919,
      "D ": 2920,
      "harta ": 2921,
      "barang ": 2922,
      "buatkan ": 2923,
      "Dan saya ": 2924,
      "am\r\n": 2925,
      "kuf": 2926,
      "kekunci ": 2927,
      "Bukankah ": 2928,
      "Boleh": 2929,
      "OK": 2930,
      "Ibu ": 2931,
      "or.\r\n": 2932,
      "iskan ": 2933,
      "benar.\r\n": 2934,
      "Bandar nama": 2935,
      "kosong": 2936,
      "makna ": 2937,
      "buruk": 2938,
      "kul": 2939,
      "tunjukkan ": 2940,
      "kanak-": 2941,
      "agaiman": 2942,
      "Sar": 2943,
      "oper": 2944,
      "ingkat ": 2945,
      "sekit": 2946,
      "FFFF": 2947,
      "sini!\r\n": 2948,
      "dahulu ": 2949,
      "keben": 2950,
      "perub": 2951,
      "di atas ": 2952,
      "kanak-kan": 2953,
      "kurang ": 2954,
      "Syur": 2955,
      "Bandar namaCity in ": 2956,
      "ia\r\n": 2957,
      "ugama ": 2958,
      ") dan ": 2959,
      "Aku tahu ": 2960,
      "memik": 2961,
      "Okey, ": 2962,
      "- Oh, ": 2963,
      "kunci ": 2964,
      "la": 2965,
      "ment": 2966,
      "kebaik": 2967,
      "iptakan ": 2968,
      "pi": 2969,
      "menent": 2970,
      "mencipta ": 2971,
      "antar": 2972,
      "'s ": 2973,
      "sung": 2974,
      "Dia tak ": 2975,
      "ma": 2976,
      "luar": 2977,
      "angkap": 2978,
      "uck": 2979,
      "Katakanlah ": 2980,
      "Tek": 2981,
      "langit dan ": 2982,
      "tangg": 2983,
      "amal": 2984,
      "membunuh": 2985,
      "nombor ": 2986,
      "seri": 2987,
      "alas": 2988,
      "- Ber": 2989,
      "kamu tidak ": 2990,
      "ses ": 2991,
      "hendaklah ": 2992,
      "bet": 2993,
      "ayah": 2994,
      "terseb": 2995,
      "pihak ": 2996,
      "res": 2997,
      "i... ": 2998,
      "akhir.\r\n": 2999,
      "menghantar ": 3000,
      "kebenaran ": 3001,
      "urusan ": 3002,
      "demikian": 3003,
      "mudah ": 3004,
      "manusia.\r\n": 3005,
      "Al-Qur": 3006,
      "Bawa ": 3007,
      "ME": 3008,
      "tit": 3009,
      "urus": 3010,
      "Setelah ": 3011,
      "asa.\r\n": 3012,
      "cerit": 3013,
      "ku, ": 3014,
      "Simpan ": 3015,
      "gem": 3016,
      "Ten": 3017,
      "igh": 3018,
      "warna ": 3019,
      "milik ": 3020,
      "ter.\r\n": 3021,
      "cerita ": 3022,
      "e-": 3023,
      "ahan": 3024,
      " dap": 3025,
      "i-hat": 3026,
      "perempu": 3027,
      "kami, ": 3028,
      "dia tak ": 3029,
      "sungguh ": 3030,
      "pec": 3031,
      "Dav": 3032,
      "iku ": 3033,
      "Saya boleh ": 3034,
      "aran.\r\n": 3035,
      "urus ": 3036,
      "menjawab": 3037,
      "....\r\n": 3038,
      "yar": 3039,
      "yang kau ": 3040,
      "perasaan ": 3041,
      "bapa ": 3042,
      "apuskan ": 3043,
      "P ": 3044,
      "tuan ": 3045,
      "kawasan ": 3046,
      "dirinya ": 3047,
      "pakaian ": 3048,
      "kac": 3049,
      "to ": 3050,
      "anyak ": 3051,
      "Sej": 3052,
      "skr": 3053,
      "alik": 3054,
      "Seg": 3055,
      "naik ": 3056,
      "menye": 3057,
      "De": 3058,
      "akin ": 3059,
      "ohon ": 3060,
      "ual ": 3061,
      "esid": 3062,
      "bantu ": 3063,
      "bac": 3064,
      "of ": 3065,
      "rakan ": 3066,
      "ori ": 3067,
      "tidak pernah ": 3068,
      "Warna ": 3069,
      "Qu": 3070,
      "Senar": 3071,
      "t.\r\n": 3072,
      "turun": 3073,
      "ukan, ": 3074,
      "tahan ": 3075,
      "negara ": 3076,
      "depan ": 3077,
      "1\r\n": 3078,
      "Lalu ": 3079,
      "angan, ": 3080,
      "berjalan ": 3081,
      "petunjuk ": 3082,
      "mereka yang ": 3083,
      "berjaya ": 3084,
      "el.\r\n": 3085,
      "- Kita ": 3086,
      "mereka pula ": 3087,
      "dengan": 3088,
      "sejak ": 3089,
      "sistem ": 3090,
      "Apa yang awak ": 3091,
      "jar": 3092,
      "sas": 3093,
      "angs": 3094,
      "acti": 3095,
      "laluan ": 3096,
      "Aku rasa ": 3097,
      "entuh ": 3098,
      "henti": 3099,
      "amkan ": 3100,
      "seorang yang ": 3101,
      "awai ": 3102,
      "utkan ": 3103,
      "impa ": 3104,
      "'%s' ": 3105,
      "19": 3106,
      "ingatan ": 3107,
      "minggu ": 3108,
      "seterus": 3109,
      "Ini bukan ": 3110,
      "Tuhanmu ": 3111,
      "Tapi, ": 3112,
      "ked": 3113,
      "Op": 3114,
      "berfikir ": 3115,
      "pelayan ": 3116,
      "Sat": 3117,
      "pukul ": 3118,
      "menghal": 3119,
      "org": 3120,
      "ing, ": 3121,
      "mengej": 3122,
      "membi": 3123,
      "Kep": 3124,
      "cah": 3125,
      "awak boleh ": 3126,
      "Inilah ": 3127,
      "Seorang ": 3128,
      "cr": 3129,
      "las": 3130,
      "ahwin": 3131,
      "kand": 3132,
      "Saya mahu ": 3133,
      "fr": 3134,
      "- P": 3135,
      "egang ": 3136,
      "teman ": 3137,
      "sumber": 3138,
      "di sini, ": 3139,
      "sekut": 3140,
      "jalanan ": 3141,
      "8 ": 3142,
      "erima ": 3143,
      "%s: ": 3144,
      "kecuali ": 3145,
      "(wahai Muhammad) ": 3146,
      "apan.\r\n": 3147,
      "- Jangan ": 3148,
      "- Tidak, ": 3149,
      "Bagaimana dengan ": 3150,
      "tua ": 3151,
      "menunjukkan ": 3152,
      "yang boleh ": 3153,
      "perang ": 3154,
      "hormat": 3155,
      "asa\r\n": 3156,
      "abkan ": 3157,
      "), maka ": 3158,
      "kepada mereka": 3159,
      "yang aku ": 3160,
      "ach": 3161,
      "pertolong": 3162,
      "dekat ": 3163,
      "Hid": 3164,
      "jek": 3165,
      "lo": 3166,
      "itkan ": 3167,
      "inya, ": 3168,
      "janji ": 3169,
      "Ev": 3170,
      "asih": 3171,
      "balik": 3172,
      "apa-apa?\r\n": 3173,
      "kot": 3174,
      "pej": 3175,
      "dan ber": 3176,
      "sempurn": 3177,
      "Bo": 3178,
      "lalu.\r\n": 3179,
      "biasa.\r\n": 3180,
      "mendus": 3181,
      "bint": 3182,
      "Lelak": 3183,
      "imu ": 3184,
      "al!\r\n": 3185,
      "sesungguh": 3186,
      "akannya ": 3187,
      "ilihan ": 3188,
      "bertaq": 3189,
      "uk-": 3190,
      "kita, ": 3191,
      "Jer": 3192,
      "ay ": 3193,
      "seben": 3194,
      "inya": 3195,
      "Bil": 3196,
      "berdua ": 3197,
      "Oleh itu, ": 3198,
      "uan\r\n": 3199,
      "digunakan ": 3200,
      "oga ": 3201,
      "ruang ": 3202,
      "ust": 3203,
      "yang mereka ": 3204,
      "makan": 3205,
      "tinggi ": 3206,
      "segala yang ": 3207,
      "Bat": 3208,
      "arahan ": 3209,
      "bertanya ": 3210,
      "Akan ": 3211,
      "eh": 3212,
      "jaga ": 3213,
      "kan!\r\n": 3214,
      "pergi!\r\n": 3215,
      "biasa ": 3216,
      "jelas ": 3217,
      "bergerak ": 3218,
      "kini ": 3219,
      "menuju ": 3220,
      "man ": 3221,
      "in\r\n": 3222,
      "Dim": 3223,
      "Hei.\r\n": 3224,
      "kekal": 3225,
      "menjaga ": 3226,
      "color ": 3227,
      "Memb": 3228,
      "a dan ": 3229,
      "harus": 3230,
      "sekali-": 3231,
      "malam.\r\n": 3232,
      "iv": 3233,
      "ari!\r\n": 3234,
      "sekarang!\r\n": 3235,
      "salah satu ": 3236,
      "Cari ": 3237,
      "Lak": 3238,
      "land": 3239,
      "mengal": 3240,
      "bahasa ": 3241,
      "alaman ": 3242,
      "akannya.\r\n": 3243,
      "bahaw": 3244,
      "gila.\r\n": 3245,
      "betul-betul ": 3246,
      "ayat-ayat ": 3247,
      "tangan": 3248,
      "saya nak ": 3249,
      "ont color ": 3250,
      "masing-": 3251,
      ") dengan ": 3252,
      "Yang Maha ": 3253,
      "ahan.\r\n": 3254,
      "se ": 3255,
      "ont color = ": 3256,
      "yang kita ": 3257,
      "Nya.\r\n": 3258,
      "berlaku.\r\n": 3259,
      "AT": 3260,
      "Cuba ": 3261,
      "asi\r\n": 3262,
      "keb": 3263,
      "L ": 3264,
      "qu": 3265,
      "Setiap ": 3266,
      "kemudi": 3267,
      "y\r\n": 3268,
      "kami akan ": 3269,
      "tanah ": 3270,
      "kira ": 3271,
      "tap": 3272,
      "akan\r\n": 3273,
      "ok?\r\n": 3274,
      "baik-baik ": 3275,
      "Em": 3276,
      "aulah ": 3277,
      "cub": 3278,
      "terper": 3279,
      "Co": 3280,
      "Kon": 3281,
      "memilih ": 3282,
      "Sil": 3283,
      "bah ": 3284,
      "x ": 3285,
      "aan yang ": 3286,
      "menjad": 3287,
      "Ketika ": 3288,
      "mew": 3289,
      "olak ": 3290,
      "Saya hanya ": 3291,
      "Keb": 3292,
      "mur": 3293,
      "ara-": 3294,
      "orb": 3295,
      "pilih ": 3296,
      "tal": 3297,
      "balasan ": 3298,
      "minta maaf.\r\n": 3299,
      "Samp": 3300,
      "pagi ": 3301,
      "binc": 3302,
      "Buat ": 3303,
      "yang demikian ": 3304,
      "saya ber": 3305,
      "membaca ": 3306,
      "US": 3307,
      "pis": 3308,
      "lihat": 3309,
      "salah": 3310,
      "arikan ": 3311,
      "dial": 3312,
      "Terima kasih.\r\n": 3313,
      "Semua orang ": 3314,
      "bent": 3315,
      "lama.\r\n": 3316,
      "ahal ": 3317,
      "menyes": 3318,
      "Dua ": 3319,
      "_ ": 3320,
      "ilah.\r\n": 3321,
      "makanan ": 3322,
      "Berikan ": 3323,
      "ini akan ": 3324,
      "ewa ": 3325,
      "tentera ": 3326,
      "figur": 3327,
      "Kekunci ": 3328,
      "'%s'": 3329,
      "Dr. ": 3330,
      "bic": 3331,
      "aluan ": 3332,
      "orang-orang yang beriman ": 3333,
      "menyebabkan ": 3334,
      "mereka dengan ": 3335,
      "menyak": 3336,
      "nya. ": 3337,
      "uti ": 3338,
      "antung ": 3339,
      "mengandungi ": 3340,
      "Apa yang kau ": 3341,
      "anku.\r\n": 3342,
      "bodoh.\r\n": 3343,
      "munc": 3344,
      "di luar ": 3345,
      "12": 3346,
      "sebelum": 3347,
      "dipilih": 3348,
      "lelaki yang ": 3349,
      "asai ": 3350,
      "menger": 3351,
      "ainya.\r\n": 3352,
      "lebih baik ": 3353,
      "Dengar ": 3354,
      "Ag": 3355,
      "guna.\r\n": 3356,
      "minum ": 3357,
      "fail": 3358,
      "Yeah, ": 3359,
      "kamu (": 3360,
      "Con": 3361,
      "a..\r\n": 3362,
      "batu ": 3363,
      " di dalam ": 3364,
      "Jenis ": 3365,
      "dapati ": 3366,
      "tahu": 3367,
      "Cak": 3368,
      "Sama ": 3369,
      "Alam": 3370,
      "ong.\r\n": 3371,
      "sekali-kali ": 3372,
      "k.\r\n": 3373,
      "kes ": 3374,
      "Cuk": 3375,
      "kita?\r\n": 3376,
      "seng": 3377,
      "saya dah ": 3378,
      "tidak dik": 3379,
      "berjaya.\r\n": 3380,
      "Folder": 3381,
      "ingin": 3382,
      "lagi": 3383,
      "Jack": 3384,
      "Tan": 3385,
      "uf": 3386,
      "i dan ": 3387,
      "sekolah ": 3388,
      "menyimpan ": 3389,
      "Dat": 3390,
      "Betul ": 3391,
      "-ras": 3392,
      "Lap": 3393,
      "bir": 3394,
      "perjanj": 3395,
      "ingatkan ": 3396,
      "indung": 3397,
      "ye": 3398,
      "telah dit": 3399,
      "New ": 3400,
      "_T": 3401,
      ", aku ": 3402,
      "awak nak ": 3403,
      "Oli": 3404,
      "henti ": 3405,
      "elef": 3406,
      "benarkan ": 3407,
      "lokasi ": 3408,
      "Hel": 3409,
      "ya?\r\n": 3410,
      "saya tahu ": 3411,
      "uh?\r\n": 3412,
      "lima ": 3413,
      "- Tak ": 3414,
      "umur ": 3415,
      "limp": 3416,
      "ang. ": 3417,
      "masalah": 3418,
      "direktor": 3419,
      "ingkar": 3420,
      "um.\r\n": 3421,
      "abang ": 3422,
      "tetap": 3423,
      "Ger": 3424,
      "alan.\r\n": 3425,
      "bersama-sama ": 3426,
      "tak dapat ": 3427,
      "hadapan ": 3428,
      "terbang ": 3429,
      "bl": 3430,
      "ehendak": 3431,
      "- Ini ": 3432,
      "Nabi Mus": 3433,
      "cepat.\r\n": 3434,
      "Tak": 3435,
      "fes": 3436,
      "yat": 3437,
      "memah": 3438,
      "Jika anda ": 3439,
      "hos": 3440,
      "# FFFF": 3441,
      "Mu": 3442,
      "umpah ": 3443,
      "Rasul-ras": 3444,
      "inilah ": 3445,
      "baru\r\n": 3446,
      "mereka, dan ": 3447,
      "jub": 3448,
      "menciptakan ": 3449,
      "Ma": 3450,
      "hel": 3451,
      "engg": 3452,
      "bodoh ": 3453,
      "Saya perlu ": 3454,
      "Sebel": 3455,
      "musuh ": 3456,
      "Terdapat ": 3457,
      "berada dalam ": 3458,
      "hubungan ": 3459,
      "Ked": 3460,
      "gangg": 3461,
      "yang": 3462,
      "semakin ": 3463,
      "Tuan, ": 3464,
      "penting ": 3465,
      "Senarai ": 3466,
      "edah ": 3467,
      "ian\r\n": 3468,
      "rag": 3469,
      "sini?\r\n": 3470,
      "mengerj": 3471,
      "Awak nak ": 3472,
      "out": 3473,
      "tahu apa ": 3474,
      "kuat ": 3475,
      "eluarkan ": 3476,
      "Bagi ": 3477,
      "bol": 3478,
      "jam": 3479,
      "urn": 3480,
      "sedikit": 3481,
      "stat": 3482,
      "apapun ": 3483,
      "unuh.\r\n": 3484,
      "asi.\r\n": 3485,
      "usia ": 3486,
      "henti.\r\n": 3487,
      "Re": 3488,
      "pit": 3489,
      "kita perlu ": 3490,
      "Perc": 3491,
      "kesan ": 3492,
      "o?\r\n": 3493,
      "ing\r\n": 3494,
      "Ayuh": 3495,
      "Maafkan saya.\r\n": 3496,
      "11": 3497,
      "Wow": 3498,
      "aktif": 3499,
      "or\r\n": 3500,
      "im.\r\n": 3501,
      "ok, ": 3502,
      "nikmat ": 3503,
      "yang paling ": 3504,
      "teks ": 3505,
      "embalikan ": 3506,
      "Pu": 3507,
      "sk": 3508,
      "kau boleh ": 3509,
      "minit ": 3510,
      "Orang-": 3511,
      "melakukannya.\r\n": 3512,
      "). ": 3513,
      "pist": 3514,
      "terpaksa ": 3515,
      "tentulah ": 3516,
      "puti": 3517,
      "Ka": 3518,
      "lamp": 3519,
      "bend": 3520,
      "gembir": 3521,
      "!\"\r\n": 3522,
      "ikannya ": 3523,
      "apa yang saya ": 3524,
      "hari ini.\r\n": 3525,
      "kepadanya ": 3526,
      "satu-satunya ": 3527,
      "Harr": 3528,
      "Saiz ": 3529,
      "utang ": 3530,
      "saya\r\n": 3531,
      "kejah": 3532,
      "pembunuh": 3533,
      " di sini.\r\n": 3534,
      "Bolehkah ": 3535,
      "uk, ": 3536,
      "utup": 3537,
      "tak ber": 3538,
      "ajaran ": 3539,
      "angkat ": 3540,
      "sebahagian dari ": 3541,
      "Nampaknya ": 3542,
      "./ ": 3543,
      "pos": 3544,
      "saya dan ": 3545,
      "anggap ": 3546,
      "Cepat!\r\n": 3547,
      "saudara ": 3548,
      "action\r\n": 3549,
      "uk\r\n": 3550,
      "membuat": 3551,
      "Biarkan ": 3552,
      "tidur ": 3553,
      "binatang ": 3554,
      "gambar ": 3555,
      "Ya!\r\n": 3556,
      "ingkan ": 3557,
      "umat ": 3558,
      "umpa ": 3559,
      ")\".\r\n": 3560,
      "maj": 3561,
      "imej": 3562,
      "ampun": 3563,
      "kalian ": 3564,
      "Can": 3565,
      "kumpulan ": 3566,
      "indah ": 3567,
      "baru saja ": 3568,
      "terima kasih ": 3569,
      "Demi ": 3570,
      "Kes": 3571,
      "annya, ": 3572,
      "us!\r\n": 3573,
      "alam.\r\n": 3574,
      "Bangun": 3575,
      "ena ": 3576,
      "perjalanan ": 3577,
      "dikehendak": 3578,
      "menjawab: \"": 3579,
      "Unit": 3580,
      "Engkau ": 3581,
      "IN": 3582,
      "Kar": 3583,
      "Pet": 3584,
      "emas": 3585,
      "nyata ": 3586,
      "Mesej": 3587,
      "sakit": 3588,
      "oran ": 3589,
      "kafir": 3590,
      "jawab ": 3591,
      "jualah ": 3592,
      "oo": 3593,
      "buh ": 3594,
      "Hei!\r\n": 3595,
      "belajar ": 3596,
      "musyr": 3597,
      "Datang ": 3598,
      "amaran ": 3599,
      "anda boleh ": 3600,
      "(kepada ": 3601,
      "ren": 3602,
      "ah. ": 3603,
      "ekor ": 3604,
      "on?\r\n": 3605,
      "ER": 3606,
      "erb": 3607,
      "berjumpa ": 3608,
      "tern": 3609,
      "tak pernah ": 3610,
      "segera ": 3611,
      "umlah ": 3612,
      "minit.\r\n": 3613,
      "hebat ": 3614,
      "\"?\r\n": 3615,
      "ang-und": 3616,
      "rumah.\r\n": 3617,
      "Nah, ": 3618,
      "yl": 3619,
      "beliau ": 3620,
      "arikh ": 3621,
      "simp": 3622,
      "Aku nak ": 3623,
      "lupa ": 3624,
      "A\r\n": 3625,
      "kamu semua ": 3626,
      "penyel": 3627,
      "kompu": 3628,
      "Sed": 3629,
      "ni, ": 3630,
      "atlah ": 3631,
      "Dapatkan ": 3632,
      "(dan ": 3633,
      "mengubah ": 3634,
      "penuh": 3635,
      "seron": 3636,
      "musn": 3637,
      "bukannya ": 3638,
      "Memang ": 3639,
      "suruh ": 3640,
      "et.\r\n": 3641,
      "matah": 3642,
      "gig": 3643,
      "yuk": 3644,
      "engk": 3645,
      "masuk.\r\n": 3646,
      "mint": 3647,
      "utuskan ": 3648,
      "Mereka akan ": 3649,
      ")?\r\n": 3650,
      "Aku sudah ": 3651,
      "masukkan ": 3652,
      "Anda tidak ": 3653,
      "hanc": 3654,
      "mod": 3655,
      "a-gal": 3656,
      "Presid": 3657,
      "Islam": 3658,
      "anti": 3659,
      "usi ": 3660,
      "fail\r\n": 3661,
      "Well": 3662,
      "ia?\r\n": 3663,
      "kab": 3664,
      "tu, ": 3665,
      "tembak ": 3666,
      "di bawah ": 3667,
      "tak akan ": 3668,
      "keraj": 3669,
      "indakan ": 3670,
      "tenter": 3671,
      "Maksud saya, ": 3672,
      "\"Dan ": 3673,
      "ingkat": 3674,
      "row": 3675,
      "Dud": 3676,
      "gen": 3677,
      "teruk.\r\n": 3678,
      "embira ": 3679,
      "cantik.\r\n": 3680,
      "Com": 3681,
      "ji": 3682,
      "uji ": 3683,
      "disini.\r\n": 3684,
      "saya rasa ": 3685,
      "duit ": 3686,
      "Mr": 3687,
      "daripad": 3688,
      "berbez": 3689,
      "@ ": 3690,
      "olog": 3691,
      "mengat": 3692,
      "pakai ": 3693,
      "Syait": 3694,
      "semula.\r\n": 3695,
      "Samada ": 3696,
      "Gar": 3697,
      "jua ": 3698,
      "data ": 3699,
      "tempat yang ": 3700,
      "Selepas ": 3701,
      "aun ": 3702,
      "seti": 3703,
      "istim": 3704,
      "angkal": 3705,
      "kecil.\r\n": 3706,
      "awak!\r\n": 3707,
      "bukti ": 3708,
      "terima kasih.\r\n": 3709,
      "kl": 3710,
      "jalan yang ": 3711,
      "Amerika ": 3712,
      "negeri ": 3713,
      "7 ": 3714,
      "jag": 3715,
      "baris ": 3716,
      "otong ": 3717,
      "hadi": 3718,
      "bot": 3719,
      "Saya telah ": 3720,
      "akan?\r\n": 3721,
      "20 ": 3722,
      "Ver": 3723,
      "kelak": 3724,
      "unya.\r\n": 3725,
      "For": 3726,
      "len": 3727,
      "rek": 3728,
      "dimana ": 3729,
      "Tuhan.\r\n": 3730,
      "sayang ": 3731,
      "salah.\r\n": 3732,
      "Ge": 3733,
      "luk": 3734,
      "(wahai Muhammad): \"": 3735,
      "likasi ": 3736,
      "Ikut ": 3737,
      "pok": 3738,
      "sab": 3739,
      "asa, ": 3740,
      "berbuat ": 3741,
      "Dan jika ": 3742,
      "tab": 3743,
      "in?\r\n": 3744,
      "sedia.\r\n": 3745,
      "kejadian ": 3746,
      "nen": 3747,
      "taw": 3748,
      "kebany": 3749,
      "hilang.\r\n": 3750,
      "kisah ": 3751,
      "Mic": 3752,
      "aan\r\n": 3753,
      "bos": 3754,
      "sambil ": 3755,
      "asi": 3756,
      "tidaklah ": 3757,
      "ne": 3758,
      "aku boleh ": 3759,
      "membuk": 3760,
      "mungkin.\r\n": 3761,
      "okay?\r\n": 3762,
      "Guna ": 3763,
      "Mac": 3764,
      "d.\r\n": 3765,
      "kol": 3766,
      "banyak.\r\n": 3767,
      "sebaik": 3768,
      "mati, ": 3769,
      "Allah dan ": 3770,
      "hur": 3771,
      "tamb": 3772,
      "amu.\r\n": 3773,
      "jalan.\r\n": 3774,
      "unci\r\n": 3775,
      "bergur": 3776,
      "United ": 3777,
      "Jam": 3778,
      "camp": 3779,
      "upkan ": 3780,
      "sebent": 3781,
      "Saya tak boleh ": 3782,
      "Amerika/": 3783,
      "de": 3784,
      "memat": 3785,
      "sebagaimana ": 3786,
      "suara ": 3787,
      "membiarkan ": 3788,
      "Min": 3789,
      "walaupun ": 3790,
      "olah-": 3791,
      "peduli ": 3792,
      "a dengan ": 3793,
      "erit": 3794,
      "set": 3795,
      "ubah": 3796,
      "Apa kau ": 3797,
      "alih ": 3798,
      "hidayah ": 3799,
      "anjing ": 3800,
      "bagi orang-orang yang ": 3801,
      "Ya, saya ": 3802,
      "balik.\r\n": 3803,
      "ood": 3804,
      "yang anda ": 3805,
      "Sebenarnya ": 3806,
      "yp": 3807,
      "menyuk": 3808,
      "uatu ": 3809,
      "sanakan ": 3810,
      "- Ya.\r\n": 3811,
      "Biar saya ": 3812,
      "mana-mana ": 3813,
      "UR": 3814,
      "si.\r\n": 3815,
      ", kau ": 3816,
      "apai ": 3817,
      "menang": 3818,
      "Aku dah ": 3819,
      "boleh di": 3820,
      "Kau akan ": 3821,
      "; sesungguhnya ": 3822,
      "sekej": 3823,
      "mencint": 3824,
      "gila ": 3825,
      "her ": 3826,
      "ra": 3827,
      "Baik.\r\n": 3828,
      "\"%s\" ": 3829,
      "aya, ": 3830,
      "janganlah kamu ": 3831,
      "Samb": 3832,
      ", tapi ": 3833,
      "Kau tahu ": 3834,
      "Ku ": 3835,
      "onton ": 3836,
      "Hat": 3837,
      "Lepaskan ": 3838,
      "tir": 3839,
      "saya perlu ": 3840,
      "itu tidak ": 3841,
      "lebih baik": 3842,
      "Barr": 3843,
      "percayakan ": 3844,
      "Col": 3845,
      "Fira": 3846,
      "Wil": 3847,
      "tangkap ": 3848,
      "adakan ": 3849,
      "peribad": 3850,
      "mendustakan ": 3851,
      "%d ": 3852,
      "lep": 3853,
      "al?\r\n": 3854,
      "ukul": 3855,
      "ebih": 3856,
      "berfir": 3857,
      ") dari ": 3858,
      "hak ": 3859,
      "pulang.\r\n": 3860,
      "Cipta ": 3861,
      "Pus": 3862,
      "Kami tidak ": 3863,
      "Ayuh.\r\n": 3864,
      "Maaf ": 3865,
      "undang-und": 3866,
      "Charli": 3867,
      "uan": 3868,
      "bagus ": 3869,
      "sebabnya ": 3870,
      "Tempat ": 3871,
      "lis ": 3872,
      "ar!\r\n": 3873,
      "uk!\r\n": 3874,
      "pember": 3875,
      "kamu, dan ": 3876,
      "menarik ": 3877,
      "mengerjakan ": 3878,
      "Who": 3879,
      "ulang ": 3880,
      "nyawa ": 3881,
      "kami": 3882,
      "kud": 3883,
      "anglah ": 3884,
      "hidupkan ": 3885,
      "kematian ": 3886,
      "jur": 3887,
      "n.\r\n": 3888,
      " datang ": 3889,
      "segala-gal": 3890,
      "berat ": 3891,
      "kedua ": 3892,
      "is?\r\n": 3893,
      "bertin": 3894,
      "keselamatan ": 3895,
      "Rum": 3896,
      "Yo": 3897,
      "sub": 3898,
      "vide": 3899,
      "seper": 3900,
      "merupakan ": 3901,
      "uci ": 3902,
      "Baru\r\n": 3903,
      "timb": 3904,
      ". - ": 3905,
      "meletakkan ": 3906,
      "ambut ": 3907,
      "perkataan ": 3908,
      "Gre": 3909,
      "Ric": 3910,
      "lepaskan ": 3911,
      "Ayah, ": 3912,
      "kufur ": 3913,
      "Baik, ": 3914,
      "Kir": 3915,
      "Walaupun ": 3916,
      "h\r\n": 3917,
      "kamu tak ": 3918,
      "melarikan ": 3919,
      "lagi Maha Meng": 3920,
      "50": 3921,
      "para ": 3922,
      "sebalik": 3923,
      "Kita boleh ": 3924,
      "000": 3925,
      "Semoga ": 3926,
      "turun ": 3927,
      "permainan ": 3928,
      "20": 3929,
      "bersyuk": 3930,
      "berhak ": 3931,
      "imu.\r\n": 3932,
      "Perk": 3933,
      "Janganlah ": 3934,
      "put ": 3935,
      "mengetahu": 3936,
      "Kenapa kau ": 3937,
      "sekalian ": 3938,
      "langs": 3939,
      "Kenapa awak ": 3940,
      "rahsia ": 3941,
      "caya ": 3942,
      "elil": 3943,
      "dia ber": 3944,
      "mulakan ": 3945,
      "tidur.\r\n": 3946,
      "ly": 3947,
      "adik ": 3948,
      "orang, ": 3949,
      "kamu dan ": 3950,
      "siapa?\r\n": 3951,
      "Pergi!\r\n": 3952,
      "sediakan ": 3953,
      "rib": 3954,
      "selain": 3955,
      "ibat ": 3956,
      "Cor": 3957,
      "bung": 3958,
      "kerana sesungguhnya ": 3959,
      "sahaja.\r\n": 3960,
      "Bob": 3961,
      "con": 3962,
      "we": 3963,
      "ada\r\n": 3964,
      "iaitu ": 3965,
      "nescaya ": 3966,
      "uruskan ": 3967,
      "Saya cuma ": 3968,
      "oleh, ": 3969,
      "kata-": 3970,
      "kau!\r\n": 3971,
      "Saya fikir ": 3972,
      "kamu!\r\n": 3973,
      "mengikut ": 3974,
      "Tentu ": 3975,
      "azab seks": 3976,
      "teri ": 3977,
      "saja yang ": 3978,
      "Cal": 3979,
      "Cik ": 3980,
      "ahuan ": 3981,
      "as!\r\n": 3982,
      "bermakna ": 3983,
      "anda\r\n": 3984,
      "DE": 3985,
      "set ": 3986,
      "um\r\n": 3987,
      "masuk ke ": 3988,
      "simpan ": 3989,
      "ani.\r\n": 3990,
      "faul": 3991,
      "dikatakan ": 3992,
      "panggilan ": 3993,
      "darah ": 3994,
      "mau ": 3995,
      "rup": 3996,
      " dik": 3997,
      "lebih dari ": 3998,
      "pertam": 3999,
      "ati": 4000,
      "dengar.\r\n": 4001,
      "semuanya.\r\n": 4002,
      "dipilih ": 4003,
      "surat ": 4004,
      "olah-olah ": 4005,
      "kekuatan ": 4006,
      "bergerak.\r\n": 4007,
      "Pergi ke ": 4008,
      "Mon": 4009,
      "Aku ingin ": 4010,
      "Kita harus ": 4011,
      "hubungi ": 4012,
      "keber": 4013,
      "tentu.\r\n": 4014,
      "menghad": 4015,
      "Masih ": 4016,
      "melakukannya ": 4017,
      "sihir ": 4018,
      "dag": 4019,
      "jak": 4020,
      "mon": 4021,
      "itu akan ": 4022,
      "Dan aku ": 4023,
      "pastikan ": 4024,
      "khian": 4025,
      "sedia untuk ": 4026,
      "saya ada ": 4027,
      "Tuhan, ": 4028,
      "ketua ": 4029,
      "pesawat ": 4030,
      "gram ": 4031,
      "mender": 4032,
      "menyek": 4033,
      "sana, ": 4034,
      "kebanyakan ": 4035,
      "Lat": 4036,
      "Um": 4037,
      "Wal": 4038,
      "us?\r\n": 4039,
      "sedar ": 4040,
      "30 ": 4041,
      "yang dit": 4042,
      "ut, ": 4043,
      "seny": 4044,
      "senang ": 4045,
      "Rasul ": 4046,
      "Allah tidak ": 4047,
      "kemen": 4048,
      "faham?\r\n": 4049,
      "Raja ": 4050,
      "ap, ": 4051,
      "kamu boleh ": 4052,
      "Sis": 4053,
      ".... ": 4054,
      "memul": 4055,
      "di dalam": 4056,
      "saya. ": 4057,
      "okong ": 4058,
      "limpah ": 4059,
      "Akh": 4060,
      "Nak ": 4061,
      "Pa": 4062,
      "mereka (yang ": 4063,
      "apa yang awak ": 4064,
      "azab": 4065,
      "mahukan ": 4066,
      "Lelaki ": 4067,
      "bertaqw": 4068,
      "terima ": 4069,
      "saja?\r\n": 4070,
      "Kur": 4071,
      "a,\r\n": 4072,
      "saya yang ": 4073,
      "ini untuk ": 4074,
      "takut.\r\n": 4075,
      "Tunggu.\r\n": 4076,
      "Dis": 4077,
      "Jumpa ": 4078,
      "la ": 4079,
      "nak.\r\n": 4080,
      "diberi ": 4081,
      "cukup": 4082,
      "hukum ": 4083,
      "ow ": 4084,
      "ock ": 4085,
      "Dit": 4086,
      "teg": 4087,
      "- Anda ": 4088,
      "di sana ": 4089,
      "anggar ": 4090,
      "Dan (ingatlah) ": 4091,
      "mu?\r\n": 4092,
      "ela ": 4093,
      "pemer": 4094,
      "Dar": 4095,
      "ez": 4096,
      "utama ": 4097,
      "bahaya.\r\n": 4098,
      "olong ": 4099,
      "biar ": 4100,
      " dapat ": 4101,
      "Dan apabila ": 4102,
      "Pl": 4103,
      "bar ": 4104,
      "da": 4105,
      "alasan ": 4106,
      "ada yang ": 4107,
      "tempoh ": 4108,
      "Tidak boleh ": 4109,
      "menulis ": 4110,
      "eta ": 4111,
      "entet": 4112,
      "membaw": 4113,
      "saja, ": 4114,
      "berjanj": 4115,
      "Tunggu, ": 4116,
      "memakai ": 4117,
      "IS": 4118,
      "Ja": 4119,
      "adil": 4120,
      "benci ": 4121,
      "dr": 4122,
      "sin": 4123,
      " dua ": 4124,
      "keputusan ": 4125,
      "do": 4126,
      "en\r\n": 4127,
      "ia akan ": 4128,
      "pengikut": 4129,
      "000 ": 4130,
      "harusnya ": 4131,
      "turut ": 4132,
      "ipt": 4133,
      "sukar ": 4134,
      "memikirkan ": 4135,
      "Mik": 4136,
      "laut": 4137,
      "ten ": 4138,
      "diper": 4139,
      "tadi.\r\n": 4140,
      "Dan": 4141,
      "a\".\r\n": 4142,
      "- Terima kasih.\r\n": 4143,
      "memanggil ": 4144,
      "ungkan ": 4145,
      "puluh ": 4146,
      "dua.\r\n": 4147,
      "Fah": 4148,
      "ulah.\r\n": 4149,
      "ubungi ": 4150,
      "guna!\r\n": 4151,
      "kaum yang ": 4152,
      "United Stat": 4153,
      "Gembira ": 4154,
      "M ": 4155,
      "Mah": 4156,
      "atnya.\r\n": 4157,
      "ita.\r\n": 4158,
      "fikiran ": 4159,
      "sakit ": 4160,
      "bayar ": 4161,
      "-- ": 4162,
      "Mo": 4163,
      "omat": 4164,
      "sim": 4165,
      "it\r\n": 4166,
      "berharap ": 4167,
      "ungsi ": 4168,
      "Beri ": 4169,
      "berten": 4170,
      "Nya, ": 4171,
      "mari kita ": 4172,
      "Sebelum ": 4173,
      "- Kami ": 4174,
      "antu ": 4175,
      "jawab": 4176,
      "Hal": 4177,
      "anan.\r\n": 4178,
      "ku!\r\n": 4179,
      "isyar": 4180,
      "dia tidak ": 4181,
      "melindungi ": 4182,
      "kalangan ": 4183,
      "Tuan.\r\n": 4184,
      "ceder": 4185,
      "kub": 4186,
      "memu": 4187,
      "Apa yang kamu ": 4188,
      "kedua-": 4189,
      "Ho": 4190,
      "Lihat, ": 4191,
      "ari.\r\n": 4192,
      "anda tidak ": 4193,
      "a-hamb": 4194,
      "ainya ": 4195,
      "padahal ": 4196,
      "juta ": 4197,
      "rap": 4198,
      "eng ": 4199,
      "Aku hanya ": 4200,
      "kepada orang-orang yang ": 4201,
      "Tapi aku ": 4202,
      "...?\r\n": 4203,
      "baca ": 4204,
      "menik": 4205,
      "apa yang kau ": 4206,
      "berdo": 4207,
      "ock": 4208,
      "des": 4209,
      "angnya.\r\n": 4210,
      "alami ": 4211,
      "ohon": 4212,
      "mesin ": 4213,
      "lari ": 4214,
      "sah ": 4215,
      "tin": 4216,
      "di tempat ": 4217,
      "orang lain ": 4218,
      "nya, dan ": 4219,
      "Bes": 4220,
      "Dan sesungguhnya ": 4221,
      "Awak akan ": 4222,
      "dunia.\r\n": 4223,
      "arikat ": 4224,
      " S": 4225,
      "\". ": 4226,
      "Lok": 4227,
      "yang dia ": 4228,
      "om.\r\n": 4229,
      "Tidakkah ": 4230,
      "Celak": 4231,
      "Tambah ": 4232,
      "lu": 4233,
      "atih ": 4234,
      "apos": 4235,
      "menemui ": 4236,
      "iman ": 4237,
      "dari orang-orang yang ": 4238,
      "tepat ": 4239,
      "mimpi ": 4240,
      "-action\r\n": 4241,
      "terdapat ": 4242,
      "sana?\r\n": 4243,
      "sendiri, ": 4244,
      "anku, ": 4245,
      "anmu ": 4246,
      "menges": 4247,
      "dan ke": 4248,
      "meninggal": 4249,
      "Raj": 4250,
      "ikat ": 4251,
      "- Dan ": 4252,
      "terbaik ": 4253,
      "ubat ": 4254,
      "unjuk ": 4255,
      "hamba-hamb": 4256,
      "kanak-kanak ": 4257,
      "hin": 4258,
      "peringatan ": 4259,
      "Awak tahu ": 4260,
      "golongan ": 4261,
      "Ia": 4262,
      "aku\r\n": 4263,
      "dari sini.\r\n": 4264,
      "di sisi ": 4265,
      "eja ": 4266,
      "buruk.\r\n": 4267,
      "polis.\r\n": 4268,
      "butang ": 4269,
      "ru": 4270,
      "tamp": 4271,
      "ilah, ": 4272,
      "ayu ": 4273,
      "United States\r\n": 4274,
      "Tengok ": 4275,
      "bersihkan ": 4276,
      "begitu, ": 4277,
      "saudar": 4278,
      "Heb": 4279,
      "cad": 4280,
      "dus": 4281,
      "ayakan ": 4282,
      "Allah (": 4283,
      "As": 4284,
      "wah": 4285,
      "iks": 4286,
      "kamu dengan ": 4287,
      "awak dan ": 4288,
      "penget": 4289,
      "begitu?\r\n": 4290,
      "okey.\r\n": 4291,
      "penting.\r\n": 4292,
      "peristi": 4293,
      "elefon ": 4294,
      "Sp": 4295,
      "kop": 4296,
      "anku ": 4297,
      "menungg": 4298,
      "perjanjian ": 4299,
      "kil": 4300,
      "tindakan ": 4301,
      "ang dan ": 4302,
      "Rasanya ": 4303,
      "% 1": 4304,
      "celak": 4305,
      "you ": 4306,
      "Katakanlah (wahai Muhammad): \"": 4307,
      "telah ber": 4308,
      "sama ada ": 4309,
      "berkatalah ": 4310,
      "azab seksa yang ": 4311,
      "Gen": 4312,
      "Pes": 4313,
      "cipta ": 4314,
      "nor": 4315,
      "ikian": 4316,
      "di dunia ": 4317,
      "serangan ": 4318,
      "belia": 4319,
      "gagal ": 4320,
      "Er": 4321,
      "mel ": 4322,
      "dalam keadaan ": 4323,
      "tak, ": 4324,
      "fikirkan ": 4325,
      "malaikat ": 4326,
      "Lag": 4327,
      "Nor": 4328,
      "kamp": 4329,
      "utnya ": 4330,
      "Awak dah ": 4331,
      "Tengok": 4332,
      "sekitar ": 4333,
      "Kad": 4334,
      "Tep": 4335,
      "au, ": 4336,
      "son ": 4337,
      "ata-": 4338,
      "Saya suka ": 4339,
      "a-lam": 4340,
      "alamat ": 4341,
      "sesuai ": 4342,
      "kereta.\r\n": 4343,
      "baju ": 4344,
      "Aut": 4345,
      "undur": 4346,
      "bawah.\r\n": 4347,
      "Chris": 4348,
      "a! ": 4349,
      "mun": 4350,
      "arlah ": 4351,
      "dia\r\n": 4352,
      "saksi ": 4353,
      "janganlah engkau ": 4354,
      "Rah": 4355,
      "menem": 4356,
      "melet": 4357,
      "lamb": 4358,
      "tai ": 4359,
      "urang-": 4360,
      "sumber ": 4361,
      "'.\r\n": 4362,
      "Kom": 4363,
      "Tur": 4364,
      "mendengar": 4365,
      "entik": 4366,
      "ke sini ": 4367,
      "Dia dah ": 4368,
      "Tand": 4369,
      "berdiri ": 4370,
      "dengan cara ": 4371,
      "anda akan ": 4372,
      "pengguna ": 4373,
      "tinggal.\r\n": 4374,
      "saiz ": 4375,
      "perkara-": 4376,
      "ikuti ": 4377,
      "2\r\n": 4378,
      "lin": 4379,
      "otak ": 4380,
      "beli ": 4381,
      "ai?\r\n": 4382,
      "angsa ": 4383,
      "u dan ": 4384,
      "setengah ": 4385,
      "menetapkan ": 4386,
      "menjalankan ": 4387,
      "yang sangat ": 4388,
      "- Saya tak ": 4389,
      "saya untuk ": 4390,
      "selesai.\r\n": 4391,
      "Patut": 4392,
      "): ": 4393,
      "-t": 4394,
      "NO": 4395,
      "din": 4396,
      "seseorang yang ": 4397,
      "Kerj": 4398,
      "ralat ": 4399,
      "ukar": 4400,
      "periksa ": 4401,
      "cahaya ": 4402,
      "So": 4403,
      "Tutup ": 4404,
      "bermain": 4405,
      "Tapi saya ": 4406,
      "kekuasaan ": 4407,
      "Nabi Musa ": 4408,
      "Tem": 4409,
      "lub": 4410,
      "unit": 4411,
      "Aku ada ": 4412,
      "sebut ": 4413,
      "AL": 4414,
      "Li": 4415,
      "Yor": 4416,
      "aan, ": 4417,
      "mab": 4418,
      "perni": 4419,
      "diken": 4420,
      "aksi ": 4421,
      "adalah": 4422,
      "kenal": 4423,
      "wahy": 4424,
      "ank ": 4425,
      "asarkan ": 4426,
      "rahsi": 4427,
      "urang-kur": 4428,
      "lant": 4429,
      "naik": 4430,
      "inya?\r\n": 4431,
      "satu.\r\n": 4432,
      "jej": 4433,
      "rat": 4434,
      "arah": 4435,
      "terakhir": 4436,
      "Aku boleh ": 4437,
      "dia boleh ": 4438,
      "ke sini.\r\n": 4439,
      "Kau boleh ": 4440,
      "jika kamu ": 4441,
      "apos; ": 4442,
      "Hai, ": 4443,
      "Oh": 4444,
      "berusaha ": 4445,
      "kan) ": 4446,
      "sendiri": 4447,
      "ikanlah ": 4448,
      "sul": 4449,
      "saya...\r\n": 4450,
      "Bay": 4451,
      "kunc": 4452,
      "angkat": 4453,
      "menembak ": 4454,
      "awal": 4455,
      "ini dan ": 4456,
      "mencuri ": 4457,
      "lew": 4458,
      "at. ": 4459,
      "telah meng": 4460,
      "anggung": 4461,
      "dengar, ": 4462,
      "Kapten": 4463,
      "Dimana ": 4464,
      "Sud": 4465,
      "kah?\r\n": 4466,
      "s?\r\n": 4467,
      "Itu bukan ": 4468,
      "lalu": 4469,
      "Ibrah": 4470,
      "Warn": 4471,
      "Bill": 4472,
      "Es": 4473,
      "Tunjukkan ": 4474,
      "mo": 4475,
      "is-": 4476,
      "sembunyi ": 4477,
      "khabar?\r\n": 4478,
      "AS": 4479,
      "Jal": 4480,
      "aannya ": 4481,
      "kuat.\r\n": 4482,
      "itu\r\n": 4483,
      "apa-ap": 4484,
      "Masukkan ": 4485,
      "demikian, ": 4486,
      "Cepat, ": 4487,
      "Tim": 4488,
      "uasai ": 4489,
      "mereka dan ": 4490,
      "lagi!\r\n": 4491,
      "seorang lelaki ": 4492,
      "kasih ": 4493,
      "pegang ": 4494,
      "dad": 4495,
      "ar dan ": 4496,
      "ik?\r\n": 4497,
      "Kita kena ": 4498,
      "selama-lam": 4499,
      "Pasti ": 4500,
      "Lihatlah ": 4501,
      "Syurg": 4502,
      "ol.\r\n": 4503,
      "bunyi ": 4504,
      "Gu": 4505,
      "arat ": 4506,
      "pun yang ": 4507,
      "angkan.\r\n": 4508,
      "Terus": 4509,
      "angan-": 4510,
      "milik": 4511,
      ", awak ": 4512,
      "tidak mahu ": 4513,
      "sekol": 4514,
      "beg ": 4515,
      "dikehendaki": 4516,
      "sement": 4517,
      "akan meng": 4518,
      "cakap.\r\n": 4519,
      "kiamat ": 4520,
      "figurasi ": 4521,
      "panj": 4522,
      "sah\r\n": 4523,
      "bab": 4524,
      "bangk": 4525,
      "teb": 4526,
      "pada waktu ": 4527,
      "kotak ": 4528,
      "dosa ": 4529,
      "pikir ": 4530,
      "- Mereka ": 4531,
      "melamp": 4532,
      "kad ": 4533,
      "terjadi.\r\n": 4534,
      "menyembah ": 4535,
      "Abang ": 4536,
      "direktori ": 4537,
      "pengetahuan ": 4538,
      "semp": 4539,
      "makn": 4540,
      "Hey!\r\n": 4541,
      "menjel": 4542,
      "Sebenarnya, ": 4543,
      "usn": 4544,
      "Sesuatu ": 4545,
      "warn": 4546,
      "sementara ": 4547,
      "kedud": 4548,
      "uruh": 4549,
      "mulai ": 4550,
      "label\r\n": 4551,
      "jangk": 4552,
      "akit ": 4553,
      "ett": 4554,
      "iranya ": 4555,
      "akhirnya ": 4556,
      "rahmat ": 4557,
      "dal": 4558,
      "kamu yang ": 4559,
      "penduduk ": 4560,
      "Maklumat ": 4561,
      "Allah) ": 4562,
      "log": 4563,
      "ah) ": 4564,
      "ti?\r\n": 4565,
      " dat": 4566,
      "Awak boleh ": 4567,
      "Kamu tak ": 4568,
      "langkah ": 4569,
      "pingg": 4570,
      "as?\r\n": 4571,
      "ke atas ": 4572,
      "Allah jualah ": 4573,
      "ingkar ": 4574,
      "muz": 4575,
      "jahat ": 4576,
      "50 ": 4577,
      "mod ": 4578,
      "seolah-olah ": 4579,
      "Sebagai ": 4580,
      "Dan (ingatlah), ": 4581,
      "Nas": 4582,
      "at) ": 4583,
      "kep": 4584,
      "Ayah!\r\n": 4585,
      "; maka ": 4586,
      "belakang.\r\n": 4587,
      "selesai ": 4588,
      "cur": 4589,
      "atas.\r\n": 4590,
      "ubah.\r\n": 4591,
      "padanya ": 4592,
      "keluarkan ": 4593,
      "ont color = \"": 4594,
      "Kr": 4595,
      "ane": 4596,
      "ark": 4597,
      "permul": 4598,
      "peranti ": 4599,
      "u, dan ": 4600,
      "itu. ": 4601,
      "aiw": 4602,
      "muncul": 4603,
      "memahami ": 4604,
      "Da": 4605,
      "Pand": 4606,
      "agar ": 4607,
      "ujian ": 4608,
      "soalan ": 4609,
      "Neg": 4610,
      "angan\r\n": 4611,
      "ia tidak ": 4612,
      "Her": 4613,
      "Pi": 4614,
      "sisi ": 4615,
      "- Ada ": 4616,
      "ia ber": 4617,
      "nikmat": 4618,
      "- Baiklah.\r\n": 4619,
      "Pan": 4620,
      "bagaiman": 4621,
      "han": 4622,
      "laj": 4623,
      "ma ": 4624,
      "pa": 4625,
      "Imp": 4626,
      "menuju ke ": 4627,
      "hentikan ": 4628,
      "menurunkan ": 4629,
      "diser": 4630,
      "per ": 4631,
      "esok.\r\n": 4632,
      "ini tidak ": 4633,
      "jika kau ": 4634,
      "akan beroleh ": 4635,
      "Tetapkan ": 4636,
      "- Betul": 4637,
      "kurni": 4638,
      "penjara ": 4639,
      "makhluk-": 4640,
      "mungkin": 4641,
      "layak ": 4642,
      "membuktikan ": 4643,
      "entetan ": 4644,
      "S\r\n": 4645,
      "ual": 4646,
      "tic": 4647,
      "ilkan ": 4648,
      "a-benda ": 4649,
      "Patutkah ": 4650,
      "Malam ": 4651,
      "gon": 4652,
      "mereka!\r\n": 4653,
      "Dan mereka ": 4654,
      "Dan demi ": 4655,
      "cakap, ": 4656,
      "Tug": 4657,
      "oh, ": 4658,
      "wor": 4659,
      "amar": 4660,
      ".... ..": 4661,
      "Saya takkan ": 4662,
      "orang lain": 4663,
      "kau": 4664,
      "Kita ada ": 4665,
      "Pert": 4666,
      "bertar": 4667,
      "impin ": 4668,
      "Seseorang ": 4669,
      "Mari, ": 4670,
      "Boleh saya ": 4671,
      "terlamb": 4672,
      "menggangg": 4673,
      "Frank": 4674,
      "Luc": 4675,
      "Sc": 4676,
      "ask": 4677,
      "bahan ": 4678,
      "Itu adalah ": 4679,
      "sudah ber": 4680,
      "Tolong!\r\n": 4681,
      "Asi": 4682,
      "kod ": 4683,
      "sangg": 4684,
      "ash": 4685,
      "meneg": 4686,
      "perjalan": 4687,
      "menyal": 4688,
      "harap": 4689,
      "lakukan, ": 4690,
      "pengar": 4691,
      "benar, ": 4692,
      "Cepat ": 4693,
      "Tanpa ": 4694,
      "Str": 4695,
      "bermain ": 4696,
      "- R": 4697,
      "akhirat ": 4698,
      "untuk menjadi ": 4699,
      "udara ": 4700,
      "lah. ": 4701,
      "ack ": 4702,
      "Kau nak ": 4703,
      "hati-hat": 4704,
      "untuk mendapatkan ": 4705,
      "mm.\r\n": 4706,
      "Oh.\r\n": 4707,
      "ium ": 4708,
      "akar ": 4709,
      "erim": 4710,
      "kami?\r\n": 4711,
      "kata, ": 4712,
      "tarik ": 4713,
      "_BAR": 4714,
      "operasi ": 4715,
      "bertindak ": 4716,
      "* ": 4717,
      "Kol": 4718,
      "pep": 4719,
      "alas ": 4720,
      "itu dan ": 4721,
      "matahari ": 4722,
      "a.": 4723,
      "didalam ": 4724,
      "Dan dia ": 4725,
      "maklum": 4726,
      "Kecuali ": 4727,
      "dipilih\r\n": 4728,
      "Hen": 4729,
      "sentuh ": 4730,
      "pend": 4731,
      "aman": 4732,
      "pun, ": 4733,
      "rez": 4734,
      "hujung ": 4735,
      "Opsyen ": 4736,
      "Sus": 4737,
      "alahan ": 4738,
      "asar ": 4739,
      "bahaya ": 4740,
      "Tuhan yang ": 4741,
      "Sebuah ": 4742,
      "hospit": 4743,
      "gant": 4744,
      "memel": 4745,
      "Beberapa ": 4746,
      "Rus": 4747,
      "ar-": 4748,
      "Saya ingin ": 4749,
      "bersama.\r\n": 4750,
      "Tuhan!\r\n": 4751,
      "Jika kau ": 4752,
      "golongan yang ": 4753,
      "Nilai ": 4754,
      "TV": 4755,
      "ayaan ": 4756,
      "memen": 4757,
      "mengapa.\r\n": 4758,
      "sama seperti ": 4759,
      "Bilangan ": 4760,
      "Bul": 4761,
      "marah ": 4762,
      "anak.\r\n": 4763,
      "kita harus ": 4764,
      "pasang ": 4765,
      "Apa yang berlaku?\r\n": 4766,
      "format ": 4767,
      "peper": 4768,
      "menentang ": 4769,
      "bas": 4770,
      "ktop": 4771,
      "art": 4772,
      "seekor ": 4773,
      "tiadalah ": 4774,
      "membayar ": 4775,
      "pals": 4776,
      "Kemb": 4777,
      "Yahu": 4778,
      "mencapai ": 4779,
      "peratur": 4780,
      "lihat.\r\n": 4781,
      "radi": 4782,
      "hari, ": 4783,
      "orang-orang kafir ": 4784,
      "sampai ke ": 4785,
      "idea ": 4786,
      "Ero": 4787,
      "Leb": 4788,
      "kita ada ": 4789,
      "siap ": 4790,
      "penggun": 4791,
      "kesalah": 4792,
      "langit ": 4793,
      "mudah.\r\n": 4794,
      "Akhir": 4795,
      "Banyak ": 4796,
      "Kan": 4797,
      "salah seorang ": 4798,
      "New Yor": 4799,
      "To": 4800,
      "si\r\n": 4801,
      "dipap": 4802,
      "malam ini.\r\n": 4803,
      "Imej ": 4804,
      "Mag": 4805,
      "Tamb": 4806,
      "les": 4807,
      "rind": 4808,
      "an... ": 4809,
      "beras": 4810,
      "ut\r\n": 4811,
      "bilang ": 4812,
      "Nya (": 4813,
      "dew": 4814,
      "gn ": 4815,
      "misi ": 4816,
      "awan.\r\n": 4817,
      "kita tak ": 4818,
      "ujur": 4819,
      "besar, ": 4820,
      "Keutam": 4821,
      "macam mana ": 4822,
      "lakukannya.\r\n": 4823,
      "tujuan ": 4824,
      "zalim ": 4825,
      "Do": 4826,
      "melawan ": 4827,
      " di sini ": 4828,
      "cepat!\r\n": 4829,
      "kiamat": 4830,
      "benda-benda ": 4831,
      "bangg": 4832,
      "lepas ": 4833,
      "erah ": 4834,
      "kemal": 4835,
      "kebaikan ": 4836,
      "Kl": 4837,
      "ins": 4838,
      "mendapat": 4839,
      "berikut": 4840,
      "awak tahu ": 4841,
      "lagu ": 4842,
      "name\r\n": 4843,
      "urang-kurangnya ": 4844,
      "Ba": 4845,
      "Gel": 4846,
      "Mc": 4847,
      "apis ": 4848,
      " dul": 4849,
      "angan yang ": 4850,
      "kan. ": 4851,
      ".... ....": 4852,
      "- N": 4853,
      "- Adakah ": 4854,
      "is!\r\n": 4855,
      "Berhenti ": 4856,
      "kepadanya": 4857,
      "maafkan ": 4858,
      "er, ": 4859,
      "separ": 4860,
      " dunia ": 4861,
      "Allah.\r\n": 4862,
      "peluru ": 4863,
      "beritahu saya ": 4864,
      "cuba untuk ": 4865,
      "dulu ": 4866,
      "La": 4867,
      "Mungk": 4868,
      "Ram": 4869,
      "cu": 4870,
      "pagi.\r\n": 4871,
      "nasib ": 4872,
      "kulit ": 4873,
      "bagai ": 4874,
      "font color = \"": 4875,
      "uf ": 4876,
      "uku ": 4877,
      "mengeluarkan ": 4878,
      "Dia tidak ": 4879,
      "Ayuh ": 4880,
      "sesuatu?\r\n": 4881,
      "(dalam ": 4882,
      "Mod": 4883,
      "Oh!\r\n": 4884,
      "en, ": 4885,
      "asaan": 4886,
      "membuatkan ": 4887,
      "saya telah ": 4888,
      "Kami": 4889,
      "Pern": 4890,
      "Siapakah ": 4891,
      "binat": 4892,
      "letak ": 4893,
      "Sistem": 4894,
      "Bos": 4895,
      "orkan ": 4896,
      "mana.\r\n": 4897,
      "Jangan ris": 4898,
      "bagus, ": 4899,
      "Imej": 4900,
      "Oliver": 4901,
      "Peg": 4902,
      "Puan ": 4903,
      "Si ": 4904,
      "aib": 4905,
      "mac": 4906,
      "api.\r\n": 4907,
      "orang lain.\r\n": 4908,
      "ini...\r\n": 4909,
      "mahu.\r\n": 4910,
      "tadi ": 4911,
      "betapa ": 4912,
      "Baw": 4913,
      "an dengan ": 4914,
      "awak dah ": 4915,
      "Dan Kami ": 4916,
      "Masuk": 4917,
      "nenek ": 4918,
      "rangka": 4919,
      "ang...\r\n": 4920,
      "menemb": 4921,
      "tidak dis": 4922,
      "datang, ": 4923,
      "tanda-": 4924,
      "paparan ": 4925,
      "masing-mas": 4926,
      "IM": 4927,
      "luc": 4928,
      "wal": 4929,
      "seg": 4930,
      "yang lain.\r\n": 4931,
      "mereka telah ": 4932,
      "itu ialah ": 4933,
      "buah ": 4934,
      "ampaikan ": 4935,
      "Permain": 4936,
      "putus ": 4937,
      "Du": 4938,
      "Jalan ": 4939,
      "diakan ": 4940,
      "urni": 4941,
      "semata-": 4942,
      "awak ber": 4943,
      "kita semua ": 4944,
      "bagus": 4945,
      "tidak?\r\n": 4946,
      "burung ": 4947,
      "Orang-orang ": 4948,
      "ikianlah ": 4949,
      "soal ": 4950,
      "air.\r\n": 4951,
      "peraturan ": 4952,
      "menghalang ": 4953,
      "berfirman": 4954,
      "Ahl": 4955,
      "Des": 4956,
      "aku ber": 4957,
      "aji ": 4958,
      "kaitan ": 4959,
      "harga ": 4960,
      "mulut ": 4961,
      "selesaikan ": 4962,
      "badan ": 4963,
      "perubahan ": 4964,
      "jam.\r\n": 4965,
      "way": 4966,
      "itu (": 4967,
      "Awak ada ": 4968,
      "anggota ": 4969,
      "Anda boleh ": 4970,
      "lelaki.\r\n": 4971,
      "suami ": 4972,
      "faham": 4973,
      "Pasukan ": 4974,
      "menyerang ": 4975,
      "Salah ": 4976,
      "nak": 4977,
      "el, ": 4978,
      "agaan ": 4979,
      "teruk ": 4980,
      "ung, ": 4981,
      "ir, ": 4982,
      "nya dengan ": 4983,
      "betul?\r\n": 4984,
      "tidak!\r\n": 4985,
      "bentuk ": 4986,
      "# FFFF00": 4987,
      "Ek": 4988,
      "ba": 4989,
      "ung-": 4990,
      "dan saya ": 4991,
      "kota ": 4992,
      "zalim": 4993,
      "200": 4994,
      "men ": 4995,
      "perlah": 4996,
      "utus": 4997,
      "ini bukan ": 4998,
      "kita tidak ": 4999,
      "mati?\r\n": 5000,
      "Peranc": 5001,
      "perlu di": 5002,
      "nya).\r\n": 5003,
      "kawan-": 5004,
      "kesil": 5005,
      "dialog ": 5006,
      "hadiah ": 5007,
      "sanggup ": 5008,
      "15 ": 5009,
      "Jahan": 5010,
      "somb": 5011,
      "tump": 5012,
      "kedat": 5013,
      "kamu\r\n": 5014,
      "kau tahu ": 5015,
      "seperti itu.\r\n": 5016,
      "rezek": 5017,
      "kehendak": 5018,
      "melepaskan ": 5019,
      "apa yang di": 5020,
      "serah ": 5021,
      "bercakap.\r\n": 5022,
      "tipu ": 5023,
      "9 ": 5024,
      "Kris": 5025,
      "Mad": 5026,
      "Yus": 5027,
      "harapkan ": 5028,
      "unyikan ": 5029,
      "janjikan ": 5030,
      "man.\r\n": 5031,
      "did": 5032,
      "itu bukan ": 5033,
      "keras ": 5034,
      "nya! ": 5035,
      "pejabat ": 5036,
      "Pal": 5037,
      "ing?\r\n": 5038,
      "pada saya.\r\n": 5039,
      "ongsi ": 5040,
      "aft": 5041,
      "sukakan ": 5042,
      "pekerjaan ": 5043,
      "Semb": 5044,
      "ada, ": 5045,
      "abiskan ": 5046,
      "makan.\r\n": 5047,
      "kelas ": 5048,
      "Berten": 5049,
      "; dan (": 5050,
      "Rob": 5051,
      "Sul": 5052,
      "Tak.\r\n": 5053,
      "jer": 5054,
      "p ": 5055,
      "asan.\r\n": 5056,
      "tif ": 5057,
      "Saya sudah ": 5058,
      "sekelil": 5059,
      "tetingk": 5060,
      "pertar": 5061,
      "gul": 5062,
      "menu ": 5063,
      "kali.\r\n": 5064,
      "Diam": 5065,
      "Ok.\r\n": 5066,
      "pegawai ": 5067,
      "\", \"": 5068,
      "pendapat ": 5069,
      "emput ": 5070,
      "bahwa ": 5071,
      "lebih baik.\r\n": 5072,
      "jika anda ": 5073,
      "Apa yang anda ": 5074,
      "C ": 5075,
      "Mis": 5076,
      "ph": 5077,
      "papan ": 5078,
      "situ": 5079,
      "ara, ": 5080,
      "on!\r\n": 5081,
      "ung\r\n": 5082,
      "Saya harap ": 5083,
      "tapi saya ": 5084,
      "puak ": 5085,
      "aksara ": 5086,
      "kepada Allah dan ": 5087,
      "kedai ": 5088,
      "Bur": 5089,
      "Dia ada ": 5090,
      "sahaja yang ": 5091,
      "sifat ": 5092,
      "kerajaan ": 5093,
      "font color = \"# FFFF00": 5094,
      "-h": 5095,
      "ann": 5096,
      "atan\r\n": 5097,
      " dem": 5098,
      "id.\r\n": 5099,
      "datangkan ": 5100,
      "kemungk": 5101,
      "cintakan ": 5102,
      "Rumah ": 5103,
      "pek": 5104,
      "menip": 5105,
      "etap": 5106,
      "kita nak ": 5107,
      "masa untuk ": 5108,
      "kesalahan ": 5109,
      "Mart": 5110,
      "supaya kamu ": 5111,
      "bertemu dengan ": 5112,
      "mukj": 5113,
      "lagi Maha Mengasih": 5114,
      "tanda-tanda ": 5115,
      "br": 5116,
      "lek": 5117,
      "ore": 5118,
      "kalaulah ": 5119,
      "soal": 5120,
      "cantik ": 5121,
      "kejahatan ": 5122,
      "sepenuh": 5123,
      "emas ": 5124,
      "Perhat": 5125,
      "Folder ": 5126,
      "Jul": 5127,
      "a,": 5128,
      "hut": 5129,
      "mand": 5130,
      "tali ": 5131,
      "seharusnya ": 5132,
      "ukah ": 5133,
      "mengambil": 5134,
      "keros": 5135,
      "indahkan ": 5136,
      "tunggu.\r\n": 5137,
      "mukjiz": 5138,
      "ada satu ": 5139,
      "ke arah ": 5140,
      "penges": 5141,
      "jika saya ": 5142,
      "Sesi": 5143,
      "Betul.\r\n": 5144,
      "bimbang ": 5145,
      "- Tidak ": 5146,
      "- Siapa ": 5147,
      "anya!\r\n": 5148,
      "Bijak": 5149,
      "The": 5150,
      "di sana?\r\n": 5151,
      "pandangan ": 5152,
      "petunjuk": 5153,
      "khabar ": 5154,
      "Syurga ": 5155,
      "munaf": 5156,
      "cap": 5157,
      "ukan\r\n": 5158,
      "siap": 5159,
      "Terlalu ": 5160,
      "Fail\r\n": 5161,
      "perintahkan ": 5162,
      "com": 5163,
      "ias": 5164,
      "atur": 5165,
      "ustr": 5166,
      "tak tahu ": 5167,
      "itu ber": 5168,
      "melanggar ": 5169,
      "Hey.\r\n": 5170,
      "kerja.\r\n": 5171,
      "menakjub": 5172,
      "Nombor ": 5173,
      "Tukar ": 5174,
      "ia!\r\n": 5175,
      "tutup ": 5176,
      "at dengan ": 5177,
      "adalah seorang ": 5178,
      "betul, ": 5179,
      "malam, ": 5180,
      "berkata: \"Wahai ": 5181,
      "Bahkan ": 5182,
      "Benar": 5183,
      "kamu dari ": 5184,
      "penerb": 5185,
      "satu sama ": 5186,
      "rahmat": 5187,
      "Polis ": 5188,
      "Buny": 5189,
      "of": 5190,
      "item ": 5191,
      "- Ia ": 5192,
      "itu dengan ": 5193,
      "Perl": 5194,
      "padanya.\r\n": 5195,
      "berjuang ": 5196,
      "Cepat": 5197,
      "sebenar ": 5198,
      "Tar": 5199,
      "memad": 5200,
      "mengar": 5201,
      "untuk melihat ": 5202,
      "buka.\r\n": 5203,
      "- Bag": 5204,
      "sedikit.\r\n": 5205,
      "langsung ": 5206,
      "font color = \"# FFFF00\" ": 5207,
      "ucapkan ": 5208,
      "Tidak, tidak, ": 5209,
      "rasanya ": 5210,
      "sebenar.\r\n": 5211,
      "Kosong": 5212,
      "s!\r\n": 5213,
      "mereka di": 5214,
      "kau nak ": 5215,
      "apa yang kita ": 5216,
      " di atas ": 5217,
      "mustah": 5218,
      "Uh, ": 5219,
      "mayat ": 5220,
      "yang baik.\r\n": 5221,
      "ajuk ": 5222,
      "Kita dah ": 5223,
      "Ayah.\r\n": 5224,
      "Pastikan ": 5225,
      "Ray": 5226,
      "‎.\r\n": 5227,
      "- Bagaimana ": 5228,
      " di antara ": 5229,
      "tubuh ": 5230,
      "automat": 5231,
      "AP": 5232,
      "for ": 5233,
      "lor": 5234,
      "urg": 5235,
      "upan ": 5236,
      "akanlah": 5237,
      "Ok, ": 5238,
      "Kak": 5239,
      "n. ": 5240,
      "nanti ": 5241,
      "ina.\r\n": 5242,
      "ment\r\n": 5243,
      "ulis": 5244,
      "impun": 5245,
      "pembunuh ": 5246,
      "amal s": 5247,
      "misk": 5248,
      "Afr": 5249,
      "sila ": 5250,
      "tuk": 5251,
      "tingkat ": 5252,
      "sehingg": 5253,
      "yang dapat ": 5254,
      "hari ini ": 5255,
      "Ayah": 5256,
      "Mari.\r\n": 5257,
      "Sesungguhnya aku ": 5258,
      "jenayah ": 5259,
      "saling ": 5260,
      "sambungan ": 5261,
      "komputer ": 5262,
      "EN": 5263,
      "Skr": 5264,
      "bid": 5265,
      "lad": 5266,
      "my ": 5267,
      "sur ": 5268,
      "membuang ": 5269,
      "pertama.\r\n": 5270,
      "Ya?\r\n": 5271,
      "pd ": 5272,
      "yuar": 5273,
      "amu, ": 5274,
      "etek": 5275,
      "menghil": 5276,
      "angan!\r\n": 5277,
      "jauh": 5278,
      "versi ": 5279,
      "angkalan ": 5280,
      "ialah": 5281,
      "kumpul": 5282,
      "penip": 5283,
      "diri dari ": 5284,
      "percayai ": 5285,
      "membeli ": 5286,
      "demikian) ": 5287,
      "ver ": 5288,
      "orn": 5289,
      "- Selamat ": 5290,
      "urut": 5291,
      "lagi\r\n": 5292,
      "bersumpah ": 5293,
      "berdos": 5294,
      "senjata.\r\n": 5295,
      "keluar dari sini.\r\n": 5296,
      "Sayang, ": 5297,
      "keputus": 5298,
      "titik ": 5299,
      "Micha": 5300,
      "Gad": 5301,
      "ID ": 5302,
      "enam ": 5303,
      "uni": 5304,
      "aplikasi ": 5305,
      "saya mahu ": 5306,
      "apa yang telah ": 5307,
      "mati": 5308,
      "Tidak!\r\n": 5309,
      "oh.\r\n": 5310,
      "Nabi Ibrah": 5311,
      "autan ": 5312,
      "bincang ": 5313,
      "Cl": 5314,
      "Ta": 5315,
      "Vic": 5316,
      "\\t": 5317,
      "ibu": 5318,
      "sangka ": 5319,
      "Alex": 5320,
      "kekuf": 5321,
      "30": 5322,
      "Lo": 5323,
      "atan, ": 5324,
      "ada dalam ": 5325,
      "mengalami ": 5326,
      "masanya ": 5327,
      "kekal ": 5328,
      "tiba-": 5329,
      "Tunggu!\r\n": 5330,
      "hujan ": 5331,
      "setuju ": 5332,
      "USA\r\n": 5333,
      "Cukup": 5334,
      "2.\r\n": 5335,
      "Kh": 5336,
      ", dia ": 5337,
      "asanya ": 5338,
      "ik!\r\n": 5339,
      "pada masa ": 5340,
      "... ..": 5341,
      "sendirian.\r\n": 5342,
      "Sesungguhnya orang-orang yang ": 5343,
      "Bahawa ": 5344,
      "ight": 5345,
      "tidak diketahu": 5346,
      "bang": 5347,
      "cont": 5348,
      "yang lain ": 5349,
      " du": 5350,
      "Aku harus ": 5351,
      "Kau tahu, ": 5352,
      "ain\r\n": 5353,
      "Kamu akan ": 5354,
      "bagi kamu ": 5355,
      "sedang ber": 5356,
      "bangunan ": 5357,
      "Padam ": 5358,
      "cat": 5359,
      "ah dan ": 5360,
      "kesen": 5361,
      "oluti": 5362,
      "anak perempuan ": 5363,
      "sekali": 5364,
      "masuk ak": 5365,
      "kelihatan seperti ": 5366,
      "%d\r\n": 5367,
      "kata-kata ": 5368,
      "fas": 5369,
      "fok": 5370,
      "mengak": 5371,
      "Pengamp": 5372,
      "'%s'\r\n": 5373,
      "Budak ": 5374,
      "bercakap tentang ": 5375,
      "gonna ": 5376,
      "Jan": 5377,
      "beritah": 5378,
      "nya dan ": 5379,
      "kau tidak ": 5380,
      "anyakan ": 5381,
      "dengar?\r\n": 5382,
      "kamu berdua ": 5383,
      "menarik.\r\n": 5384,
      "(di ": 5385,
      "ON": 5386,
      "Ya. ": 5387,
      "ajak ": 5388,
      "unjuk": 5389,
      "dipanggil ": 5390,
      "Asia/": 5391,
      "Dir": 5392,
      "Pul": 5393,
      "di belakang ": 5394,
      "lah) ": 5395,
      "ang-kad": 5396,
      " di dalam": 5397,
      "cakap dengan ": 5398,
      "tor.\r\n": 5399,
      "sesiapa yang dikehendaki": 5400,
      "Katakan ": 5401,
      "sangk": 5402,
      "ilmu ": 5403,
      "sias": 5404,
      "ukannya.\r\n": 5405,
      "lalu, ": 5406,
      "ditimpa ": 5407,
      "letakkan ": 5408,
      "depan.\r\n": 5409,
      "Ingat ": 5410,
      "Nampak ": 5411,
      "Fik": 5412,
      "laku ": 5413,
      "adar ": 5414,
      "menahan ": 5415,
      "anya\r\n": 5416,
      "Tinggi ": 5417,
      "Cer": 5418,
      "GNO": 5419,
      "Maj": 5420,
      "jant": 5421,
      "tun": 5422,
      "alan\r\n": 5423,
      "mati!\r\n": 5424,
      "juga, ": 5425,
      "Ya, aku ": 5426,
      "sangat ber": 5427,
      "derhak": 5428,
      "program ": 5429,
      "lepas.\r\n": 5430,
      "_BAR_": 5431,
      "Jep": 5432,
      "Sing": 5433,
      "Uh": 5434,
      "auh ": 5435,
      "tund": 5436,
      "kenyat": 5437,
      "iputi ": 5438,
      "laporan ": 5439,
      "bintang ": 5440,
      "berjanji ": 5441,
      "No": 5442,
      "Put": 5443,
      "kuk": 5444,
      "elek": 5445,
      "ilan ": 5446,
      "semasa\r\n": 5447,
      "Tiga ": 5448,
      "diturunkan ": 5449,
      "maka sesungguhnya ": 5450,
      "bumi, ": 5451,
      "Cepat.\r\n": 5452,
      "Percay": 5453,
      "GNOME": 5454,
      "Bell": 5455,
      "Ir": 5456,
      "Rom": 5457,
      "x.\r\n": 5458,
      "itik ": 5459,
      "menangkap ": 5460,
      "- Apa?\r\n": 5461,
      "musim ": 5462,
      "mintaan ": 5463,
      "cet": 5464,
      "diny": 5465,
      "di.\r\n": 5466,
      "meranc": 5467,
      "saya di ": 5468,
      "edit": 5469,
      "menghabiskan ": 5470,
      "semua, ": 5471,
      "berjay": 5472,
      "menyeles": 5473,
      "Dan demi sesungguh": 5474,
      "5.\r\n": 5475,
      "Lal": 5476,
      "- Hei, ": 5477,
      "untuk meny": 5478,
      "kepadanya.\r\n": 5479,
      "bumi": 5480,
      "Bagus": 5481,
      "sangat.\r\n": 5482,
      "putih ": 5483,
      "istimew": 5484,
      "Hai.\r\n": 5485,
      "haiw": 5486,
      "tud": 5487,
      "Di sini ": 5488,
      "Kalian ": 5489,
      "suka.\r\n": 5490,
      "Sejak ": 5491,
      "Bal": 5492,
      "Pilihan ": 5493,
      "ada?\r\n": 5494,
      "kese": 5495,
      "medan ": 5496,
      "berdasarkan ": 5497,
      "Demikianlah ": 5498,
      "raja ": 5499,
      "yang ada di ": 5500,
      "es, ": 5501,
      "oleh Allah ": 5502,
      "jauh.\r\n": 5503,
      "ayat-ayat keterangan ": 5504,
      "Comment\r\n": 5505,
      "Jim": 5506,
      "fi": 5507,
      "ar di ": 5508,
      "ap!\r\n": 5509,
      "termin": 5510,
      "nya (": 5511,
      "idg": 5512,
      "kanan ": 5513,
      "lain\r\n": 5514,
      "Semasa ": 5515,
      "tahun yang ": 5516,
      "ype\r\n": 5517,
      "12 ": 5518,
      "Letakkan ": 5519,
      "ekan ": 5520,
      "jil ": 5521,
      "se.\r\n": 5522,
      "mengembalikan ": 5523,
      "ini di": 5524,
      "kami telah ": 5525,
      "pusat ": 5526,
      "pertolongan ": 5527,
      "Rasul-rasul ": 5528,
      "nab": 5529,
      "et\r\n": 5530,
      "awak ada ": 5531,
      "siapakah ": 5532,
      "Secara ": 5533,
      "menghanc": 5534,
      "ohong": 5535,
      "itu, dan ": 5536,
      "masih hidup": 5537,
      "Kapten ": 5538,
      "kos": 5539,
      "tion": 5540,
      "ish": 5541,
      "ke tempat ": 5542,
      "ujuk ": 5543,
      "pemand": 5544,
      "parti ": 5545,
      "AN ": 5546,
      "terjadi?\r\n": 5547,
      "Lek": 5548,
      "gi": 5549,
      "rentetan ": 5550,
      "ua-": 5551,
      "menolak ": 5552,
      "Saya ber": 5553,
      "mereka adalah ": 5554,
      "lebih banyak ": 5555,
      "oth": 5556,
      "Ia akan ": 5557,
      "Siapa?\r\n": 5558,
      "John ": 5559,
      "Ah, ": 5560,
      "a.\"\r\n": 5561,
      "m.\r\n": 5562,
      "apa yang anda ": 5563,
      "tahu tentang ": 5564,
      "Wahai orang-orang yang berim": 5565,
      "Que": 5566,
      "kedua-dua ": 5567,
      "ag ": 5568,
      "at, dan ": 5569,
      "apa-apa, ": 5570,
      "Maafkan saya, ": 5571,
      "hotel": 5572,
      "Kitab": 5573,
      "Profes": 5574,
      "menjadilah ": 5575,
      "Mesej ": 5576,
      "Mod ": 5577,
      "Tap": 5578,
      "fuck": 5579,
      "halaman ": 5580,
      "uru.\r\n": 5581,
      "Saya bukan ": 5582,
      "membes": 5583,
      "keturun": 5584,
      "Nabi Muhammad": 5585,
      "proses ": 5586,
      "habiskan ": 5587,
      "hukuman ": 5588,
      "Hello, ": 5589,
      "Perkara ": 5590,
      "Ahli ": 5591,
      ":%": 5592,
      "Jaw": 5593,
      "Ko": 5594,
      "aman.\r\n": 5595,
      "sama dengan ": 5596,
      "lagi Maha Bijak": 5597,
      "Hati-hat": 5598,
      "O ": 5599,
      "Sab": 5600,
      "sor": 5601,
      "angin ": 5602,
      "meros": 5603,
      "membalas ": 5604,
      "hati.\r\n": 5605,
      "balas ": 5606,
      "mesej yang ": 5607,
      "ologi ": 5608,
      "Bum": 5609,
      "bap": 5610,
      "lawan ": 5611,
      "anlah ": 5612,
      "ung dengan ": 5613,
      "ih, ": 5614,
      "awak tidak ": 5615,
      "acara ": 5616,
      "manakah ": 5617,
      "Tapi dia ": 5618,
      "datang dari ": 5619,
      "trans": 5620,
      "syait": 5621,
      "wajah ": 5622,
      "bola ": 5623,
      "menemukan ": 5624,
      "Hantar ": 5625,
      "y. ": 5626,
      "akaun ": 5627,
      "eri ": 5628,
      "saya adalah ": 5629,
      "ihara ": 5630,
      "ugam": 5631,
      "hari yang ": 5632,
      "pemberi ": 5633,
      "masih ada ": 5634,
      "syarikat ": 5635,
      "memasuk": 5636,
      "filem ": 5637,
      "bicara ": 5638,
      "video ": 5639,
      "kedudukan ": 5640,
      "ID": 5641,
      "go": 5642,
      "araan ": 5643,
      "pelangg": 5644,
      "tengok": 5645,
      "(%s": 5646,
      "Cas": 5647,
      "Cant": 5648,
      "Jes": 5649,
      "bunuh": 5650,
      "raks": 5651,
      "annya?\r\n": 5652,
      " dar": 5653,
      "onok": 5654,
      "membin": 5655,
      "pelay": 5656,
      "tinggi.\r\n": 5657,
      "kawan, ": 5658,
      "Masuk ": 5659,
      "percaya.\r\n": 5660,
      "ahwinan ": 5661,
      "Begitu ": 5662,
      "raky": 5663,
      "Bunuh ": 5664,
      "ifik": 5665,
      "jumlah ": 5666,
      "tat": 5667,
      "atangan ": 5668,
      "awal.\r\n": 5669,
      "ajuan ": 5670,
      "empurn": 5671,
      "s (": 5672,
      "Ingger": 5673,
      "plan": 5674,
      "( ": 5675,
      "Mari": 5676,
      "adik": 5677,
      " daripad": 5678,
      "memohon ": 5679,
      "uman ": 5680,
      "unt ": 5681,
      "dan aku ": 5682,
      "inggalkan ": 5683,
      "disini ": 5684,
      "kalau kamu ": 5685,
      "gagal": 5686,
      "pulang ke ": 5687,
      "Georg": 5688,
      "Ah": 5689,
      "e. ": 5690,
      "eny": 5691,
      "berhenti": 5692,
      "utus ": 5693,
      "merekalah ": 5694,
      "Anda akan ": 5695,
      "pindah ": 5696,
      "ganj": 5697,
      "ku?\r\n": 5698,
      "tiv": 5699,
      "terkej": 5700,
      "Kau dah ": 5701,
      "datuk ": 5702,
      "bertanggung": 5703,
      "crip": 5704,
      "pistol ": 5705,
      "Nick": 5706,
      "panjang ": 5707,
      "ard": 5708,
      "kepada saya.\r\n": 5709,
      "kert": 5710,
      "Apa maksud ": 5711,
      "Allah akan ": 5712,
      "kawalan ": 5713,
      "baik untuk ": 5714,
      "peti ": 5715,
      "okay.\r\n": 5716,
      "B\r\n": 5717,
      "lepas": 5718,
      "an).\r\n": 5719,
      "menghentikan ": 5720,
      "tapi aku ": 5721,
      "penting": 5722,
      "minta maaf ": 5723,
      "memulakan ": 5724,
      "Sur": 5725,
      "komp": 5726,
      "uang.\r\n": 5727,
      "ah...\r\n": 5728,
      "arnya ": 5729,
      "inat ": 5730,
      "kepercay": 5731,
      "kamera ": 5732,
      "uh!\r\n": 5733,
      "anda untuk ": 5734,
      "sibuk": 5735,
      "Stock ": 5736,
      "Tolonglah, ": 5737,
      "jek\r\n": 5738,
      "AM": 5739,
      "Dunia ": 5740,
      "Jaga ": 5741,
      "Kej": 5742,
      "Log": 5743,
      "gu": 5744,
      "po": 5745,
      "ukac": 5746,
      " dalam": 5747,
      "ott": 5748,
      "panas ": 5749,
      "Kuasa ": 5750,
      "melihatnya.\r\n": 5751,
      "masing-masing": 5752,
      "menghadapi ": 5753,
      "1.\r\n": 5754,
      "pungg": 5755,
      "inf": 5756,
      "unan ": 5757,
      "keses": 5758,
      "tuan, ": 5759,
      "Pergilah ": 5760,
      "Kata ": 5761,
      "marah.\r\n": 5762,
      "duduk di ": 5763,
      "mengalahkan ": 5764,
      "Rasul-rasul": 5765,
      "akanlah: \"": 5766,
      "Kemudi": 5767,
      "Taur": 5768,
      "raj": 5769,
      "ard ": 5770,
      "Saya akan ber": 5771,
      "sembah ": 5772,
      "sebanyak ": 5773,
      "tahu bagaimana ": 5774,
      "tahun, ": 5775,
      "pandai ": 5776,
      "makhluk-makhluk ": 5777,
      "B ": 5778,
      "Wak": 5779,
      "simb": 5780,
      "unik": 5781,
      "iku.\r\n": 5782,
      "merasakan ": 5783,
      "abatan ": 5784,
      "id\r\n": 5785,
      "Adakah kamu ": 5786,
      "ini... ": 5787,
      "-baik": 5788,
      "Temp": 5789,
      "ampir": 5790,
      "menyatakan ": 5791,
      "menjump": 5792,
      "),\r\n": 5793,
      "E ": 5794,
      "Go": 5795,
      "Yah, ": 5796,
      "erakan ": 5797,
      "Saya tidak boleh ": 5798,
      "Saya perlukan ": 5799,
      "menyuruh ": 5800,
      "menyangka ": 5801,
      "Ketua ": 5802,
      "Kuasa, ": 5803,
      "Bro": 5804,
      "pahl": 5805,
      "akit": 5806,
      "u yang ": 5807,
      "ada": 5808,
      "berkuasa ": 5809,
      "aga.\r\n": 5810,
      "terj": 5811,
      "ungan\r\n": 5812,
      "kan...\r\n": 5813,
      "selain ": 5814,
      "nya), ": 5815,
      "sejarah ": 5816,
      "sakit.\r\n": 5817,
      "pagi, ": 5818,
      "bekas ": 5819,
      "beliau.\r\n": 5820,
      "separuh ": 5821,
      "Bagaiman": 5822,
      "curi ": 5823,
      "son.\r\n": 5824,
      "as dan ": 5825,
      "dia dah ": 5826,
      "Kau tidak ": 5827,
      "otong": 5828,
      "cakap?\r\n": 5829,
      "bilangan ": 5830,
      "Keluar dari ": 5831,
      "Biar aku ": 5832,
      "ganggu ": 5833,
      "16": 5834,
      "ai-": 5835,
      "cel": 5836,
      "tu!\r\n": 5837,
      "apun ": 5838,
      "teruskan ": 5839,
      "kamu. ": 5840,
      "Ingat": 5841,
      "bom ": 5842,
      "korb": 5843,
      "may": 5844,
      "tak.\r\n": 5845,
      "kami!\r\n": 5846,
      "saya dengan ": 5847,
      "trak ": 5848,
      "supaya mereka ": 5849,
      "sebenarnya.\r\n": 5850,
      "Sama ada ": 5851,
      "jiwa ": 5852,
      "G ": 5853,
      "Sub": 5854,
      "bot ": 5855,
      "lanc": 5856,
      "alaluan ": 5857,
      "unit ": 5858,
      "kesud": 5859,
      "mengajar ": 5860,
      "tidak sah\r\n": 5861,
      "sempad": 5862,
      "Aku tak boleh ": 5863,
      "af ": 5864,
      "sudah tentu ": 5865,
      "polis": 5866,
      "menerangkan ": 5867,
      "100": 5868,
      "rep": 5869,
      "teruk": 5870,
      "indung ": 5871,
      "pertand": 5872,
      "perhatian ": 5873,
      "menyeksa ": 5874,
      "Lor": 5875,
      "Wall": 5876,
      "cab": 5877,
      "leng": 5878,
      "agum": 5879,
      "tahankan ": 5880,
      "Sekali ": 5881,
      "pulau ": 5882,
      "mula.\r\n": 5883,
      "sembahyang ": 5884,
      "dokumen ": 5885,
      "(untuk ": 5886,
      "(Al-Qur": 5887,
      "lis": 5888,
      "am dan ": 5889,
      "ikon ": 5890,
      "ut?\r\n": 5891,
      "apa yang dia ": 5892,
      "Nya, dan ": 5893,
      "keterangan-": 5894,
      "Bod": 5895,
      "Ex": 5896,
      "L\r\n": 5897,
      "ges": 5898,
      "ht": 5899,
      "jari ": 5900,
      "angnya, ": 5901,
      "enang ": 5902,
      "ke-": 5903,
      "awak yang ": 5904,
      "kannya?\r\n": 5905,
      "jika mereka ": 5906,
      "Jika kamu ": 5907,
      "Baik ": 5908,
      "tenaga ": 5909,
      "pandang ": 5910,
      "jahan": 5911,
      "Bagus, ": 5912,
      "Evoluti": 5913,
      "14": 5914,
      "Ton": 5915,
      "inginkan ": 5916,
      "Kau harus ": 5917,
      "lubang ": 5918,
      "(kerana ": 5919,
      "Hentikan ": 5920,
      "rambut ": 5921,
      "a untuk ": 5922,
      "er\r\n": 5923,
      "bermula ": 5924,
      "- Di ": 5925,
      "ny ": 5926,
      "baiki ": 5927,
      "%s: %s\r\n": 5928,
      "hidmat": 5929,
      "seseorang.\r\n": 5930,
      "terperi ": 5931,
      "Vol": 5932,
      "i:\r\n": 5933,
      "enj": 5934,
      "ulu ": 5935,
      "sesama ": 5936,
      "keran": 5937,
      "kasih": 5938,
      "menghubungi ": 5939,
      "hadap": 5940,
      "(yang di": 5941,
      "Nama saya ": 5942,
      "Presiden ": 5943,
      "elektr": 5944,
      "Cr": 5945,
      "Cap": 5946,
      "tukar ": 5947,
      "it!\r\n": 5948,
      "aku nak ": 5949,
      "kannya, ": 5950,
      "diri, ": 5951,
      "Kami jadikan ": 5952,
      "jika awak ": 5953,
      "Hei ": 5954,
      "; (": 5955,
      "kitab ": 5956,
      "musuh": 5957,
      "bayi ": 5958,
      "> ": 5959,
      "Sim": 5960,
      "cor": 5961,
      "sl": 5962,
      "aran\r\n": 5963,
      "ur, ": 5964,
      "ter, ": 5965,
      "Alamat ": 5966,
      "buat di sini?\r\n": 5967,
      "sekali, ": 5968,
      "penjara.\r\n": 5969,
      "ey ": 5970,
      "- Kenapa ": 5971,
      "Aku telah ": 5972,
      "Kita semua ": 5973,
      "ic ": 5974,
      "indah.\r\n": 5975,
      "berhub": 5976,
      "pesaw": 5977,
      "membantu.\r\n": 5978,
      "berbagai ": 5979,
      "Berapa lama ": 5980,
      "AK": 5981,
      "Had": 5982,
      "cul": 5983,
      "dig": 5984,
      "esen ": 5985,
      "semua ini ": 5986,
      "sana!\r\n": 5987,
      "Allah, dan ": 5988,
      "Emp": 5989,
      "CI": 5990,
      "Dik": 5991,
      "ld": 5992,
      "rug": 5993,
      "tong": 5994,
      "it?\r\n": 5995,
      "memap": 5996,
      "mereka dari ": 5997,
      "kau ber": 5998,
      "embir": 5999,
      "itu...\r\n": 6000,
      "Pelayan ": 6001,
      "hasil ": 6002,
      "tersebut ": 6003,
      "selain dari ": 6004,
      "perkara-perkara yang ": 6005,
      "lagi Maha Bijaksana.\r\n": 6006,
      "terperi sakit": 6007,
      "18": 6008,
      "Aku": 6009,
      "a), ": 6010,
      "ame": 6011,
      "ketahu": 6012,
      "memegang ": 6013,
      "ing!\r\n": 6014,
      "ut!\r\n": 6015,
      "saya... ": 6016,
      "buat, ": 6017,
      "di sini!\r\n": 6018,
      "hen ": 6019,
      "faedah ": 6020,
      "lain, ": 6021,
      "Mengetahui ": 6022,
      "wujud.\r\n": 6023,
      "lagi Maha Mengasihani.\r\n": 6024,
      ");\r\n": 6025,
      "A.\r\n": 6026,
      "Dam": 6027,
      "Nanti ": 6028,
      "ai!\r\n": 6029,
      "ch ": 6030,
      "ali": 6031,
      "emak ": 6032,
      "mereka) ": 6033,
      "dia ke ": 6034,
      "jika dia ": 6035,
      "Saya tak tahu ": 6036,
      "kakak ": 6037,
      "keterangan-keterangan ": 6038,
      "Sk": 6039,
      "bro": 6040,
      "daya ": 6041,
      "yang tak ": 6042,
      "yang pernah ": 6043,
      "- Saya akan ": 6044,
      "onni": 6045,
      "alah kamu ": 6046,
      "tahan": 6047,
      "angkap.\r\n": 6048,
      "ujudkan ": 6049,
      "pembunuhan ": 6050,
      "CP": 6051,
      "Pin": 6052,
      "boleh, ": 6053,
      "ahkan.\r\n": 6054,
      "yang ada ": 6055,
      "persembah": 6056,
      "terbaik": 6057,
      "entukan ": 6058,
      "uga ": 6059,
      "sia-": 6060,
      "kuc": 6061,
      "pilihan.\r\n": 6062,
      "luar.\r\n": 6063,
      "amal-": 6064,
      "peristiw": 6065,
      "Hur": 6066,
      "ng": 6067,
      "um, ": 6068,
      "mengir": 6069,
      "Awak perlu ": 6070,
      "Keluarkan ": 6071,
      "ceritakan ": 6072,
      "Buang ": 6073,
      "Cub": 6074,
      "un\r\n": 6075,
      "sel ": 6076,
      "indungan ": 6077,
      "kita!\r\n": 6078,
      "Seles": 6079,
      "mengetahui (": 6080,
      "Fiji": 6081,
      "enggan ": 6082,
      "100 ": 6083,
      "5\r\n": 6084,
      "i..\r\n": 6085,
      "tidak dit": 6086,
      "izinkan ": 6087,
      "dua, ": 6088,
      "berhas": 6089,
      "tekn": 6090,
      "memandu ": 6091,
      "Tahni": 6092,
      "undang-undang ": 6093,
      "Telefon ": 6094,
      "ry ": 6095,
      "wit": 6096,
      "ahkah ": 6097,
      "memutuskan ": 6098,
      ". Dan ": 6099,
      "tahan.\r\n": 6100,
      "itu di": 6101,
      "seperti ini.\r\n": 6102,
      "berapa banyak ": 6103,
      "manusia, ": 6104,
      "keadaan": 6105,
      "majlis ": 6106,
      "musyrik ": 6107,
      "Syaitan ": 6108,
      "Permainan ": 6109,
      "Tom": 6110,
      "leg": 6111,
      "vis": 6112,
      "ol\r\n": 6113,
      "kender": 6114,
      "Penggun": 6115,
      "gila?\r\n": 6116,
      "nyata.\r\n": 6117,
      "Mr. ": 6118,
      "Ibu": 6119,
      "e dan ": 6120,
      "saya ter": 6121,
      "teling": 6122,
      "katakan.\r\n": 6123,
      "pengetahu": 6124,
      "lebih daripada ": 6125,
      "dengannya.\r\n": 6126,
      "kemamp": 6127,
      "sebelum ini.\r\n": 6128,
      "dunia": 6129,
      "mengetahui akan ": 6130,
      "- Ye": 6131,
      "jahat.\r\n": 6132,
      "kandungan ": 6133,
      "ubahsu": 6134,
      "rangkaian ": 6135,
      "Pengampun, ": 6136,
      "San ": 6137,
      "tahanan ": 6138,
      "dia ada ": 6139,
      "ajaib": 6140,
      "takdir": 6141,
      "Sesungguhnya Allah ": 6142,
      "% 1 ": 6143,
      "ompak ": 6144,
      "hubung": 6145,
      "memandang ": 6146,
      "a).\r\n": 6147,
      "dind": 6148,
      "sokong": 6149,
      "uan, ": 6150,
      "ikatan ": 6151,
      "sayangkan ": 6152,
      "risik": 6153,
      "tahun-": 6154,
      "terlepas ": 6155,
      "muda ": 6156,
      "CD": 6157,
      "bank": 6158,
      "fak": 6159,
      "no": 6160,
      "turunkan ": 6161,
      "bernama ": 6162,
      "ke sana.\r\n": 6163,
      "membina ": 6164,
      "kemas": 6165,
      " yang di": 6166,
      "hidayah petunjuk ": 6167,
      "mengganggu ": 6168,
      "Kembali ": 6169,
      "Sumber": 6170,
      "bau ": 6171,
      "son": 6172,
      "tarikh ": 6173,
      "yang baik": 6174,
      "oleh itu ": 6175,
      "aku harus ": 6176,
      "Aku cuma ": 6177,
      "boleh saya ": 6178,
      "a-pur": 6179,
      "objek ": 6180,
      "Lebih baik ": 6181,
      "Buku ": 6182,
      "tiga.\r\n": 6183,
      "Ca": 6184,
      "kau dan ": 6185,
      "ke mana?\r\n": 6186,
      "epala ": 6187,
      "ongs": 6188,
      "menyaks": 6189,
      "le\r\n": 6190,
      "Bagus ": 6191,
      "baik-baik saja.\r\n": 6192,
      "Fel": 6193,
      "May": 6194,
      "Tarikh ": 6195,
      "sedia?\r\n": 6196,
      "menonton ": 6197,
      "tilah ": 6198,
      "semb": 6199,
      "katakan?\r\n": 6200,
      "mencar": 6201,
      "pergi dari ": 6202,
      "jelaskan ": 6203,
      "berkahwin": 6204,
      "dol": 6205,
      "seteng": 6206,
      "yang mana ": 6207,
      "kamu telah ": 6208,
      "edar": 6209,
      "menghapuskan ": 6210,
      "masih hidup.\r\n": 6211,
      "Saya tak nak ": 6212,
      "Tolong, ": 6213,
      "wanit": 6214,
      "Oleh itu ": 6215,
      "sempurna.\r\n": 6216,
      "perniagaan ": 6217,
      "-p": 6218,
      "Bant": 6219,
      "Nic": 6220,
      "X ": 6221,
      "nia ": 6222,
      "tumb": 6223,
      "vi": 6224,
      "menolong ": 6225,
      "til": 6226,
      "anda!\r\n": 6227,
      "a-kira ": 6228,
      "kenalkan ": 6229,
      "hari ini, ": 6230,
      "tetapan ": 6231,
      "selamat": 6232,
      "Tetapan ": 6233,
      "Star": 6234,
      "Sher": 6235,
      "belum pernah ": 6236,
      "Sudah tentu ": 6237,
      "karena ": 6238,
      "Salin ": 6239,
      "susah ": 6240,
      "Iaitu ": 6241,
      "Kunci ": 6242,
      "Laur": 6243,
      "ast": 6244,
      "mengingat": 6245,
      "Apa? ": 6246,
      "membac": 6247,
      "Stev": 6248,
      "fikir.\r\n": 6249,
      "Gunakan ": 6250,
      "Nat": 6251,
      "ail": 6252,
      "an,\r\n": 6253,
      "aku tahu ": 6254,
      "pengec": 6255,
      "sert": 6256,
      "mesyuar": 6257,
      "sesuatu, ": 6258,
      "Dan, ": 6259,
      "ton ": 6260,
      " dend": 6261,
      "sebut": 6262,
      "bahay": 6263,
      "penggan": 6264,
      "miny": 6265,
      "an yang di": 6266,
      "itu).\r\n": 6267,
      "Selama ": 6268,
      "kemur": 6269,
      "perkahwinan ": 6270,
      "\" (": 6271,
      "bantuan.\r\n": 6272,
      "isyarat ": 6273,
      "Bab": 6274,
      "Lari!\r\n": 6275,
      "Ry": 6276,
      "ganti ": 6277,
      "let ": 6278,
      "Apa-": 6279,
      "Kamu tahu ": 6280,
      "opsyen ": 6281,
      "rumah": 6282,
      "- Boleh ": 6283,
      "- Tak, ": 6284,
      "bandar.\r\n": 6285,
      "menyeronok": 6286,
      "pura-pur": 6287,
      "beriman kepada ": 6288,
      "Tidak. ": 6289,
      "pokok ": 6290,
      "Ob": 6291,
      "daku ": 6292,
      "ri ": 6293,
      "ring": 6294,
      "ahan\r\n": 6295,
      "ur\r\n": 6296,
      "Saya sangat ": 6297,
      "Aku mahu ": 6298,
      "harapan ": 6299,
      "punc": 6300,
      "Berger": 6301,
      "akan-": 6302,
      "menjual ": 6303,
      "tujuh ": 6304,
      "bebas": 6305,
      "situasi ": 6306,
      "3\r\n": 6307,
      "3.\r\n": 6308,
      "auan ": 6309,
      "ton": 6310,
      "an: ": 6311,
      "Apa awak ": 6312,
      "pasti.\r\n": 6313,
      "Sial!\r\n": 6314,
      "olehkan ": 6315,
      "manusia": 6316,
      "berhutang ": 6317,
      "jelas": 6318,
      "Belum ": 6319,
      "Paparan ": 6320,
      "pegu": 6321,
      "Imej\r\n": 6322,
      "Ne": 6323,
      "if ": 6324,
      "akan datang ": 6325,
      "ter\r\n": 6326,
      "mata.\r\n": 6327,
      "tempat.\r\n": 6328,
      "Tolonglah.\r\n": 6329,
      "masuk ke dalam ": 6330,
      "janji.\r\n": 6331,
      "profes": 6332,
      "(Mereka ": 6333,
      "*\r\n": 6334,
      "Dev": 6335,
      "Flas": 6336,
      "an), ": 6337,
      "adaan ": 6338,
      "orang?\r\n": 6339,
      "tidak akan ber": 6340,
      "kamu dah ": 6341,
      "Kita mesti ": 6342,
      "Hey ": 6343,
      "jumpa.\r\n": 6344,
      "binasakan ": 6345,
      "latar ": 6346,
      "Font color = ": 6347,
      "Hy": 6348,
      "KDE": 6349,
      "arak ": 6350,
      "mendatangkan ": 6351,
      "or, ": 6352,
      "ormati ": 6353,
      "Saya minta maaf.\r\n": 6354,
      "unting ": 6355,
      "Allah yang ": 6356,
      "padaku.\r\n": 6357,
      "Tak guna!\r\n": 6358,
      "belanj": 6359,
      "real": 6360,
      "terbang.\r\n": 6361,
      "nafs": 6362,
      "musnahkan ": 6363,
      ",000 ": 6364,
      "Del": 6365,
      "Lond": 6366,
      "Pos": 6367,
      "law": 6368,
      "ahlah ": 6369,
      "ensi ": 6370,
      "upa ": 6371,
      "anya) ": 6372,
      "apa yang berlaku ": 6373,
      "buat apa ": 6374,
      "sekarang": 6375,
      "Sehingga ": 6376,
      "begini.\r\n": 6377,
      "Jika awak ": 6378,
      "maksudkan ": 6379,
      "jual ": 6380,
      "Hidupkan ": 6381,
      "menyakiti ": 6382,
      "sombong ": 6383,
      "kedatangan ": 6384,
      "Fo": 6385,
      "Laluan ": 6386,
      "Wh": 6387,
      "cik": 6388,
      "mag": 6389,
      "rant": 6390,
      "tuhan ": 6391,
      "tulis ": 6392,
      "arg": 6393,
      "arah.\r\n": 6394,
      "- G": 6395,
      "ima.\r\n": 6396,
      "melimp": 6397,
      "perlu.\r\n": 6398,
      "kala ": 6399,
      "kenc": 6400,
      "Terus ": 6401,
      "tetapkan ": 6402,
      "i-hati ": 6403,
      "Diam!\r\n": 6404,
      "Nabi N": 6405,
      "melihatnya ": 6406,
      "gug": 6407,
      "sain": 6408,
      "ingat.\r\n": 6409,
      "untuk mencari ": 6410,
      "nyaw": 6411,
      "kamu mahu ": 6412,
      "kau harus ": 6413,
      "kita dah ": 6414,
      "kepada mereka, ": 6415,
      "pelik ": 6416,
      "jika kita ": 6417,
      "akhirat": 6418,
      "Amerika.\r\n": 6419,
      "ribut ": 6420,
      "amu": 6421,
      "berhenti.\r\n": 6422,
      "di rumah ": 6423,
      "itu tak ": 6424,
      "anda dan ": 6425,
      "kepada kamu, ": 6426,
      "Awak tak boleh ": 6427,
      "Kau ada ": 6428,
      "anggung ": 6429,
      "bersab": 6430,
      "bersalah ": 6431,
      "ot.\r\n": 6432,
      "bulan.\r\n": 6433,
      "terlibat ": 6434,
      "neraka.\r\n": 6435,
      "Dokumen ": 6436,
      "#\r\n": 6437,
      "LE": 6438,
      "Res": 6439,
      "ribu ": 6440,
      "bermaksud ": 6441,
      "ayah, ": 6442,
      "Saya juga ": 6443,
      "tahap ": 6444,
      "kiri ": 6445,
      "pedang ": 6446,
      "gagal.\r\n": 6447,
      "mengejar ": 6448,
      "memuatkan ": 6449,
      "kampung ": 6450,
      "Afrik": 6451,
      "Austr": 6452,
      "rem": 6453,
      "ekat ": 6454,
      "- Aku tak ": 6455,
      "upun": 6456,
      "pengawal ": 6457,
      "saat.\r\n": 6458,
      "paling": 6459,
      "sampai.\r\n": 6460,
      "Tuhanku ": 6461,
      "if.\r\n": 6462,
      "musyrik": 6463,
      "Well, ": 6464,
      "Format ": 6465,
      "FB": 6466,
      "T ": 6467,
      "gor": 6468,
      "man, ": 6469,
      "tis ": 6470,
      " dep": 6471,
      "memanggil": 6472,
      "mereka. ": 6473,
      "menyus": 6474,
      "mencur": 6475,
      "Teruskan ": 6476,
      "Adakah awak ": 6477,
      "hal yang ": 6478,
      "keluarga.\r\n": 6479,
      "sasaran ": 6480,
      "Bud": 6481,
      "Jel": 6482,
      "We": 6483,
      "Way": 6484,
      "jangka ": 6485,
      "vol": 6486,
      "berani ": 6487,
      "kegem": 6488,
      "peri": 6489,
      "ing-": 6490,
      "saya hanya ": 6491,
      "aku yang ": 6492,
      "aku dah ": 6493,
      "Dan juga ": 6494,
      "belas ": 6495,
      "tidak akan dapat ": 6496,
      "bolehkah ": 6497,
      "saluran ": 6498,
      "Carl": 6499,
      "amatlah ": 6500,
      "Firaun": 6501,
      "-s": 6502,
      "Ul": 6503,
      "_C": 6504,
      "by ": 6505,
      "kesel": 6506,
      "tertentu ": 6507,
      "isc": 6508,
      "bahawa sesungguhnya ": 6509,
      "exic": 6510,
      "harta benda ": 6511,
      "OK.\r\n": 6512,
      "hamba-hamba": 6513,
      ",000": 6514,
      "Luk": 6515,
      "OR": 6516,
      "Wat": 6517,
      "ian?\r\n": 6518,
      "ny.\r\n": 6519,
      "entikan.\r\n": 6520,
      "anya-": 6521,
      "anya. ": 6522,
      "kau\r\n": 6523,
      "semua ini.\r\n": 6524,
      "Kamu dah ": 6525,
      "Kamu semua ": 6526,
      "bersik": 6527,
      "akan!\r\n": 6528,
      "...\"\r\n": 6529,
      "awak. ": 6530,
      "kurnia ": 6531,
      "binas": 6532,
      "Boleh tak ": 6533,
      "Tuan-": 6534,
      "kembali, ": 6535,
      "% 1\r\n": 6536,
      "a.. ": 6537,
      "cek": 6538,
      "dgn ": 6539,
      "ra ": 6540,
      "tab ": 6541,
      "ine ": 6542,
      "....": 6543,
      "memal": 6544,
      "meras": 6545,
      "one ": 6546,
      "tidak mempunyai ": 6547,
      "lahir": 6548,
      "maksim": 6549,
      "ibatkan ": 6550,
      "Kamu boleh ": 6551,
      "nya...\r\n": 6552,
      "prot": 6553,
      "idea yang ": 6554,
      "hampir": 6555,
      "bencana ": 6556,
      "You ": 6557,
      "melampa": 6558,
      "rezeki ": 6559,
      "Edit": 6560,
      "Kawan ": 6561,
      "On": 6562,
      "PI": 6563,
      "P\r\n": 6564,
      "fot": 6565,
      "kahw": 6566,
      "ala yang ": 6567,
      "emuan ": 6568,
      "perang": 6569,
      "etik ": 6570,
      "saya dapat ": 6571,
      "Saya ter": 6572,
      "pada awak.\r\n": 6573,
      "kau dah ": 6574,
      "jadi, ": 6575,
      "selis": 6576,
      "mencuba ": 6577,
      "pasangan ": 6578,
      "sembunyikan ": 6579,
      "Edit ": 6580,
      "# FFFF00 ": 6581,
      "leny": 6582,
      "kemenangan ": 6583,
      "Kerja ": 6584,
      "Font color = # FFFF00 ": 6585,
      "-main": 6586,
      "pelak": 6587,
      "tingk": 6588,
      "atangan": 6589,
      "iti.\r\n": 6590,
      "- Jadi ": 6591,
      "kamu ada ": 6592,
      "kepada kami ": 6593,
      "edit ": 6594,
      "suam": 6595,
      "dalam.\r\n": 6596,
      "Isl": 6597,
      "bekerja.\r\n": 6598,
      "menjelaskan ": 6599,
      "Import ": 6600,
      "Keutamaan ": 6601,
      "tiba-tiba ": 6602,
      "ang-kadang ": 6603,
      "by": 6604,
      "cinc": 6605,
      "in dan ": 6606,
      "un-": 6607,
      "a, tapi ": 6608,
      "dan meng": 6609,
      "ed.\r\n": 6610,
      "sering ": 6611,
      "Apa yang dia ": 6612,
      "kalau awak ": 6613,
      "dahulu.\r\n": 6614,
      ":\" ": 6615,
      "fir": 6616,
      "zaman ": 6617,
      "menarik": 6618,
      "ulan ": 6619,
      "memukul ": 6620,
      "terakhir.\r\n": 6621,
      "iri-": 6622,
      "aku ada ": 6623,
      "aku rasa ": 6624,
      "anda telah ": 6625,
      "kenapa?\r\n": 6626,
      "Adalah ": 6627,
      "Ke mana ": 6628,
      "nasihat ": 6629,
      "masing-masing ": 6630,
      "Stock label\r\n": 6631,
      "Je": 6632,
      "cac": 6633,
      ", kan?\r\n": 6634,
      "mendapati ": 6635,
      "yang kami ": 6636,
      "- Tiada ": 6637,
      "uran.\r\n": 6638,
      "ihatkan ": 6639,
      "dia dan ": 6640,
      "pada.\r\n": 6641,
      "anjut": 6642,
      "muat ": 6643,
      "pintu.\r\n": 6644,
      "Angkat ": 6645,
      "Sarj": 6646,
      "mencintai ": 6647,
      "wahyukan ": 6648,
      "menjumpai ": 6649,
      "UN": 6650,
      "dam": 6651,
      "kod": 6652,
      "meja ": 6653,
      "ulang": 6654,
      "merayu ": 6655,
      "ant ": 6656,
      "menyany": 6657,
      "nya; dan ": 6658,
      "kasut ": 6659,
      "itu), ": 6660,
      "patah ": 6661,
      "azab yang ": 6662,
      "masuk\r\n": 6663,
      "seperti": 6664,
      "menghancurkan ": 6665,
      ",..\r\n": 6666,
      "By": 6667,
      "Ubah ": 6668,
      "dom": 6669,
      "lip": 6670,
      "akan dapat ": 6671,
      "ini dengan ": 6672,
      "Kamu nak ": 6673,
      "Jika dia ": 6674,
      "mengenali ": 6675,
      "kemungkinan ": 6676,
      "Cetak ": 6677,
      "I'": 6678,
      "Supaya ": 6679,
      "gn": 6680,
      "ion ": 6681,
      "tum": 6682,
      " des": 6683,
      "Saya mempunyai ": 6684,
      "Aku perlu ": 6685,
      "datang ke sini ": 6686,
      "minuman ": 6687,
      "jauh dari ": 6688,
      "Hello.\r\n": 6689,
      "menyediakan ": 6690,
      "jarak ": 6691,
      "Sampai ": 6692,
      "Klik ": 6693,
      "Pegang ": 6694,
      "adanya ": 6695,
      "diam": 6696,
      "akan jadi ": 6697,
      "uh\r\n": 6698,
      "dalam masa ": 6699,
      "Periksa ": 6700,
      "Apa yang berlaku ": 6701,
      "annya dengan ": 6702,
      "Pergi, ": 6703,
      "Arahan ": 6704,
      "konfigurasi ": 6705,
      "lupakan ": 6706,
      "menyelesaikan ": 6707,
      "Bahagian ": 6708,
      "Eth": 6709,
      "Hamp": 6710,
      "Lupakan ": 6711,
      "Mor": 6712,
      "gaya ": 6713,
      "kut": 6714,
      "ry.\r\n": 6715,
      "spes": 6716,
      "al-": 6717,
      "sepad": 6718,
      "menutup ": 6719,
      "- A": 6720,
      "saya ke ": 6721,
      "mereka semua ": 6722,
      ") itu ": 6723,
      "Dia adalah ": 6724,
      "Kita tak boleh ": 6725,
      "satu per": 6726,
      "Anda perlu ": 6727,
      "pelik.\r\n": 6728,
      "lagi yang ": 6729,
      "Kalaulah ": 6730,
      "menyeru ": 6731,
      "kiri.\r\n": 6732,
      "tadi?\r\n": 6733,
      "Berapa banyak ": 6734,
      "menyakit": 6735,
      "gembira.\r\n": 6736,
      "pemberian ": 6737,
      "lihat, ": 6738,
      "ni!\r\n": 6739,
      "aknya.\r\n": 6740,
      "ukaran ": 6741,
      "memec": 6742,
      "ingi ": 6743,
      "Saya nampak ": 6744,
      "ainy": 6745,
      "%s.\r\n": 6746,
      "Allah berfirman": 6747,
      "dengannya ": 6748,
      "Adakah itu ": 6749,
      "Saya tak pernah ": 6750,
      "kepadaku ": 6751,
      "hargai ": 6752,
      "7.\r\n": 6753,
      "Wan": 6754,
      "mil": 6755,
      "itt": 6756,
      "untuk awak.\r\n": 6757,
      "semangat ": 6758,
      "menyampaikan ": 6759,
      "; kemudian ": 6760,
      "Dia lah yang ": 6761,
      "kepada mereka): \"": 6762,
      "berbeza.\r\n": 6763,
      "merancang ": 6764,
      "iri-c": 6765,
      "F ": 6766,
      "ge": 6767,
      "laman ": 6768,
      "sent": 6769,
      "in!\r\n": 6770,
      "asal ": 6771,
      "tian ": 6772,
      "sekadar ": 6773,
      "Apa ini?\r\n": 6774,
      "semua orang.\r\n": 6775,
      "kenalan ": 6776,
      "melaksanakan ": 6777,
      "a. kgm\r\n": 6778,
      "wahai Muhammad": 6779,
      "cukup.\r\n": 6780,
      "halang ": 6781,
      "Saat ": 6782,
      "Melihat ": 6783,
      "Terima kasih kerana ": 6784,
      "istimewa ": 6785,
      "'t ": 6786,
      "HT": 6787,
      "mot": 6788,
      "yn": 6789,
      ", ini ": 6790,
      "yang baik ": 6791,
      "- Tapi ": 6792,
      "utk ": 6793,
      "membah": 6794,
      "acu ": 6795,
      "impakan ": 6796,
      "pertinya ": 6797,
      "latihan ": 6798,
      "Benda ": 6799,
      "Mesti ": 6800,
      "Sambungan ": 6801,
      "tukang ": 6802,
      "Mexic": 6803,
      "RA": 6804,
      "Sas": 6805,
      "suar": 6806,
      "item": 6807,
      "ik dan ": 6808,
      "semingg": 6809,
      "sebeg": 6810,
      "Dan orang-orang yang ": 6811,
      "sekiranya ": 6812,
      "Indi": 6813,
      "siang ": 6814,
      "awak...\r\n": 6815,
      "bina ": 6816,
      "penjah": 6817,
      "perempuan yang ": 6818,
      "rendah ": 6819,
      "fault ": 6820,
      "-type\r\n": 6821,
      "Warna\r\n": 6822,
      "Yahudi ": 6823,
      "Gaya ": 6824,
      "Hit": 6825,
      "Pilih": 6826,
      "mak.\r\n": 6827,
      "eks": 6828,
      "kepada kamu": 6829,
      "ang-binatang ": 6830,
      "Jika kita ": 6831,
      "sahab": 6832,
      "ill ": 6833,
      "laut ": 6834,
      "skrin ": 6835,
      "segala yang ada di ": 6836,
      "Lakukan ": 6837,
      "Canon ": 6838,
      "menyukai ": 6839,
      "peribadi ": 6840,
      "Tel": 6841,
      "ahan yang ": 6842,
      "inj": 6843,
      "ent ": 6844,
      "entang ": 6845,
      "Kita tak ": 6846,
      "etahui.\r\n": 6847,
      ".. ...": 6848,
      "menyertai ": 6849,
      "berfung": 6850,
      "neraka Jahan": 6851,
      "lampu ": 6852,
      "Willi": 6853,
      "merosakkan ": 6854,
      "Cat": 6855,
      "Kab": 6856,
      "an! ": 6857,
      "akah?\r\n": 6858,
      "amer": 6859,
      " dah": 6860,
      "mengikuti ": 6861,
      "kami ber": 6862,
      "jika aku ": 6863,
      "menja": 6864,
      "sendiri?\r\n": 6865,
      "Tetingkap ": 6866,
      "nanti, ": 6867,
      "Tengoklah ": 6868,
      "nikmat-": 6869,
      "kesenangan ": 6870,
      "log ": 6871,
      "perm": 6872,
      "Saya dapat ": 6873,
      "olej": 6874,
      "kamu nak ": 6875,
      "kanmu ": 6876,
      "mencab": 6877,
      "Nyah": 6878,
      "lakukan dengan ": 6879,
      "segalanya ": 6880,
      "Eddi": 6881,
      "Firaun ": 6882,
      "urniakan ": 6883,
      "-M": 6884,
      "cum": 6885,
      "iaan ": 6886,
      "lov": 6887,
      "ada orang ": 6888,
      "Saya sedang ": 6889,
      "Saya kena ": 6890,
      "dan men": 6891,
      "tidak tahu ": 6892,
      "di sebelah ": 6893,
      "awak perlu ": 6894,
      "Kami, ": 6895,
      "Kau sudah ": 6896,
      "Kami ada ": 6897,
      "Itu tak ": 6898,
      "datang untuk ": 6899,
      "kekuasaan": 6900,
      "bijak ": 6901,
      "kosong.\r\n": 6902,
      "serius.\r\n": 6903,
      "status ": 6904,
      "jejak ": 6905,
      "Eropah": 6906,
      "planet ": 6907,
      "Kemudian, ": 6908,
      "buk ": 6909,
      "ci": 6910,
      "e...\r\n": 6911,
      "naj": 6912,
      "erti ": 6913,
      "saya sudah ": 6914,
      "mengec": 6915,
      "ia di": 6916,
      "Alic": 6917,
      "perlukan.\r\n": 6918,
      "umpul ": 6919,
      "Kereta ": 6920,
      "maaf.\r\n": 6921,
      "memeriksa ": 6922,
      "kekunci\r\n": 6923,
      "bergantung ": 6924,
      "luar biasa.\r\n": 6925,
      "Serta ": 6926,
      "bodoh!\r\n": 6927,
      "kandung": 6928,
      "berdoa ": 6929,
      "macam": 6930,
      "Telah ": 6931,
      "XM": 6932,
      "kun": 6933,
      "ton.\r\n": 6934,
      "ikan\r\n": 6935,
      "tidak ter": 6936,
      "kamu tahu ": 6937,
      "datang": 6938,
      "disamb": 6939,
      "En.\r\n": 6940,
      "izin ": 6941,
      "Sekarang!\r\n": 6942,
      "budak.\r\n": 6943,
      "aftar ": 6944,
      "s-action\r\n": 6945,
      "u... ": 6946,
      "atan": 6947,
      "alis": 6948,
      "perang.\r\n": 6949,
      "masalah, ": 6950,
      "menyen": 6951,
      "Tuhanku, ": 6952,
      "bekerja untuk ": 6953,
      "berjumpa dengan ": 6954,
      "binatang-binatang ": 6955,
      "1.": 6956,
      "Dil": 6957,
      "Dew": 6958,
      "Ha": 6959,
      "Lar": 6960,
      "Vir": 6961,
      "nak?\r\n": 6962,
      "tangan.\r\n": 6963,
      "apa? ": 6964,
      "menang ": 6965,
      "esok ": 6966,
      "untuk membuat ": 6967,
      "kau ada ": 6968,
      "dia adalah ": 6969,
      "entuk ": 6970,
      "kita kena ": 6971,
      "pergerakan ": 6972,
      "yang terbaik.\r\n": 6973,
      "sama, ": 6974,
      "hitam ": 6975,
      "ke dalam": 6976,
      "Tal": 6977,
      "nil": 6978,
      "sedap": 6979,
      "adi ": 6980,
      "yang sama ": 6981,
      "ketakut": 6982,
      "permintaan ": 6983,
      "il, ": 6984,
      "antikan ": 6985,
      "dapat.\r\n": 6986,
      "biar": 6987,
      "Und": 6988,
      "Entah": 6989,
      "u-rag": 6990,
      "selesaik": 6991,
      "di sana, ": 6992,
      "telefon": 6993,
      "- Hell": 6994,
      "uz": 6995,
      "ather ": 6996,
      "pertemp": 6997,
      "tidak sah ": 6998,
      "menyokong ": 6999,
      "baik?\r\n": 7000,
      "datangi ": 7001,
      "keman": 7002,
      "sejauh ": 7003,
      "..., ": 7004,
      "tenggel": 7005,
      "telefon.\r\n": 7006,
      "daging ": 7007,
      "undur!\r\n": 7008,
      "melampaui ": 7009,
      "Den": 7010,
      "Ep": 7011,
      "Kali ": 7012,
      "Po": 7013,
      "akal ": 7014,
      "in-": 7015,
      "sepuluh ": 7016,
      "menang.\r\n": 7017,
      "kegel": 7018,
      "peral": 7019,
      "ar (": 7020,
      "dia yang ": 7021,
      "ke mana ": 7022,
      "Kami dah ": 7023,
      "perlindungan ": 7024,
      "omet": 7025,
      "tuan?\r\n": 7026,
      "segalanya.\r\n": 7027,
      "terbak": 7028,
      "Ambil": 7029,
      "Cukup ": 7030,
      "Wow.\r\n": 7031,
      "sebaik-baik": 7032,
      "kuda ": 7033,
      "11 ": 7034,
      "Gab": 7035,
      "Mur": 7036,
      "Simp": 7037,
      "ata": 7038,
      "amo": 7039,
      "berit": 7040,
      "bertahan ": 7041,
      "perju": 7042,
      "dan dia ": 7043,
      "sesat ": 7044,
      "lah\r\n": 7045,
      "bersih": 7046,
      "nampaknya ": 7047,
      "Kalau awak ": 7048,
      "penyakit ": 7049,
      "dokumen": 7050,
      "Hari ini ": 7051,
      "lemah ": 7052,
      "kufur": 7053,
      "kaitan dengan ": 7054,
      ")}": 7055,
      "Jas": 7056,
      "bus": 7057,
      "ie ": 7058,
      "mahu": 7059,
      "renc": 7060,
      "atutnya ": 7061,
      "semen": 7062,
      "Saya ingat ": 7063,
      "Aku juga ": 7064,
      "Dia sudah ": 7065,
      "jalan-": 7066,
      "dengarkan ": 7067,
      "keluar!\r\n": 7068,
      "menghas": 7069,
      "kecew": 7070,
      "isteri-": 7071,
      "krip": 7072,
      "tugas": 7073,
      "sport ": 7074,
      "habis ": 7075,
      "ight ": 7076,
      "Hidup ": 7077,
      "limpah kurnia ": 7078,
      "impunkan ": 7079,
      "Tuj": 7080,
      "fil ": 7081,
      "juj": 7082,
      "o-": 7083,
      "tambah ": 7084,
      "endak": 7085,
      "menukar ": 7086,
      "berakhir": 7087,
      "kesemp": 7088,
      "dia di ": 7089,
      "Dan sekarang ": 7090,
      "Awak tahu, ": 7091,
      "doktor ": 7092,
      "bijak.\r\n": 7093,
      "piaw": 7094,
      "David": 7095,
      "sekolah.\r\n": 7096,
      "Gadis ": 7097,
      "Oper": 7098,
      "lic": 7099,
      "ahi ": 7100,
      "aga-": 7101,
      "uruhan ": 7102,
      "Kami meng": 7103,
      "datang!\r\n": 7104,
      "ukan?\r\n": 7105,
      "pelac": 7106,
      "sedang mereka ": 7107,
      "peta ": 7108,
      "Selamat datang ke ": 7109,
      "penjar": 7110,
      "- Ya ": 7111,
      "kufur ingkar ": 7112,
      "Lebar ": 7113,
      "DN": 7114,
      "Detek": 7115,
      "Ulang": 7116,
      "Vi": 7117,
      "kay": 7118,
      "uang": 7119,
      "berubah ": 7120,
      "di bumi ": 7121,
      "Angel": 7122,
      "cara untuk ": 7123,
      "op ": 7124,
      "put\r\n": 7125,
      "langit dan bumi ": 7126,
      "bertenang.\r\n": 7127,
      "rindukan ": 7128,
      "Naik": 7129,
      "U ": 7130,
      "h?\r\n": 7131,
      "ad.\r\n": 7132,
      "di muka ": 7133,
      "ok\r\n": 7134,
      "menyempurn": 7135,
      "apa yang aku ": 7136,
      "Anda telah ": 7137,
      "Tak boleh ": 7138,
      "menghendak": 7139,
      "pakej ": 7140,
      "Kev": 7141,
      "ai. ": 7142,
      "yakin": 7143,
      "lapangan ": 7144,
      "sekali lagi.\r\n": 7145,
      "ragu-rag": 7146,
      "ampunkan ": 7147,
      "bunga ": 7148,
      "'?\r\n": 7149,
      "Memu": 7150,
      "Whit": 7151,
      "ba ": 7152,
      "pukul": 7153,
      "wat": 7154,
      "menaw": 7155,
      "key": 7156,
      "ihar": 7157,
      "Kita sudah ": 7158,
      "Ini ialah ": 7159,
      "tentu, ": 7160,
      "ditetapkan ": 7161,
      "lain?\r\n": 7162,
      "Kenapa kamu ": 7163,
      "untuk menerima ": 7164,
      "Katakanlah: \"": 7165,
      "untuk dit": 7166,
      "Keluarga ": 7167,
      "muncul ": 7168,
      "sekejap.\r\n": 7169,
      "membawanya ": 7170,
      "apos; t ": 7171,
      "Sistem ": 7172,
      ")!\r\n": 7173,
      "Val": 7174,
      "atuhkan ": 7175,
      "- C": 7176,
      "a, saya ": 7177,
      "ut dan ": 7178,
      "udar": 7179,
      "Peris": 7180,
      "serahkan ": 7181,
      "Ya, tapi ": 7182,
      "pemain ": 7183,
      "pasti akan ": 7184,
      "perempuan.\r\n": 7185,
      "bergerak!\r\n": 7186,
      "azab seksa ": 7187,
      "menikmati ": 7188,
      "2, ": 7189,
      "Mil": 7190,
      "Panggil ": 7191,
      "RO": 7192,
      "a\"\r\n": 7193,
      "mut": 7194,
      "erta ": 7195,
      "merah ": 7196,
      "dan tidak ": 7197,
      "Peremp": 7198,
      "Kamu ada ": 7199,
      "ku\r\n": 7200,
      "lalai ": 7201,
      "tetamu ": 7202,
      "Jika saya ": 7203,
      "tiap-tiap sesuatu.\r\n": 7204,
      "yang lain dari ": 7205,
      "penuh dengan ": 7206,
      "Datuk ": 7207,
      "mengakui ": 7208,
      ") dalam ": 7209,
      "Dani": 7210,
      "EM": 7211,
      "GP": 7212,
      "Mud": 7213,
      "Suci ": 7214,
      "cal": 7215,
      "an..\r\n": 7216,
      "ahir": 7217,
      "aplah ": 7218,
      "pengaw": 7219,
      "Adakah kau ": 7220,
      "sejen": 7221,
      "akan beritahu ": 7222,
      "baginya ": 7223,
      "klik ": 7224,
      "pengikut-": 7225,
      "0\r\n": 7226,
      "Franc": 7227,
      "Te": 7228,
      "ham": 7229,
      "jamb": 7230,
      "kahwin": 7231,
      "ati.\r\n": 7232,
      "- Baiklah, ": 7233,
      "ayah?\r\n": 7234,
      "memakan ": 7235,
      "etak": 7236,
      "utusan ": 7237,
      "mengel": 7238,
      "anda perlu ": 7239,
      "Apa kata ": 7240,
      "Mereka menjawab: \"": 7241,
      "angannya ": 7242,
      "Tiada siapa ": 7243,
      "mark": 7244,
      "tinggal, ": 7245,
      "ompat ": 7246,
      "makhluk": 7247,
      "Semua\r\n": 7248,
      "bersama-sama.\r\n": 7249,
      "bertaub": 7250,
      "menyembunyikan ": 7251,
      "Teks ": 7252,
      "hendaklah kamu ": 7253,
      "memelihara ": 7254,
      "Dig": 7255,
      "Gil": 7256,
      "Para ": 7257,
      "Reg": 7258,
      "cipt": 7259,
      "pek ": 7260,
      "rend": 7261,
      "vir": 7262,
      "- Ken": 7263,
      "abl": 7264,
      "lah kamu ": 7265,
      "Dan kau ": 7266,
      "penuhi ": 7267,
      "penghormat": 7268,
      "mencub": 7269,
      "Chin": 7270,
      "kira-kira ": 7271,
      "memberitahu anda ": 7272,
      "menakut": 7273,
      "Tentera ": 7274,
      "Orang-orang yang ": 7275,
      "--\r\n": 7276,
      "sand": 7277,
      "ul.\r\n": 7278,
      "mengawal ": 7279,
      "untuk kamu ": 7280,
      "Alat ": 7281,
      "baiklah.\r\n": 7282,
      "buat dengan ": 7283,
      "manfa": 7284,
      "sesiapa.\r\n": 7285,
      "puan.\r\n": 7286,
      "Kepada ": 7287,
      "risa": 7288,
      "sukar": 7289,
      "cepat, ": 7290,
      "taat ": 7291,
      "jelas.\r\n": 7292,
      "cinta.\r\n": 7293,
      "(akan ": 7294,
      "Sn": 7295,
      "mit": 7296,
      "sara ": 7297,
      "suc": 7298,
      "ahirkan ": 7299,
      "ap?\r\n": 7300,
      "Dia bukan ": 7301,
      "diri": 7302,
      "padaku ": 7303,
      "juga?\r\n": 7304,
      "masih belum ": 7305,
      "berapa lama ": 7306,
      "berada di sini.\r\n": 7307,
      "teks\r\n": 7308,
      "Tentang ": 7309,
      "ahli sihir ": 7310,
      "Tinggalkan ": 7311,
      "menakutkan ": 7312,
      "pahala ": 7313,
      "cuba.\r\n": 7314,
      "kerosakan ": 7315,
      "tunduk ": 7316,
      "(Setelah ": 7317,
      "Ph": 7318,
      "Tab": 7319,
      "aian": 7320,
      "hair": 7321,
      "kolej": 7322,
      "er?\r\n": 7323,
      "mencer": 7324,
      "ohong ": 7325,
      "kata laluan ": 7326,
      "semua!\r\n": 7327,
      "sesiapapun ": 7328,
      "mereka; dan ": 7329,
      "ibu bapa ": 7330,
      "Isra": 7331,
      "tidak dapat di": 7332,
      "all ": 7333,
      "pintasan ": 7334,
      "aniaya ": 7335,
      "Dia lah jua ": 7336,
      "tulang ": 7337,
      "] [": 7338,
      "imej\r\n": 7339,
      "jiw": 7340,
      "azab seksa yang tidak ": 7341,
      "Bol": 7342,
      "UT": 7343,
      "Web": 7344,
      "a: ": 7345,
      "kor": 7346,
      "pangkalan ": 7347,
      "re ": 7348,
      "sit": 7349,
      "kehormat": 7350,
      "membersihkan ": 7351,
      "aku sudah ": 7352,
      "sayang, ": 7353,
      "pengurus ": 7354,
      "bagi mereka ": 7355,
      "Jangan bimb": 7356,
      "Apa yang saya ": 7357,
      "indahan ": 7358,
      "Adakah ini ": 7359,
      "berkata, ": 7360,
      "Baru ": 7361,
      "berlaku, ": 7362,
      "lakukannya ": 7363,
      "budak-": 7364,
      "menentukan ": 7365,
      "rakyat ": 7366,
      "amal-amal ": 7367,
      "amount ": 7368,
      "Ral": 7369,
      "bunuh.\r\n": 7370,
      "enda ": 7371,
      "ator ": 7372,
      "al dari ": 7373,
      "as di ": 7374,
      "ikan, ": 7375,
      "yang jelas ": 7376,
      "awasi ": 7377,
      "nyany": 7378,
      "aiki ": 7379,
      "Apa, ": 7380,
      "seks": 7381,
      "lalu mereka ": 7382,
      "tidakkah ": 7383,
      "izin": 7384,
      "\"%s\"\r\n": 7385,
      "John.\r\n": 7386,
      "Mr ": 7387,
      "Lagi": 7388,
      "Hak": 7389,
      "Mi": 7390,
      "a; ": 7391,
      "cit": 7392,
      "d\r\n": 7393,
      "deb": 7394,
      "temui ": 7395,
      "ek-": 7396,
      "ilah!\r\n": 7397,
      " dun": 7398,
      " dol": 7399,
      "et, ": 7400,
      "mengad": 7401,
      "abaikan ": 7402,
      "Awak nampak ": 7403,
      "siapkan ": 7404,
      "satu lagi ": 7405,
      "orang-orang yang ber": 7406,
      "pelanc": 7407,
      "Penges": 7408,
      "syir": 7409,
      "rasa, ": 7410,
      "dihantar ": 7411,
      "tiba.\r\n": 7412,
      "wajib": 7413,
      "pertandingan ": 7414,
      "mal ": 7415,
      "off": 7416,
      "wang.\r\n": 7417,
      "aksan": 7418,
      "ahnya.\r\n": 7419,
      "enarkan ": 7420,
      "al dan ": 7421,
      "menemu": 7422,
      "diam ": 7423,
      "tion ": 7424,
      "ternak ": 7425,
      "untuk ke": 7426,
      "untuk melakukan ": 7427,
      "Aku suka ": 7428,
      "in unit": 7429,
      "bender": 7430,
      "Ia tidak ": 7431,
      "tempat": 7432,
      "keluar, ": 7433,
      "masa depan ": 7434,
      "tua.\r\n": 7435,
      "Pengurus ": 7436,
      "ibadat ": 7437,
      "membunuhnya.\r\n": 7438,
      "tidak disokong": 7439,
      "translat": 7440,
      "setengahnya ": 7441,
      "in units (": 7442,
      "24 ": 7443,
      "Fil": 7444,
      "Lima ": 7445,
      "Turun": 7446,
      "f.\r\n": 7447,
      "kaya ": 7448,
      "met": 7449,
      "sedih": 7450,
      "ukum ": 7451,
      " de": 7452,
      "ung?\r\n": 7453,
      "dengan saya.\r\n": 7454,
      "sudut ": 7455,
      "edd": 7456,
      "langsung": 7457,
      "mahkam": 7458,
      "(wahai Muhammad), ": 7459,
      "Jener": 7460,
      "keduanya ": 7461,
      "garis ": 7462,
      "estin": 7463,
      "terlambat.\r\n": 7464,
      "DI": 7465,
      "Ur": 7466,
      "_L": 7467,
      "`%s": 7468,
      "c ": 7469,
      "ey": 7470,
      "lat ": 7471,
      "n, ": 7472,
      "t, ": 7473,
      "apa": 7474,
      "saya tak boleh ": 7475,
      ") maka ": 7476,
      "menyentuh ": 7477,
      "pengger": 7478,
      "ukannya ": 7479,
      "memberitah": 7480,
      "akan berj": 7481,
      "Kalend": 7482,
      "carian ": 7483,
      "lari.\r\n": 7484,
      "tanggung": 7485,
      "Satu-satunya ": 7486,
      "Sedang ": 7487,
      "Sedik": 7488,
      "Duduk": 7489,
      "tidak diketahui\r\n": 7490,
      "Pengampun, lagi Maha Mengasihani.\r\n": 7491,
      "amount in units (": 7492,
      "D\r\n": 7493,
      "Dor": 7494,
      "PN": 7495,
      "luka ": 7496,
      "rel": 7497,
      "ym": 7498,
      "akibat ": 7499,
      "semem": 7500,
      "ay.\r\n": 7501,
      "Dia boleh ": 7502,
      "Pertam": 7503,
      "Ini dia.\r\n": 7504,
      "datang?\r\n": 7505,
      "Mary": 7506,
      "wanita.\r\n": 7507,
      "Adakah anda pasti ": 7508,
      "Benarkan ": 7509,
      "Canada\r\n": 7510,
      "Gener": 7511,
      "Hapuskan ": 7512,
      "Ol": 7513,
      "aim": 7514,
      "anak, ": 7515,
      "angkan": 7516,
      "indi": 7517,
      "ek.\r\n": 7518,
      "mereka boleh ": 7519,
      "Aku sedang ": 7520,
      "kalend": 7521,
      "Perlah": 7522,
      "baru, ": 7523,
      "Saya tak mahu ": 7524,
      "Bagaimana kalau ": 7525,
      "Tiada siapa yang ": 7526,
      "risau ": 7527,
      "maaf ": 7528,
      "anya, dan ": 7529,
      "Sentiasa ": 7530,
      "Angg": 7531,
      "Sepatutnya ": 7532,
      "usnahkan ": 7533,
      "menyaksikan ": 7534,
      "kesempatan ": 7535,
      "C\r\n": 7536,
      "Iz": 7537,
      "lid": 7538,
      "lm ": 7539,
      "menolong": 7540,
      "menimpa ": 7541,
      "dia. ": 7542,
      "ih\r\n": 7543,
      "mereka tak ": 7544,
      "mereka dapat ": 7545,
      "membalas": 7546,
      "Kami tak ": 7547,
      "Anj": 7548,
      "Allah telah ": 7549,
      "barang-": 7550,
      "impian ": 7551,
      "pelajar": 7552,
      "Sekej": 7553,
      "sampah ": 7554,
      "hebat, ": 7555,
      "terlalu banyak ": 7556,
      "berkahw": 7557,
      "nanti": 7558,
      "Robert": 7559,
      "Beritahu saya ": 7560,
      "filem": 7561,
      "perempuan-": 7562,
      "seterusnya ": 7563,
      "mematuhi ": 7564,
      "-8": 7565,
      "Lang": 7566,
      "cik.\r\n": 7567,
      "huh?\r\n": 7568,
      "sid": 7569,
      "ikhl": 7570,
      "ilang ": 7571,
      " dad": 7572,
      "utup.\r\n": 7573,
      "menghidupkan ": 7574,
      "mengharapkan ": 7575,
      "perlihatkan ": 7576,
      "lagi. ": 7577,
      "Tak guna.\r\n": 7578,
      "Tolonglah ": 7579,
      "hingga ke ": 7580,
      "mempertahankan ": 7581,
      "apa yang mereka telah ": 7582,
      "kemudian.\r\n": 7583,
      "sebaik-baik ": 7584,
      "memasuki ": 7585,
      "pura-pura ": 7586,
      "Jum": 7587,
      "gha": 7588,
      "lindungi ": 7589,
      "not ": 7590,
      "tas": 7591,
      "udi": 7592,
      "web": 7593,
      "bertahun-": 7594,
      "aku dan ": 7595,
      "Aku takkan ": 7596,
      "empatkan ": 7597,
      "dakw": 7598,
      "kerana saya ": 7599,
      "ancarkan ": 7600,
      "Unit ": 7601,
      "sendiri\r\n": 7602,
      "satu, ": 7603,
      "Adakah anda ingin ": 7604,
      "berkata kepada ": 7605,
      "bertaqwa ": 7606,
      "pistol": 7607,
      "penerbangan ": 7608,
      "Fre": 7609,
      "Sand": 7610,
      "ramb": 7611,
      "- ...": 7612,
      "mempercayai ": 7613,
      "pada jalan ": 7614,
      "dengan sebab ": 7615,
      "ajar.\r\n": 7616,
      "Anda pasti ": 7617,
      "pelbagai ": 7618,
      "apa-apa yang ": 7619,
      "- Bukan ": 7620,
      "engkau (wahai Muhammad) ": 7621,
      "khus": 7622,
      "mengenal": 7623,
      "kaki.\r\n": 7624,
      "nafas.\r\n": 7625,
      "bicar": 7626,
      "sia-si": 7627,
      "a_": 7628,
      "hawa ": 7629,
      "diberikan ": 7630,
      "tiada.\r\n": 7631,
      "ulkan ": 7632,
      "pada malam ": 7633,
      "untuk saya.\r\n": 7634,
      "melap": 7635,
      "kepada mereka.\r\n": 7636,
      "hanya untuk ": 7637,
      "izz": 7638,
      "Keadaan ": 7639,
      "tidak boleh di": 7640,
      "Fail": 7641,
      "panel ": 7642,
      "bangun.\r\n": 7643,
      "menjawab ": 7644,
      "Bukan, ": 7645,
      "yarak": 7646,
      "Tugas ": 7647,
      "kawan-kawan ": 7648,
      "sokongan ": 7649,
      "Eropah/": 7650,
      "azab seksa yang tidak terperi sakit": 7651,
      ".\" ": 7652,
      "Tund": 7653,
      "be ": 7654,
      "mu\r\n": 7655,
      "sini\r\n": 7656,
      "tub": 7657,
      "tarik": 7658,
      "ender": 7659,
      "ketingg": 7660,
      "akan ada ": 7661,
      "andakan ": 7662,
      "Aku sangat ": 7663,
      "sebur": 7664,
      "masa, ": 7665,
      "egor": 7666,
      "kami tidak ": 7667,
      "Mereka tidak ": 7668,
      "Adakah dia ": 7669,
      "faham, ": 7670,
      "cerob": 7671,
      "- Sudah ": 7672,
      "Maksudku, ": 7673,
      "Kekunci\r\n": 7674,
      "mana-mana.\r\n": 7675,
      "posisi ": 7676,
      ") di ": 7677,
      "hutan ": 7678,
      "nomb": 7679,
      "sujud": 7680,
      "tinya ": 7681,
      ", kamu ": 7682,
      "asah ": 7683,
      "ikop": 7684,
      "- Apakah ": 7685,
      "Saya mendapat ": 7686,
      "melep": 7687,
      "Awak kena ": 7688,
      "hidmat ": 7689,
      "Ia bukan ": 7690,
      "Nya) ": 7691,
      "aian.\r\n": 7692,
      "bakar ": 7693,
      "berbic": 7694,
      "Suatu ": 7695,
      "peduli.\r\n": 7696,
      "'%s': %s\r\n": 7697,
      "nikmat-nikmat ": 7698,
      "Av": 7699,
      "Law": 7700,
      "x\r\n": 7701,
      "anmu.\r\n": 7702,
      "ar. ": 7703,
      ", tetapi ": 7704,
      "menguasai ": 7705,
      "untuk mereka ": 7706,
      "ke bawah.\r\n": 7707,
      "ace ": 7708,
      "penduduk": 7709,
      "matikan ": 7710,
      "lebih suka ": 7711,
      "kita\r\n": 7712,
      "an-lah": 7713,
      "jawap": 7714,
      "lewat ": 7715,
      "hidmatan ": 7716,
      "sementar": 7717,
      "$ ": 7718,
      "%(": 7719,
      "Ac": 7720,
      "Pak ": 7721,
      "a; dan ": 7722,
      "saya fikir ": 7723,
      "umum": 7724,
      "menggun": 7725,
      "ir di ": 7726,
      "tahu!\r\n": 7727,
      "upah ": 7728,
      "Apa khabar?\r\n": 7729,
      "tahu di mana ": 7730,
      "Anda tahu, ": 7731,
      "diri mereka ": 7732,
      "Okey?\r\n": 7733,
      "menerim": 7734,
      "bekerja dengan ": 7735,
      "sikit.\r\n": 7736,
      "digunakan untuk ": 7737,
      "Oliver ": 7738,
      "walau ": 7739,
      "Bar ": 7740,
      "Gro": 7741,
      "Lu": 7742,
      "Ruang ": 7743,
      "_P": 7744,
      "ded": 7745,
      "taj": 7746,
      "menari ": 7747,
      "ulah, ": 7748,
      "ini di ": 7749,
      "Dan awak ": 7750,
      "anda ber": 7751,
      "kepada Tuhan ": 7752,
      "pergi dengan ": 7753,
      "Marilah ": 7754,
      "temu ": 7755,
      "niat ": 7756,
      "banding ": 7757,
      "dulu, ": 7758,
      "Mulakan ": 7759,
      "kosong\r\n": 7760,
      "tambahan ": 7761,
      "kepercayaan ": 7762,
      "15": 7763,
      "Hal ": 7764,
      "Jack ": 7765,
      "Phil": 7766,
      "Tangkap ": 7767,
      "d, ": 7768,
      "ey.\r\n": 7769,
      "kn": 7770,
      "rom": 7771,
      "ana.\r\n": 7772,
      "an\".\r\n": 7773,
      "tis": 7774,
      "semalam": 7775,
      "Aku bukan ": 7776,
      "awak untuk ": 7777,
      "anda adalah ": 7778,
      "pender": 7779,
      "apa yang telah di": 7780,
      "akan berlaku ": 7781,
      "uck ": 7782,
      "lelaki, ": 7783,
      "Tetap ": 7784,
      "tolong.\r\n": 7785,
      "hormat ": 7786,
      "segera.\r\n": 7787,
      " dapatkan ": 7788,
      "Janganlah kamu ": 7789,
      "Om": 7790,
      "Ow": 7791,
      "hapuskan ": 7792,
      "akan tetapi ": 7793,
      "ada di sini.\r\n": 7794,
      "isan\r\n": 7795,
      "anda. ": 7796,
      "a-bila ": 7797,
      "membolehkan ": 7798,
      "Kau tak boleh ": 7799,
      "katakan, ": 7800,
      "siap.\r\n": 7801,
      "sekarang\r\n": 7802,
      "tempat tinggal ": 7803,
      "eck": 7804,
      "disini?\r\n": 7805,
      "bawakan ": 7806,
      "dahsy": 7807,
      "Austral": 7808,
      "\" dan ": 7809,
      "A.": 7810,
      "Air ": 7811,
      "Gamb": 7812,
      "sumpah ": 7813,
      "tp": 7814,
      "atur ": 7815,
      "ak dan ": 7816,
      "mengek": 7817,
      "mereka berkata: \"": 7818,
      "kau sudah ": 7819,
      "sayang": 7820,
      "anyaan ": 7821,
      "Awak": 7822,
      "Sekurang-kurangnya ": 7823,
      "Ada orang ": 7824,
      "disimpan ": 7825,
      "apabila ia ": 7826,
      "Namanya ": 7827,
      "terhadap": 7828,
      "percaya pada ": 7829,
      "biarkan dia ": 7830,
      "pejab": 7831,
      "sebentar.\r\n": 7832,
      "segala-galanya.\r\n": 7833,
      "Pertama ": 7834,
      "Direktor": 7835,
      "Cara ": 7836,
      "Vide": 7837,
      "ramp": 7838,
      "sini": 7839,
      "en?\r\n": 7840,
      "merind": 7841,
      "Saya pasti ": 7842,
      "itu dari ": 7843,
      "membay": 7844,
      "kaulah ": 7845,
      "Ayo ": 7846,
      "datang kepada mereka ": 7847,
      "? - ": 7848,
      "Semak ": 7849,
      "akan berlak": 7850,
      "takkan dapat ": 7851,
      "ow.\r\n": 7852,
      "- Saya tidak ": 7853,
      "main-main": 7854,
      "Aku tak tahu ": 7855,
      "muda.\r\n": 7856,
      "kecil, ": 7857,
      "rosak.\r\n": 7858,
      "blok ": 7859,
      "Tepat ": 7860,
      "bangkitkan ": 7861,
      "kemalangan ": 7862,
      "kosong ": 7863,
      "Islam ": 7864,
      "EL": 7865,
      "Gol": 7866,
      "Mahu ": 7867,
      "Ya": 7868,
      "b ": 7869,
      "gab": 7870,
      "i! ": 7871,
      "ung!\r\n": 7872,
      "datangnya ": 7873,
      "kuas": 7874,
      "nya... ": 7875,
      "belum": 7876,
      "pemilihan ": 7877,
      "berada di sini ": 7878,
      "penjel": 7879,
      "dahulu": 7880,
      "tepi ": 7881,
      "aku...\r\n": 7882,
      "silap ": 7883,
      "dosa-": 7884,
      "gener": 7885,
      "Fin": 7886,
      "Mata ": 7887,
      "Tamp": 7888,
      "Tanda ": 7889,
      "cuc": 7890,
      "iat ": 7891,
      "mu!\r\n": 7892,
      "ar dengan ": 7893,
      "intip": 7894,
      "itulah.\r\n": 7895,
      "ing dan ": 7896,
      "saya masih ": 7897,
      "Saya masih ": 7898,
      "untuk membunuh ": 7899,
      "ud ": 7900,
      "selagi ": 7901,
      "dirimu ": 7902,
      "kalahkan ": 7903,
      "bersungguh": 7904,
      "ah, dan ": 7905,
      "Apa yang terjadi ": 7906,
      "Tak mengapa.\r\n": 7907,
      "syar": 7908,
      "beriman.\r\n": 7909,
      "stab": 7910,
      "Nya).\r\n": 7911,
      "topeng": 7912,
      "tapak ": 7913,
      "kekufur": 7914,
      "bangun ": 7915,
      "menyempurnakan ": 7916,
      "I.\r\n": 7917,
      "Ped": 7918,
      "SS": 7919,
      "Set ": 7920,
      "gur": 7921,
      "ha ": 7922,
      "iy": 7923,
      "akib": 7924,
      "secepat ": 7925,
      "- Di mana ": 7926,
      "isah ": 7927,
      "Saya tidak akan ": 7928,
      "pada saat ": 7929,
      "semalam.\r\n": 7930,
      "sebaik ": 7931,
      "ajarkan ": 7932,
      "kita sudah ": 7933,
      "Dia sangat ": 7934,
      "kerusi ": 7935,
      "dengan) ": 7936,
      "saja!\r\n": 7937,
      "akan. ": 7938,
      "menghormati ": 7939,
      "...!\r\n": 7940,
      "Arah ": 7941,
      "itulah orang-orang yang ": 7942,
      "Maafkan aku.\r\n": 7943,
      "biasanya ": 7944,
      "Dokumen": 7945,
      "memaham": 7946,
      "output ": 7947,
      "kurnia": 7948,
      "sekeliling ": 7949,
      "haiwan ": 7950,
      "Bani ": 7951,
      "Kore": 7952,
      "Tn. ": 7953,
      "s. ": 7954,
      "tau ": 7955,
      "at...\r\n": 7956,
      "alnya ": 7957,
      "seorang": 7958,
      "ber ": 7959,
      "berakhir.\r\n": 7960,
      "org ": 7961,
      "mereb": 7962,
      "es?\r\n": 7963,
      "es. kgm\r\n": 7964,
      "kamu adalah ": 7965,
      "ongk": 7966,
      "senap": 7967,
      "Berl": 7968,
      "Tapi awak ": 7969,
      "ung ke ": 7970,
      "diri sendiri.\r\n": 7971,
      "menjer": 7972,
      "awak\r\n": 7973,
      "- Bi": 7974,
      "keadil": 7975,
      "Mungkin dia ": 7976,
      "duduk.\r\n": 7977,
      "ingatlah ": 7978,
      "jawapan ": 7979,
      "lebih.\r\n": 7980,
      "rekod ": 7981,
      "pemerintah": 7982,
      "hati-hati.\r\n": 7983,
      "4.\r\n": 7984,
      "Jon": 7985,
      "guru ": 7986,
      "lim": 7987,
      "rif": 7988,
      "amakan ": 7989,
      "asy": 7990,
      "dibenarkan ": 7991,
      "- Mari ": 7992,
      "- Untuk ": 7993,
      "ing di ": 7994,
      "itu yang ": 7995,
      "baiknya ": 7996,
      "ain.\r\n": 7997,
      "bersih ": 7998,
      "integ": 7999,
      "sejah": 8000,
      "puter": 8001,
      "Shaw": 8002,
      "ijau ": 8003,
      "memasukkan ": 8004,
      "lemah.\r\n": 8005,
      "seterusnya.\r\n": 8006,
      "tapi...\r\n": 8007,
      "mewujudkan ": 8008,
      "lagi: \"": 8009,
      "dipaparkan ": 8010,
      "memadam ": 8011,
      "Kosongkan ": 8012,
      "Wayn": 8013,
      "(tidak ": 8014,
      "25": 8015,
      "DV": 8016,
      "Zo": 8017,
      "bang ": 8018,
      "n\r\n": 8019,
      "aturan ": 8020,
      "kamer": 8021,
      "ay\r\n": 8022,
      "termasuk ": 8023,
      "a, United States\r\n": 8024,
      "pada saya ": 8025,
      "dirinya.\r\n": 8026,
      "nak buat ": 8027,
      "serang ": 8028,
      "oba ": 8029,
      "belakang\r\n": 8030,
      "diluar ": 8031,
      "- Ya. ": 8032,
      "ick.\r\n": 8033,
      "eritakan ": 8034,
      "keberan": 8035,
      "menakjubkan.\r\n": 8036,
      "kegemaran ": 8037,
      "Keg": 8038,
      "Lab": 8039,
      "MI": 8040,
      "Mula ": 8041,
      "Temb": 8042,
      "ban": 8043,
      "dend": 8044,
      "lint": 8045,
      "sor ": 8046,
      "aki ": 8047,
      "ikut.\r\n": 8048,
      "akan ter": 8049,
      "meren": 8050,
      "ident": 8051,
      "sesi ": 8052,
      "jadual ": 8053,
      "memburu ": 8054,
      "pendek": 8055,
      "sion": 8056,
      "Mereka tak ": 8057,
      "Ayo, ": 8058,
      "hatikan ": 8059,
      "00.\r\n": 8060,
      "Yang demikian ": 8061,
      "Kalau begitu ": 8062,
      "pesanan ": 8063,
      "- Ya?\r\n": 8064,
      "bebas ": 8065,
      "ganis": 8066,
      "tersebut.\r\n": 8067,
      "sengaja ": 8068,
      "selama-lamanya.\r\n": 8069,
      "Kolon": 8070,
      "kemampuan ": 8071,
      "keseluruhan ": 8072,
      "%l": 8073,
      "1, ": 8074,
      "4\r\n": 8075,
      "60": 8076,
      "Aka": 8077,
      "Ra": 8078,
      "min ": 8079,
      "me ": 8080,
      "pop": 8081,
      "pautan ": 8082,
      "ta.\r\n": 8083,
      "kekasih ": 8084,
      "ada banyak ": 8085,
      "ada sesuatu yang ": 8086,
      " dr": 8087,
      "apa jua ": 8088,
      "Dia hanya ": 8089,
      "laksan": 8090,
      "gunung-": 8091,
      "Anda tidak boleh ": 8092,
      "pelajar ": 8093,
      "Ada apa?\r\n": 8094,
      "ect": 8095,
      "bumi.\r\n": 8096,
      "fikirkan.\r\n": 8097,
      "Boleh awak ": 8098,
      "Carol": 8099,
      "Manusia ": 8100,
      "bacakan ": 8101,
      "Folder\r\n": 8102,
      "aktifkan ": 8103,
      "bersikap ": 8104,
      "pengikut-pengikut": 8105,
      "\"S": 8106,
      "Beb": 8107,
      "Dip": 8108,
      "Jak": 8109,
      "bir ": 8110,
      "hod": 8111,
      "hutang ": 8112,
      "sump": 8113,
      "aran yang ": 8114,
      "ine": 8115,
      "yang demikian) ": 8116,
      "us-": 8117,
      "dia sudah ": 8118,
      "Dia seorang ": 8119,
      "pengepala ": 8120,
      "pemas": 8121,
      "tenang.\r\n": 8122,
      "izinan ": 8123,
      "kerjakan.\r\n": 8124,
      "mulakan.\r\n": 8125,
      "mesej\r\n": 8126,
      "Sudah tentu.\r\n": 8127,
      "habisan ": 8128,
      "balasan yang ": 8129,
      "Dari mana ": 8130,
      "juru": 8131,
      "Celaka!\r\n": 8132,
      "sememangnya ": 8133,
      "cetak ": 8134,
      "gam": 8135,
      "ak. ": 8136,
      "ingan.\r\n": 8137,
      "tahu. ": 8138,
      "ke rumah ": 8139,
      "Alihkan ": 8140,
      "jadi.\r\n": 8141,
      "sekurang-kurangnya ": 8142,
      "kepada Allah": 8143,
      "Allah sentiasa ": 8144,
      "lebih ber": 8145,
      "jika betul ": 8146,
      "kecemas": 8147,
      "Diam.\r\n": 8148,
      "ave ": 8149,
      "pesan ": 8150,
      "tekan ": 8151,
      "lihat?\r\n": 8152,
      "Cakap ": 8153,
      "khianati ": 8154,
      "Nabi Ibrahim ": 8155,
      "punggung ": 8156,
      "40 ": 8157,
      "Dib": 8158,
      "Tarik": 8159,
      "cok": 8160,
      "l.\r\n": 8161,
      "rac": 8162,
      "rakan-": 8163,
      "y dan ": 8164,
      "menamb": 8165,
      "yang sama.\r\n": 8166,
      "kehendak ": 8167,
      "awanan ": 8168,
      "saya ingin ": 8169,
      "aku telah ": 8170,
      "kanan.\r\n": 8171,
      "telah dik": 8172,
      "pergi\r\n": 8173,
      "nya,\r\n": 8174,
      "patung ": 8175,
      ".. .. ": 8176,
      "namanya ": 8177,
      "endal": 8178,
      "panas.\r\n": 8179,
      "audi": 8180,
      "sempurna ": 8181,
      "membuatnya ": 8182,
      "mengatakan": 8183,
      "Faham?\r\n": 8184,
      "masuk akal.\r\n": 8185,
      "25 ": 8186,
      "Bir": 8187,
      "bon": 8188,
      "bom": 8189,
      "ukur": 8190,
      "uk dan ": 8191,
      "el?\r\n": 8192,
      "perbez": 8193,
      "kita dapat ": 8194,
      "diri?\r\n": 8195,
      "umpuhkan ": 8196,
      "seperti itu ": 8197,
      "gunung ": 8198,
      "Baiklah ": 8199,
      "Yang Mul": 8200,
      "manusi": 8201,
      "ch.\r\n": 8202,
      "Nya dan ": 8203,
      "masalah dengan ": 8204,
      "spek": 8205,
      "Akulah ": 8206,
      "sihir": 8207,
      "tuhan.\r\n": 8208,
      "kemudian, ": 8209,
      "Akhirnya ": 8210,
      "membinasakan ": 8211,
      "Nen": 8212,
      "Pent": 8213,
      "Tembak ": 8214,
      "au?\r\n": 8215,
      "a)\r\n": 8216,
      "ve ": 8217,
      "anaknya ": 8218,
      "alik ": 8219,
      "add": 8220,
      "ikannya.\r\n": 8221,
      "kekur": 8222,
      "- Okey.\r\n": 8223,
      "kamb": 8224,
      "saya takkan ": 8225,
      "menganggap ": 8226,
      "kamu perlu ": 8227,
      "Apa itu ": 8228,
      ": %s ": 8229,
      "Ini semua ": 8230,
      "serig": 8231,
      "tanah.\r\n": 8232,
      "pakar ": 8233,
      "Nyalah ": 8234,
      "Tetingk": 8235,
      "fikir, ": 8236,
      "bersama dengan ": 8237,
      "projek ": 8238,
      "bergad": 8239,
      "lapisan ": 8240,
      "besar\r\n": 8241,
      "adakah anda ": 8242,
      "Bahasa ": 8243,
      "bergurau.\r\n": 8244,
      "Pernah ": 8245,
      "raksasa ": 8246,
      "bertanggungjawab ": 8247,
      "Bet": 8248,
      "Lain": 8249,
      "Nov": 8250,
      "Spar": 8251,
      "runt": 8252,
      "tangk": 8253,
      "aka ": 8254,
      "telah": 8255,
      "Apa maksud": 8256,
      "afa": 8257,
      "baru": 8258,
      "orang-orang yang kafir ": 8259,
      "keluar?\r\n": 8260,
      "hadapan.\r\n": 8261,
      "Bruc": 8262,
      "sungai ": 8263,
      "Kekunci pintasan ": 8264,
      "hamba-hamba ": 8265,
      "berdosa ": 8266,
      "Empat ": 8267,
      "0}": 8268,
      "Kas": 8269,
      "Y ": 8270,
      "a: \"": 8271,
      "god": 8272,
      "loc": 8273,
      "okan ": 8274,
      "tamat ": 8275,
      "{0}": 8276,
      "unsur ": 8277,
      "berkel": 8278,
      "berakhir ": 8279,
      "keunt": 8280,
      "- (": 8281,
      "apa khabar?\r\n": 8282,
      "nyah": 8283,
      "dia telah ": 8284,
      "membakar ": 8285,
      "lahirkan ": 8286,
      "Peranti ": 8287,
      "mana, ": 8288,
      "kuasa.\r\n": 8289,
      "cakera ": 8290,
      "Itu tidak ": 8291,
      "juga yang ": 8292,
      "itu... ": 8293,
      "kerana mereka ": 8294,
      "pergi dari sini.\r\n": 8295,
      "kawan?\r\n": 8296,
      "sendirian ": 8297,
      "Tuhanku": 8298,
      "dekat.\r\n": 8299,
      "tepat.\r\n": 8300,
      "tandatangan ": 8301,
      "minggu.\r\n": 8302,
      "lembu ": 8303,
      "Harry.\r\n": 8304,
      "Yusuf": 8305,
      "(di": 8306,
      "Far": 8307,
      "Gal": 8308,
      "Pot": 8309,
      "fo": 8310,
      "gram": 8311,
      "kalah ": 8312,
      "mad": 8313,
      "puj": 8314,
      "bereh": 8315,
      "digun": 8316,
      "diperlukan ": 8317,
      "disediakan ": 8318,
      "ulang-": 8319,
      "saya buat ": 8320,
      "mengemb": 8321,
      "andatangan": 8322,
      "ia telah ": 8323,
      "ny, ": 8324,
      "awak di ": 8325,
      "ini boleh ": 8326,
      "membenc": 8327,
      "tahu bahawa ": 8328,
      "os.\r\n": 8329,
      "bersalah.\r\n": 8330,
      "bertambah ": 8331,
      "ick ": 8332,
      "belajar": 8333,
      "ang, dan ": 8334,
      "Baiklah": 8335,
      "lelaki dan ": 8336,
      "Kalau kau ": 8337,
      "apabila mereka ": 8338,
      "cantik": 8339,
      "kaumnya ": 8340,
      "comel": 8341,
      "kepada mereka: \"": 8342,
      "sesungguhnya, ": 8343,
      "Dan demi sesungguhnya! ": 8344,
      "kertas ": 8345,
      "AI": 8346,
      "Jangan, ": 8347,
      "fl": 8348,
      "oi ": 8349,
      "akses ": 8350,
      "asas ": 8351,
      "elok": 8352,
      "bersedia ": 8353,
      "kepuny": 8354,
      "- Tidak!\r\n": 8355,
      "ke atas": 8356,
      "kata yang ": 8357,
      "ugas ": 8358,
      "pengen": 8359,
      "dengaran ": 8360,
      "belah ": 8361,
      "oh!\r\n": 8362,
      "le, ": 8363,
      "boleh?\r\n": 8364,
      "minta maaf, ": 8365,
      "sekutukan ": 8366,
      "Yang Maha Kuasa, ": 8367,
      "baik-baik saja?\r\n": 8368,
      "Alamak.\r\n": 8369,
      "bersyukur ": 8370,
      "weather ": 8371,
      "Lokasi ": 8372,
      "mengesan ": 8373,
      "memapar ": 8374,
      "gunung-gan": 8375,
      "(serta ": 8376,
      "Lad": 8377,
      "X\r\n": 8378,
      "aannya.\r\n": 8379,
      "bank ": 8380,
      "mor": 8381,
      "aliti ": 8382,
      "akan dit": 8383,
      "meray": 8384,
      "itu telah ": 8385,
      "Dan sesiapa yang ": 8386,
      "ke sana ": 8387,
      "anyalah ": 8388,
      "Dia telah ": 8389,
      "Mereka semua ": 8390,
      "icit": 8391,
      "diri kamu ": 8392,
      "tempat ini.\r\n": 8393,
      "ogr": 8394,
      "Rasulul": 8395,
      "aku. ": 8396,
      "Senjat": 8397,
      "tunggu, ": 8398,
      "Blu": 8399,
      "Kawasan ": 8400,
      "OK, ": 8401,
      "memikir": 8402,
      "Jack.\r\n": 8403,
      "setia ": 8404,
      "peperangan ": 8405,
      "Yusuf ": 8406,
      "bidang ": 8407,
      "Waktu ": 8408,
      "Perempuan ": 8409,
      "(Ingat": 8410,
      "40": 8411,
      "Kumpulan ": 8412,
      "Titik ": 8413,
      "tex": 8414,
      "uat": 8415,
      "zz": 8416,
      "arkan.\r\n": 8417,
      "dia dengan ": 8418,
      "ajari ": 8419,
      "sekumpulan ": 8420,
      "dirikan ": 8421,
      "kait": 8422,
      "buat saya ": 8423,
      "bersump": 8424,
      "gunanya ": 8425,
      "bertu": 8426,
      "kawan!\r\n": 8427,
      "perkahwin": 8428,
      "ingkari ": 8429,
      "ell ": 8430,
      "bekerjas": 8431,
      "minum.\r\n": 8432,
      "pusingan ": 8433,
      "memaksa ": 8434,
      "sebaliknya) ": 8435,
      "fault\r\n": 8436,
      "Teruskan.\r\n": 8437,
      "semata-mat": 8438,
      "munafik": 8439,
      "%C": 8440,
      "Suc": 8441,
      "aan) ": 8442,
      "asikan ": 8443,
      "saya di": 8444,
      "meliputi ": 8445,
      "keras": 8446,
      "baik dan ": 8447,
      "senang-": 8448,
      "di sini": 8449,
      "hati-hati ": 8450,
      "Sial.\r\n": 8451,
      "ketik": 8452,
      "ley.\r\n": 8453,
      "buka\r\n": 8454,
      "undur ": 8455,
      "mahu?\r\n": 8456,
      "dahulu\r\n": 8457,
      "Wahai Tuhan ": 8458,
      "berkongsi ": 8459,
      "inci ": 8460,
      "pada hari kiamat ": 8461,
      "bekalan ": 8462,
      "terperangkap": 8463,
      "Mesej\r\n": 8464,
      "peristiwa ": 8465,
      "perjalanan.\r\n": 8466,
      "iri-ciri ": 8467,
      "seburuk-": 8468,
      "CO": 8469,
      "Cisc": 8470,
      "hand": 8471,
      "jul": 8472,
      "who": 8473,
      "ar...\r\n": 8474,
      "mengadakan ": 8475,
      "ess": 8476,
      "sembil": 8477,
      "melupakan ": 8478,
      "Dan kemudian ": 8479,
      "antarkan ": 8480,
      "Apa kamu ": 8481,
      "dakwa ": 8482,
      "laksanakan ": 8483,
      "kemud": 8484,
      "syen\r\n": 8485,
      "duni": 8486,
      "Tuhan kamu, ": 8487,
      "- Tungg": 8488,
      "Pelay": 8489,
      "Itulah sebabnya ": 8490,
      "latih": 8491,
      "orang-orang yang beriman.\r\n": 8492,
      "pekerja ": 8493,
      "Sama seperti ": 8494,
      "dusta ": 8495,
      "menipu ": 8496,
      "Kitab-": 8497,
      "Wanita ": 8498,
      "Amar": 8499,
      "Pukul ": 8500,
      "S.": 8501,
      "halam": 8502,
      "lanj": 8503,
      "le.\r\n": 8504,
      "ahan, ": 8505,
      "seber": 8506,
      "ikal ": 8507,
      "or?\r\n": 8508,
      "aku ingin ": 8509,
      "masyarak": 8510,
      "apa yang akan ": 8511,
      "%s, ": 8512,
      "ibu.\r\n": 8513,
      "ip.\r\n": 8514,
      "nya\".\r\n": 8515,
      "Ayah?\r\n": 8516,
      "ohong.\r\n": 8517,
      "Selam": 8518,
      "pertemuan ": 8519,
      "ley ": 8520,
      "etahui, ": 8521,
      "tanam": 8522,
      "risau.\r\n": 8523,
      "bawa dia ": 8524,
      "Saya tidak tahu ": 8525,
      "menyesatkan ": 8526,
      "Richar": 8527,
      "kesesatan ": 8528,
      "minyak ": 8529,
      "sombong tak": 8530,
      "%.": 8531,
      "(ber": 8532,
      "Baj": 8533,
      "Kand": 8534,
      "M\r\n": 8535,
      "Sain": 8536,
      "Ut": 8537,
      "Will": 8538,
      "cem": 8539,
      "jemput ": 8540,
      "sing": 8541,
      "singg": 8542,
      "uk?\r\n": 8543,
      "berubah.\r\n": 8544,
      "disana.\r\n": 8545,
      "kew": 8546,
      "perbuat": 8547,
      "awat": 8548,
      "isy": 8549,
      "untut ": 8550,
      "osh": 8551,
      "semua ini?\r\n": 8552,
      "pengajar": 8553,
      "bertukar ": 8554,
      "akan...\r\n": 8555,
      "tempat ini ": 8556,
      "Di manakah ": 8557,
      "harus di": 8558,
      "tengah": 8559,
      "Penapis ": 8560,
      "Mari sini.\r\n": 8561,
      "Tho": 8562,
      "lama lagi.\r\n": 8563,
      "Pasifik": 8564,
      "gila!\r\n": 8565,
      "Dapat ": 8566,
      "Berikan saya ": 8567,
      "Bangun!\r\n": 8568,
      "keturunan ": 8569,
      "17": 8570,
      "Bad": 8571,
      "Dewa ": 8572,
      "Kong": 8573,
      "Minta ": 8574,
      "Panggil": 8575,
      "Puti": 8576,
      "Uj": 8577,
      "fungsi ": 8578,
      "rus": 8579,
      "arnya.\r\n": 8580,
      "berbu": 8581,
      "ort\r\n": 8582,
      "is dan ": 8583,
      "di hadapan ": 8584,
      "udara.\r\n": 8585,
      "Antar": 8586,
      "lebih besar": 8587,
      "robot": 8588,
      "kerana dia ": 8589,
      "annya dan ": 8590,
      "syurg": 8591,
      "Marc": 8592,
      "kerja yang ": 8593,
      "rasm": 8594,
      "lama, ": 8595,
      "Kecer": 8596,
      "kepadaNya ": 8597,
      "melarikan diri ": 8598,
      "ameter ": 8599,
      "K ": 8600,
      "Mak, ": 8601,
      "Sah": 8602,
      "birkan ": 8603,
      "mal.\r\n": 8604,
      "miliki ": 8605,
      "are ": 8606,
      "ukle": 8607,
      "menambah ": 8608,
      "utan.\r\n": 8609,
      "mereka (dengan ": 8610,
      "a-sama.\r\n": 8611,
      "Kami berikan ": 8612,
      "haramkan ": 8613,
      "Berita ": 8614,
      "Tig": 8615,
      "ujukan ": 8616,
      "Tapi kau ": 8617,
      "besi ": 8618,
      "angan?\r\n": 8619,
      "Sekiranya ": 8620,
      "sejuk ": 8621,
      "sejuk.\r\n": 8622,
      "Ada yang ": 8623,
      "i-nab": 8624,
      "tengok.\r\n": 8625,
      "Kenapa dengan ": 8626,
      "nafas ": 8627,
      "azab seksa": 8628,
      "Whoa!\r\n": 8629,
      "cedera.\r\n": 8630,
      "Kapten.\r\n": 8631,
      " dulu.\r\n": 8632,
      "Don": 8633,
      "Hab": 8634,
      "Lup": 8635,
      "Lanc": 8636,
      "No ": 8637,
      "Simb": 8638,
      "reg": 8639,
      "t-": 8640,
      "aka": 8641,
      "al di ": 8642,
      "menurut": 8643,
      "bersedia untuk ": 8644,
      "utlah ": 8645,
      "uhan.\r\n": 8646,
      "peluang.\r\n": 8647,
      "Tak apa.\r\n": 8648,
      "Seluruh ": 8649,
      "menjej": 8650,
      "ayah saya.\r\n": 8651,
      "Saya tidak mahu ": 8652,
      "pandu ": 8653,
      "hitam.\r\n": 8654,
      "pecah ": 8655,
      "turun.\r\n": 8656,
      "sekutu ": 8657,
      "talian ": 8658,
      "lebih baik daripada ": 8659,
      "Plug": 8660,
      "(%s)\r\n": 8661,
      "sempadan ": 8662,
      "Operasi ": 8663,
      "Amat ": 8664,
      "Hop": 8665,
      "Roh": 8666,
      "e=": 8667,
      "fer": 8668,
      "atr": 8669,
      ", kita ": 8670,
      "adil.\r\n": 8671,
      "berken": 8672,
      "yang bagus.\r\n": 8673,
      "kesan": 8674,
      "ayang": 8675,
      "terow": 8676,
      "terdahulu ": 8677,
      "ungan.\r\n": 8678,
      "dia nak ": 8679,
      "a-kata ": 8680,
      "kelak ": 8681,
      "sibuk ": 8682,
      "pengant": 8683,
      "kenal.\r\n": 8684,
      "perkara.\r\n": 8685,
      "rumah, ": 8686,
      "Tetap": 8687,
      "Jadi saya ": 8688,
      "meter": 8689,
      "penyer": 8690,
      "pada hari kiamat": 8691,
      "tiket ": 8692,
      "menyedih": 8693,
      "seronok.\r\n": 8694,
      "URL ": 8695,
      "seperti, ": 8696,
      "dikenali ": 8697,
      "Tarik ": 8698,
      "Allah berfirman: \"": 8699,
      "Malah ": 8700,
      "Sch": 8701,
      "aris ": 8702,
      "memusnahkan ": 8703,
      "merasai ": 8704,
      "di depan ": 8705,
      "mereka tidak akan ": 8706,
      "awak dengan ": 8707,
      "awak sudah ": 8708,
      "anda mahu ": 8709,
      "e in ": 8710,
      "Berhenti.\r\n": 8711,
      "tempat-": 8712,
      "saiz": 8713,
      "option": 8714,
      "Mark": 8715,
      "duit": 8716,
      "Aku tak pernah ": 8717,
      "Selamat pagi, ": 8718,
      "Pemilihan ": 8719,
      "hebat!\r\n": 8720,
      "bayi.\r\n": 8721,
      "bakal ": 8722,
      "apapun": 8723,
      "rakaman ": 8724,
      "kebenaran.\r\n": 8725,
      "demikianlah ": 8726,
      "pisau ": 8727,
      "Perlu ": 8728,
      "http": 8729,
      "ghaib": 8730,
      "Data ": 8731,
      "GT": 8732,
      "H ": 8733,
      "cik, ": 8734,
      "kayu ": 8735,
      "malah ": 8736,
      "pon": 8737,
      "amu?\r\n": 8738,
      "itz": 8739,
      " data ": 8740,
      "ulakan ": 8741,
      "memaaf": 8742,
      "aku dengan ": 8743,
      "membenarkan ": 8744,
      "perlindung": 8745,
      "kalah.\r\n": 8746,
      "Terima ": 8747,
      "mana satu ": 8748,
      "undur.\r\n": 8749,
      "secara automat": 8750,
      "umpulkan ": 8751,
      "apapun.\r\n": 8752,
      "kebun ": 8753,
      "- Bagus.\r\n": 8754,
      "unikasi ": 8755,
      "kesudahan ": 8756,
      "Afrika/": 8757,
      "ek-ej": 8758,
      "):\r\n": 8759,
      "IP": 8760,
      "Nik": 8761,
      "Ranc": 8762,
      "s.": 8763,
      "input ": 8764,
      "apun, ": 8765,
      "yang dik": 8766,
      "uri.\r\n": 8767,
      "terlihat ": 8768,
      "dan di": 8769,
      "nyatakan ": 8770,
      "Aku fikir ": 8771,
      "ini hanya ": 8772,
      "ari-": 8773,
      "akan) ": 8774,
      "indow": 8775,
      "selamanya.\r\n": 8776,
      "berlatih ": 8777,
      "pakej": 8778,
      "- Tent": 8779,
      "sikap ": 8780,
      "takutkan ": 8781,
      "kebenaran": 8782,
      "makanan.\r\n": 8783,
      "pokok": 8784,
      "ebihi ": 8785,
      "muzik ": 8786,
      "Felicit": 8787,
      "(atau ": 8788,
      "Dom": 8789,
      "Pant": 8790,
      "Tajuk ": 8791,
      "\\\\": 8792,
      "aan?\r\n": 8793,
      "sir": 8794,
      "seumur ": 8795,
      "ikian ": 8796,
      "awar ": 8797,
      "- Se": 8798,
      "- Hey, ": 8799,
      "memori ": 8800,
      "utama.\r\n": 8801,
      "ihal ": 8802,
      "semak ": 8803,
      "Dia cakap ": 8804,
      "menyamb": 8805,
      "menyimp": 8806,
      "Kita tidak ": 8807,
      "Kamu berdua ": 8808,
      "diri saya ": 8809,
      "sahabat ": 8810,
      "kalau kau ": 8811,
      "pun tak ": 8812,
      "orang-orang (": 8813,
      "sebahagian daripada ": 8814,
      "memastikan ": 8815,
      "perbuatan yang ": 8816,
      "menunggu.\r\n": 8817,
      "ktop ": 8818,
      "GNOME\r\n": 8819,
      "Rangka": 8820,
      "font ": 8821,
      "k\r\n": 8822,
      "arik ": 8823,
      "- Meng": 8824,
      " dos": 8825,
      "agn": 8826,
      "Saya pernah ": 8827,
      "di atas": 8828,
      "untuk anda.\r\n": 8829,
      "aku hanya ": 8830,
      "entikan": 8831,
      "hari kiamat ": 8832,
      "ditak": 8833,
      "menjerit": 8834,
      "kalau mereka ": 8835,
      "tenang ": 8836,
      "jatuh.\r\n": 8837,
      "pembel": 8838,
      "Tolong.\r\n": 8839,
      "penjaga ": 8840,
      "Brit": 8841,
      "setuju.\r\n": 8842,
      "menghasilkan ": 8843,
      "6.\r\n": 8844,
      "Jom ": 8845,
      "Makan ": 8846,
      "ret": 8847,
      "ster": 8848,
      "tag ": 8849,
      "ikah ": 8850,
      "yang demikian, ": 8851,
      "dibawah ": 8852,
      "- Mungkin ": 8853,
      "orang tua ": 8854,
      "Aku tidak akan ": 8855,
      "tel ": 8856,
      "Alih ": 8857,
      ") mengembalikan ": 8858,
      "dalam perjalanan ": 8859,
      "umpang ": 8860,
      "padamu.\r\n": 8861,
      "tuan!\r\n": 8862,
      "Marilah.\r\n": 8863,
      "(yang membuktikan ": 8864,
      "latar": 8865,
      "hamba ": 8866,
      "doktor": 8867,
      "Padahal ": 8868,
      "hasil": 8869,
      "mendustak": 8870,
      "Karena ": 8871,
      "ingkatkan ": 8872,
      "sabar ": 8873,
      "Pusat ": 8874,
      "nafsu ": 8875,
      "permohon": 8876,
      "barang-barang ": 8877,
      "Bani Isra": 8878,
      "Fungsi ": 8879,
      "Laj": 8880,
      "Turunkan ": 8881,
      "Wes": 8882,
      "hentik": 8883,
      "panc": 8884,
      "sop": 8885,
      "vid": 8886,
      "ine.\r\n": 8887,
      "diantara ": 8888,
      "ur?\r\n": 8889,
      "imu, ": 8890,
      "ini ialah ": 8891,
      "dari mereka ": 8892,
      "bersalah": 8893,
      "hidup di ": 8894,
      "keluar\r\n": 8895,
      "tapi dia ": 8896,
      "Ada apa ": 8897,
      "Oh, tidak.\r\n": 8898,
      "dua orang ": 8899,
      "yang berbez": 8900,
      "Betul, ": 8901,
      "Mengapa tidak ": 8902,
      "Patr": 8903,
      "topi ": 8904,
      "bertaqwa.\r\n": 8905,
      "world": 8906,
      "telinga ": 8907,
      "Epson ": 8908,
      "Met": 8909,
      "No.\r\n": 8910,
      "Tog": 8911,
      "i? ": 8912,
      "aknya, ": 8913,
      "i (": 8914,
      "ara\r\n": 8915,
      "ar dalam ": 8916,
      "itar ": 8917,
      "- Okay.\r\n": 8918,
      "Saya tahu, ": 8919,
      "mengingatkan ": 8920,
      "pada itu, ": 8921,
      "kelab": 8922,
      "Merek": 8923,
      "ibr": 8924,
      "bala ": 8925,
      "serta ber": 8926,
      "macam tu.\r\n": 8927,
      "endang ": 8928,
      "Atas ": 8929,
      "meninggal.\r\n": 8930,
      "Itulah yang ": 8931,
      "- Macam ": 8932,
      "format": 8933,
      "ordinat ": 8934,
      " demi ": 8935,
      "mesyuarat ": 8936,
      "Doc": 8937,
      "Jumlah ": 8938,
      "Pindah ": 8939,
      "SE": 8940,
      "Sungguh ": 8941,
      "bos ": 8942,
      "ie.\r\n": 8943,
      "mej": 8944,
      "situ.\r\n": 8945,
      "ala\r\n": 8946,
      "ada pada ": 8947,
      "semang": 8948,
      "Intern": 8949,
      "Kami sedang ": 8950,
      "ompat": 8951,
      "ejen ": 8952,
      "berlari ": 8953,
      "kembali kepada ": 8954,
      "ingat?\r\n": 8955,
      "neraka yang ": 8956,
      "spir": 8957,
      "kedua.\r\n": 8958,
      "Aktif": 8959,
      "199": 8960,
      "hancurkan ": 8961,
      "bersyukur.\r\n": 8962,
      "rahsia.\r\n": 8963,
      "mustahil.\r\n": 8964,
      "Evolution\r\n": 8965,
      "Mengetahui akan ": 8966,
      ">\r\n": 8967,
[...]
