{
  "version": "1.0",
  "truncation": null,
  "padding": null,
  "added_tokens": [
    {
      "id": 0,
      "content": "[UNK]",
      "single_word": false,
      "lstrip": false,
      "rstrip": false,
      "normalized": false,
      "special": true
    },
    {
      "id": 1,
      "content": "[CLS]",
      "single_word": false,
      "lstrip": false,
      "rstrip": false,
      "normalized": false,
      "special": true
    },
    {
      "id": 2,
      "content": "[SEP]",
      "single_word": false,
      "lstrip": false,
      "rstrip": false,
      "normalized": false,
      "special": true
    },
    {
      "id": 3,
      "content": "[PAD]",
      "single_word": false,
      "lstrip": false,
      "rstrip": false,
      "normalized": false,
      "special": true
    },
    {
      "id": 4,
      "content": "[MASK]",
      "single_word": false,
      "lstrip": false,
      "rstrip": false,
      "normalized": false,
      "special": true
    }
  ],
  "normalizer": null,
  "pre_tokenizer": null,
  "post_processor": null,
  "decoder": null,
  "model": {
    "type": "BPE",
    "dropout": null,
    "unk_token": "[UNK]",
    "continuing_subword_prefix": null,
    "end_of_word_suffix": null,
    "fuse_unk": false,
    "byte_fallback": false,
    "ignore_merges": false,
    "vocab": {
      "[UNK]": 0,
      "[CLS]": 1,
      "[SEP]": 2,
      "[PAD]": 3,
      "[MASK]": 4,
      "\n": 5,
      "\r": 6,
      " ": 7,
      "!": 8,
      "\"": 9,
      "#": 10,
      "$": 11,
      "%": 12,
      "&": 13,
      "'": 14,
      "(": 15,
      ")": 16,
      "*": 17,
      "+": 18,
      ",": 19,
      "-": 20,
      ".": 21,
      "/": 22,
      "0": 23,
      "1": 24,
      "2": 25,
      "3": 26,
      "4": 27,
      "5": 28,
      "6": 29,
      "7": 30,
      "8": 31,
      "9": 32,
      ":": 33,
      ";": 34,
      "<": 35,
      "=": 36,
      ">": 37,
      "?": 38,
      "@": 39,
      "A": 40,
      "B": 41,
      "C": 42,
      "D": 43,
      "E": 44,
      "F": 45,
      "G": 46,
      "H": 47,
      "I": 48,
      "J": 49,
      "K": 50,
      "L": 51,
      "M": 52,
      "N": 53,
      "O": 54,
      "P": 55,
      "Q": 56,
      "R": 57,
      "S": 58,
      "T": 59,
      "U": 60,
      "V": 61,
      "W": 62,
      "X": 63,
      "Y": 64,
      "Z": 65,
      "[": 66,
      "\\": 67,
      "]": 68,
      "^": 69,
      "_": 70,
      "`": 71,
      "a": 72,
      "b": 73,
      "c": 74,
      "d": 75,
      "e": 76,
      "f": 77,
      "g": 78,
      "h": 79,
      "i": 80,
      "j": 81,
      "k": 82,
      "l": 83,
      "m": 84,
      "n": 85,
      "o": 86,
      "p": 87,
      "q": 88,
      "r": 89,
      "s": 90,
      "t": 91,
      "u": 92,
      "v": 93,
      "w": 94,
      "x": 95,
      "y": 96,
      "z": 97,
      "{": 98,
      "}": 99,
      "~": 100,
      "": 101,
      "": 102,
      "": 103,
      " ": 104,
      "¡": 105,
      "£": 106,
      "¤": 107,
      "¥": 108,
      "¦": 109,
      "§": 110,
      "¨": 111,
      "©": 112,
      "ª": 113,
      "«": 114,
      "¬": 115,
      "­": 116,
      "®": 117,
      "¯": 118,
      "°": 119,
      "±": 120,
      "²": 121,
      "³": 122,
      "´": 123,
      "µ": 124,
      "¶": 125,
      "¹": 126,
      "º": 127,
      "»": 128,
      "¼": 129,
      "¾": 130,
      "¿": 131,
      "À": 132,
      "Á": 133,
      "Â": 134,
      "Ã": 135,
      "Ä": 136,
      "Å": 137,
      "Æ": 138,
      "Ç": 139,
      "É": 140,
      "Ë": 141,
      "Ì": 142,
      "Í": 143,
      "Î": 144,
      "Ï": 145,
      "Ô": 146,
      "Õ": 147,
      "Ö": 148,
      "×": 149,
      "Ú": 150,
      "Ý": 151,
      "Þ": 152,
      "ß": 153,
      "à": 154,
      "á": 155,
      "â": 156,
      "ã": 157,
      "ä": 158,
      "å": 159,
      "æ": 160,
      "ç": 161,
      "è": 162,
      "é": 163,
      "ê": 164,
      "ë": 165,
      "ì": 166,
      "í": 167,
      "î": 168,
      "ï": 169,
      "ð": 170,
      "ñ": 171,
      "ò": 172,
      "ó": 173,
      "ô": 174,
      "õ": 175,
      "ö": 176,
      "÷": 177,
      "ø": 178,
      "ú": 179,
      "û": 180,
      "ü": 181,
      "ý": 182,
      "þ": 183,
      "Ā": 184,
      "ā": 185,
      "ă": 186,
      "č": 187,
      "Đ": 188,
      "ē": 189,
      "ė": 190,
      "ę": 191,
      "ğ": 192,
      "ī": 193,
      "ĭ": 194,
      "İ": 195,
      "ı": 196,
      "Ł": 197,
      "ń": 198,
      "ň": 199,
      "ŏ": 200,
      "œ": 201,
      "ř": 202,
      "Ś": 203,
      "ş": 204,
      "Š": 205,
      "š": 206,
      "ţ": 207,
      "ť": 208,
      "ū": 209,
      "ŭ": 210,
      "Ž": 211,
      "ž": 212,
      "ơ": 213,
      "ư": 214,
      "ˊ": 215,
      "˚": 216,
      "̀": 217,
      "Α": 218,
      "Β": 219,
      "Ε": 220,
      "Η": 221,
      "Μ": 222,
      "Ν": 223,
      "Τ": 224,
      "Υ": 225,
      "Χ": 226,
      "ά": 227,
      "ί": 228,
      "α": 229,
      "γ": 230,
      "ε": 231,
      "η": 232,
      "θ": 233,
      "κ": 234,
      "λ": 235,
      "μ": 236,
      "ν": 237,
      "π": 238,
      "τ": 239,
      "φ": 240,
      "Г": 241,
      "ж": 242,
      "и": 243,
      "ආ": 244,
      "බ": 245,
      "ය": 246,
      "ව": 247,
      "ා": 248,
      "ි": 249,
      "ේ": 250,
      "ෝ": 251,
      "ྲྀ": 252,
      "ྀ": 253,
      "ྲ": 254,
      "ầ": 255,
      "ứ": 256,
      "ữ": 257,
      "ỳ": 258,
      " ": 259,
      "​": 260,
      "‒": 261,
      "–": 262,
      "—": 263,
      "―": 264,
      "‘": 265,
      "’": 266,
      "‚": 267,
      "“": 268,
      "”": 269,
      "•": 270,
      "…": 271,
      "‭": 272,
      "⁻": 273,
      "€": 274,
      "™": 275,
      "→": 276,
      "⇒": 277,
      "∆": 278,
      "−": 279,
      "∕": 280,
      "∶": 281,
      "│": 282,
      "☺": 283,
      "♩": 284,
      "♪": 285,
      "♫": 286,
      "♬": 287,
      "么": 288,
      "枚": 289,
      "眉": 290,
      "脛": 291,
      "芒": 292,
      "茅": 293,
      "ﬁ": 294,
      "ﬂ": 295,
      "﻿": 296,
      "＃": 297,
      "�": 298,
      "\r\n": 299,
      "e ": 300,
      " t": 301,
      ".\r\n": 302,
      "t ": 303,
      "ou": 304,
      "s ": 305,
      "in": 306,
      " th": 307,
      "er": 308,
      "an": 309,
      ", ": 310,
      "d ": 311,
      "on": 312,
      "o ": 313,
      "you": 314,
      "y ": 315,
      "or": 316,
      "ll": 317,
      "en": 318,
      "ha": 319,
      "ing": 320,
      " the ": 321,
      "th": 322,
      "ar": 323,
      "?\r\n": 324,
      "re": 325,
      "a ": 326,
      "I ": 327,
      "ow": 328,
      "st": 329,
      "at": 330,
      "om": 331,
      "you ": 332,
      "is ": 333,
      "it": 334,
      "e.\r\n": 335,
      "of": 336,
      " to ": 337,
      "- ": 338,
      "es": 339,
      "ll ": 340,
      "ing ": 341,
      "!\r\n": 342,
      "'s ": 343,
      "ve ": 344,
      "..": 345,
      "is": 346,
      "le": 347,
      ". ": 348,
      "er ": 349,
      "li": 350,
      "Th": 351,
      "se": 352,
      "r ": 353,
      "and ": 354,
      "m ": 355,
      "al": 356,
      "ac": 357,
      "for": 358,
      "gh": 359,
      "wi": 360,
      "ed ": 361,
      "You": 362,
      "ay": 363,
      "us": 364,
      "ed": 365,
      "no": 366,
      "ri": 367,
      "oo": 368,
      "of ": 369,
      "as": 370,
      "'t ": 371,
      "be": 372,
      "k ": 373,
      "ch": 374,
      "wh": 375,
      "en ": 376,
      "ion": 377,
      "at ": 378,
      "I'": 379,
      "re ": 380,
      " the": 381,
      "an ": 382,
      "go": 383,
      "he": 384,
      "hat ": 385,
      "now": 386,
      "ic": 387,
      "am": 388,
      "id": 389,
      "in ": 390,
      "ad": 391,
      "e t": 392,
      "im": 393,
      "ev": 394,
      "un": 395,
      "You ": 396,
      "it ": 397,
      "ro": 398,
      "ge": 399,
      "ab": 400,
      "s.\r\n": 401,
      "be ": 402,
      "t's ": 403,
      "il": 404,
      "not ": 405,
      "ke ": 406,
      "her": 407,
      "your ": 408,
      "have ": 409,
      "as ": 410,
      "ld ": 411,
      "are ": 412,
      "th ": 413,
      "sh": 414,
      "t.\r\n": 415,
      "me": 416,
      " that ": 417,
      "op": 418,
      "all": 419,
      "for ": 420,
      "and": 421,
      "'re ": 422,
      "up": 423,
      "y.\r\n": 424,
      "know": 425,
      "ne": 426,
      "An": 427,
      "lo": 428,
      "my ": 429,
      "de": 430,
      "ur": 431,
      "ir": 432,
      "I'm ": 433,
      "do": 434,
      " to": 435,
      "com": 436,
      "el": 437,
      "on ": 438,
      "f ": 439,
      "ut ": 440,
      "ere ": 441,
      "le ": 442,
      "on't ": 443,
      "es ": 444,
      "ut": 445,
      "ag": 446,
      "ent": 447,
      "ay ": 448,
      "ust ": 449,
      "...\r\n": 450,
      "ow ": 451,
      "ah": 452,
      "e, ": 453,
      "pe": 454,
      "os": 455,
      "ght": 456,
      "di": 457,
      " this ": 458,
      "we ": 459,
      "ver": 460,
      "ould ": 461,
      "out ": 462,
      "The ": 463,
      "ct": 464,
      "we": 465,
      "was ": 466,
      "or ": 467,
      "will ": 468,
      "one ": 469,
      "rom": 470,
      "with ": 471,
      "y, ": 472,
      "me ": 473,
      "We ": 474,
      "ol": 475,
      "No": 476,
      "hat": 477,
      "the ": 478,
      "wor": 479,
      "He": 480,
      "he ": 481,
      "ap": 482,
      "Wh": 483,
      "do ": 484,
      "wan": 485,
      "n ": 486,
      "som": 487,
      "And ": 488,
      "ck": 489,
      "ake ": 490,
      "all ": 491,
      "pl": 492,
      "ght ": 493,
      "... ": 494,
      "sa": 495,
      "ation": 496,
      "oun": 497,
      " that": 498,
      "con": 499,
      "don't ": 500,
      "ain": 501,
      "ul": 502,
      "tt": 503,
      "from": 504,
      "er.\r\n": 505,
      "ing.\r\n": 506,
      "We": 507,
      "d.\r\n": 508,
      "ly ": 509,
      "e to ": 510,
      "ex": 511,
      "al ": 512,
      "bo": 513,
      "what ": 514,
      " they ": 515,
      "it.\r\n": 516,
      "ch ": 517,
      "What ": 518,
      "It's ": 519,
      "fi": 520,
      "n't ": 521,
      "su": 522,
      "s, ": 523,
      "gu": 524,
      "s\r\n": 525,
      "fe": 526,
      "get ": 527,
      "just ": 528,
      "in the ": 529,
      "ak": 530,
      "can ": 531,
      "out": 532,
      "ep": 533,
      "ack": 534,
      "ent ": 535,
      "He ": 536,
      "ong": 537,
      "hi": 538,
      "of the ": 539,
      "mo": 540,
      "ere": 541,
      "et": 542,
      "ra": 543,
      "you.\r\n": 544,
      "res": 545,
      "man": 546,
      "know ": 547,
      ": ": 548,
      "int": 549,
      "can": 550,
      "hat's ": 551,
      "like ": 552,
      "who ": 553,
      "Go": 554,
      "si": 555,
      "pro": 556,
      "et ": 557,
      "way": 558,
      "ever": 559,
      "e?\r\n": 560,
      "em": 561,
      "kay": 562,
      "um": 563,
      "him": 564,
      ", I ": 565,
      "ey ": 566,
      " tr": 567,
      " thin": 568,
      "This ": 569,
      "ther ": 570,
      "dow": 571,
      "ever ": 572,
      "e\r\n": 573,
      "Oh": 574,
      "ther": 575,
      "so ": 576,
      "w ": 577,
      "ce ": 578,
      "ar ": 579,
      "qu": 580,
      "na ": 581,
      "eah": 582,
      "want": 583,
      "gon": 584,
      "fa": 585,
      "ey": 586,
      "ook": 587,
      "gi": 588,
      "es.\r\n": 589,
      "ing to ": 590,
      "ill": 591,
      "ed.\r\n": 592,
      "Com": 593,
      "art": 594,
      "All": 595,
      "fin": 596,
      "der": 597,
      "use ": 598,
      "me.\r\n": 599,
      "from ": 600,
      "mor": 601,
      "ca": 602,
      "St": 603,
      "his ": 604,
      "right": 605,
      "ir ": 606,
      "if ": 607,
      "some": 608,
      "thing ": 609,
      " te": 610,
      ":\r\n": 611,
      "but ": 612,
      "'s": 613,
      "ion ": 614,
      "our ": 615,
      "po": 616,
      "with": 617,
      "ess": 618,
      "goo": 619,
      "ang": 620,
      "got ": 621,
      "end": 622,
      ", and ": 623,
      "But ": 624,
      "per": 625,
      "no ": 626,
      "ose ": 627,
      "se ": 628,
      "\"\r\n": 629,
      "! ": 630,
      "ad ": 631,
      "act": 632,
      "Yeah": 633,
      "our": 634,
      "ear": 635,
      "gonna ": 636,
      ", you ": 637,
      " them": 638,
      "gr": 639,
      " this": 640,
      "ate ": 641,
      "pp": 642,
      "you're ": 643,
      "ed to ": 644,
      "min": 645,
      "fu": 646,
      "has ": 647,
      "It ": 648,
      "You're ": 649,
      "ook ": 650,
      "bl": 651,
      "any": 652,
      "ld": 653,
      "ill ": 654,
      "if": 655,
      "about ": 656,
      "Allah": 657,
      "p ": 658,
      "av": 659,
      "did": 660,
      "ast": 661,
      "ame ": 662,
      " tim": 663,
      "on.\r\n": 664,
      "orr": 665,
      "it's ": 666,
      "ig": 667,
      "him ": 668,
      "ally ": 669,
      "back": 670,
      "to ": 671,
      "here ": 672,
      "That's ": 673,
      "were ": 674,
      "id ": 675,
      "ust": 676,
      "'ll ": 677,
      "e!\r\n": 678,
      "h ": 679,
      "cre": 680,
      "us ": 681,
      "? ": 682,
      "come ": 683,
      "itt": 684,
      "Come ": 685,
      " them ": 686,
      "say": 687,
      "day": 688,
      "see ": 689,
      "ough": 690,
      "What": 691,
      "beli": 692,
      "been ": 693,
      "sel": 694,
      " to the ": 695,
      "co": 696,
      " think ": 697,
      "up ": 698,
      "ter": 699,
      "so": 700,
      "peop": 701,
      "would ": 702,
      "ave ": 703,
      " their ": 704,
      "af": 705,
      "In": 706,
      "when ": 707,
      ", th": 708,
      "here.\r\n": 709,
      "I'll ": 710,
      "ru": 711,
      "Well": 712,
      "est": 713,
      "Oh, ": 714,
      "Okay": 715,
      "go ": 716,
      "If ": 717,
      "har": 718,
      "car": 719,
      "on the ": 720,
      "dis": 721,
      "ist": 722,
      " take ": 723,
      "br": 724,
      "ple": 725,
      "did ": 726,
      "what": 727,
      "They ": 728,
      "he's ": 729,
      "d to ": 730,
      "por": 731,
      "Sh": 732,
      "How ": 733,
      "I don't ": 734,
      "not": 735,
      "es, ": 736,
      "happ": 737,
      "hel": 738,
      "ght.\r\n": 739,
      "down": 740,
      "her ": 741,
      "some ": 742,
      "ck ": 743,
      "off": 744,
      "ack ": 745,
      "cause ": 746,
      "ation ": 747,
      "am ": 748,
      "'t": 749,
      "by ": 750,
      "pr": 751,
      "Do ": 752,
      "So ": 753,
      ", the ": 754,
      "ni": 755,
      "A ": 756,
      "can't ": 757,
      "ant": 758,
      "ob": 759,
      "ould": 760,
      "'ve ": 761,
      "Le": 762,
      "alk": 763,
      "sha": 764,
      "y?\r\n": 765,
      "My ": 766,
      "make ": 767,
      ") ": 768,
      "ci": 769,
      "Re": 770,
      "mon": 771,
      "was": 772,
      "a.\r\n": 773,
      "you, ": 774,
      "aw": 775,
      "est ": 776,
      "thing": 777,
      "pre": 778,
      "ard": 779,
      "; ": 780,
      "get": 781,
      "bu": 782,
      "ess ": 783,
      "att": 784,
      "st ": 785,
      "could ": 786,
      "...": 787,
      "ick": 788,
      "ff": 789,
      "Se": 790,
      "read": 791,
      "had ": 792,
      "Don't ": 793,
      "%s": 794,
      " those ": 795,
      "ce": 796,
      "ast ": 797,
      "vi": 798,
      "And": 799,
      "au": 800,
      "about": 801,
      "s?\r\n": 802,
      "Be": 803,
      "That ": 804,
      "should ": 805,
      ",\r\n": 806,
      "every": 807,
      "want to ": 808,
      "ser": 809,
      "l ": 810,
      "work": 811,
      "ere's ": 812,
      "par": 813,
      ".\"\r\n": 814,
      "ese ": 815,
      "ke": 816,
      "Ch": 817,
      "All ": 818,
      "Allah ": 819,
      "No, ": 820,
      "a b": 821,
      "you?\r\n": 822,
      "spe": 823,
      "again": 824,
      "only ": 825,
      "ali": 826,
      "s to ": 827,
      "ly": 828,
      "I've ": 829,
      "Why ": 830,
      "fri": 831,
      "ord": 832,
      "bod": 833,
      "This is ": 834,
      "ish": 835,
      "mean": 836,
      "any ": 837,
      "on, ": 838,
      "ep ": 839,
      "right ": 840,
      "ong ": 841,
      "ver ": 842,
      "ound ": 843,
      "give ": 844,
      "ure": 845,
      "have to ": 846,
      "your": 847,
      "she ": 848,
      "ile ": 849,
      " the t": 850,
      "Hey, ": 851,
      "befor": 852,
      "how ": 853,
      "en.\r\n": 854,
      "never ": 855,
      "gre": 856,
      "ot": 857,
      "sp": 858,
      "okay": 859,
      "litt": 860,
      "es\r\n": 861,
      "ase ": 862,
      "ct ": 863,
      ")\r\n": 864,
      "He's ": 865,
      "sid": 866,
      "fir": 867,
      "00": 868,
      "look": 869,
      "age ": 870,
      "y!\r\n": 871,
      "old ": 872,
      " tell ": 873,
      "No ": 874,
      "wr": 875,
      "more ": 876,
      "didn't ": 877,
      "mu": 878,
      "Are ": 879,
      "other ": 880,
      " there ": 881,
      "ace ": 882,
      "urn": 883,
      "ound": 884,
      "mad": 885,
      "lik": 886,
      "good ": 887,
      "end ": 888,
      "s of ": 889,
      "mb": 890,
      "where ": 891,
      "said": 892,
      "don": 893,
      "over": 894,
      "ing?\r\n": 895,
      "Un": 896,
      "for the ": 897,
      "whi": 898,
      "anc": 899,
      "going to ": 900,
      "Get ": 901,
      "are you ": 902,
      "but": 903,
      "him.\r\n": 904,
      "cont": 905,
      "mis": 906,
      "el ": 907,
      "is the ": 908,
      "ter ": 909,
      "a c": 910,
      "very ": 911,
      "dr": 912,
      "people ": 913,
      "s and ": 914,
      "ful": 915,
      "it, ": 916,
      "On": 917,
      "ive ": 918,
      "enc": 919,
      "ight ": 920,
      "il ": 921,
      "' ": 922,
      "want ": 923,
      "ath": 924,
      "will be ": 925,
      "and the ": 926,
      "fuck": 927,
      "We're ": 928,
      "really ": 929,
      "ing, ": 930,
      ". - ": 931,
      " ther": 932,
      "need ": 933,
      "r. ": 934,
      "Yeah, ": 935,
      "happen": 936,
      "e to": 937,
      "little ": 938,
      "So": 939,
      "lif": 940,
      "cl": 941,
      "new ": 942,
      "ank ": 943,
      "wo ": 944,
      "Mo": 945,
      "iv": 946,
      "it?\r\n": 947,
      "mar": 948,
      "t of ": 949,
      "under": 950,
      "sed ": 951,
      "sorr": 952,
      "got": 953,
      "ing the ": 954,
      "Ple": 955,
      "war": 956,
      "who": 957,
      "ank": 958,
      "Just ": 959,
      "om ": 960,
      "'s the ": 961,
      "hom": 962,
      "ind": 963,
      "ble": 964,
      "Well, ": 965,
      "find ": 966,
      "ind ": 967,
      "e that ": 968,
      "ight": 969,
      "guy": 970,
      "port": 971,
      "do you ": 972,
      "a m": 973,
      "Your ": 974,
      "eve ": 975,
      "a s": 976,
      "ad.\r\n": 977,
      "s are ": 978,
      "kill": 979,
      "hand": 980,
      "year": 981,
      "ect": 982,
      "ous": 983,
      " think": 984,
      "it!\r\n": 985,
      "nam": 986,
      "- I ": 987,
      "ion.\r\n": 988,
      "up.\r\n": 989,
      "ought ": 990,
      "call": 991,
      "Ex": 992,
      "go.\r\n": 993,
      "ment": 994,
      "\" ": 995,
      "str": 996,
      "look ": 997,
      "There ": 998,
      "lin": 999,
      "thing.\r\n": 1000,
      "ile": 1001,
      "pos": 1002,
      "y\r\n": 1003,
      "now.\r\n": 1004,
      "ud": 1005,
      "back ": 1006,
      "op ": 1007,
      "God": 1008,
      "pt": 1009,
      "ass": 1010,
      "wa": 1011,
      "I was ": 1012,
      "before ": 1013,
      "pres": 1014,
      "ph": 1015,
      "hear": 1016,
      "love ": 1017,
      "ity ": 1018,
      "Are you ": 1019,
      ", but ": 1020,
      "one.\r\n": 1021,
      "ic ": 1022,
      "bro": 1023,
      "lic": 1024,
      "ma": 1025,
      "us.\r\n": 1026,
      "ry ": 1027,
      "the": 1028,
      "ase": 1029,
      "let ": 1030,
      "Let's ": 1031,
      "abl": 1032,
      "by": 1033,
      " talk": 1034,
      " that's ": 1035,
      "g ": 1036,
      "De": 1037,
      "oll": 1038,
      "I have ": 1039,
      "She ": 1040,
      "ost ": 1041,
      "sup": 1042,
      "from the ": 1043,
      "wat": 1044,
      "ans": 1045,
      "out.\r\n": 1046,
      "self": 1047,
      "cur": 1048,
      "even ": 1049,
      "we're ": 1050,
      "old": 1051,
      "%s\r\n": 1052,
      "ers ": 1053,
      "Mr. ": 1054,
      "ice ": 1055,
      "sir": 1056,
      "eng": 1057,
      "umb": 1058,
      "form": 1059,
      "made ": 1060,
      "out of ": 1061,
      "because ": 1062,
      "God ": 1063,
      "which ": 1064,
      "e. ": 1065,
      "Do you ": 1066,
      "run": 1067,
      "me?\r\n": 1068,
      "Where ": 1069,
      "0 ": 1070,
      "ip": 1071,
      "ent.\r\n": 1072,
      "just": 1073,
      "cr": 1074,
      "acc": 1075,
      "right?\r\n": 1076,
      "ed the ": 1077,
      "Who ": 1078,
      "believe ": 1079,
      "shall ": 1080,
      "ood ": 1081,
      "ther.\r\n": 1082,
      "unt": 1083,
      "ount": 1084,
      "gir": 1085,
      "ite ": 1086,
      "Is": 1087,
      "Not ": 1088,
      "still ": 1089,
      "Al": 1090,
      "memb": 1091,
      "gn": 1092,
      "ire": 1093,
      "giv": 1094,
      " that.\r\n": 1095,
      "why ": 1096,
      "uh": 1097,
      "They": 1098,
      "des": 1099,
      "ask": 1100,
      "Con": 1101,
      "er, ": 1102,
      "you to ": 1103,
      "must ": 1104,
      "way.\r\n": 1105,
      "bett": 1106,
      "me, ": 1107,
      "En": 1108,
      "cle": 1109,
      "does": 1110,
      "ure ": 1111,
      "iz": 1112,
      "comm": 1113,
      "day ": 1114,
      "if you ": 1115,
      "ouldn't ": 1116,
      "hav": 1117,
      "al.\r\n": 1118,
      "own": 1119,
      "mov": 1120,
      "i ": 1121,
      "y to ": 1122,
      "clo": 1123,
      "lect": 1124,
      " there": 1125,
      "sure ": 1126,
      "say ": 1127,
      "may ": 1128,
      "a p": 1129,
      "ed, ": 1130,
      "help ": 1131,
      "a\r\n": 1132,
      "going ": 1133,
      "own ": 1134,
      "this ": 1135,
      "er\r\n": 1136,
      "uck": 1137,
      "I am ": 1138,
      "o.\r\n": 1139,
      " thr": 1140,
      "s!\r\n": 1141,
      "che": 1142,
      "'d ": 1143,
      "at the ": 1144,
      "ood": 1145,
      "Hi": 1146,
      "body ": 1147,
      "x ": 1148,
      "stor": 1149,
      "is.\r\n": 1150,
      "ach": 1151,
      "But": 1152,
      "ie": 1153,
      "man.\r\n": 1154,
      "with the ": 1155,
      "able ": 1156,
      "something ": 1157,
      "There's ": 1158,
      "right.\r\n": 1159,
      " time ": 1160,
      "ool": 1161,
      "ough ": 1162,
      "will": 1163,
      "underst": 1164,
      "way ": 1165,
      "in.\r\n": 1166,
      "I'm not ": 1167,
      "en, ": 1168,
      "into ": 1169,
      "or.\r\n": 1170,
      "ert": 1171,
      "oc": 1172,
      "ment ": 1173,
      "- You ": 1174,
      "down ": 1175,
      "lef": 1176,
      "ret": 1177,
      "use": 1178,
      "Look": 1179,
      "st.\r\n": 1180,
      "now ": 1181,
      " there.\r\n": 1182,
      "I think ": 1183,
      "need to ": 1184,
      "His ": 1185,
      "Lor": 1186,
      "comp": 1187,
      "my": 1188,
      "an.\r\n": 1189,
      "It": 1190,
      "ain ": 1191,
      "a, ": 1192,
      "long": 1193,
      "Ne": 1194,
      "s. ": 1195,
      "bre": 1196,
      " they": 1197,
      "ach ": 1198,
      ", t": 1199,
      "mer": 1200,
      "en the ": 1201,
      "s the ": 1202,
      "Then ": 1203,
      "Now": 1204,
      " these ": 1205,
      "friend": 1206,
      "lat": 1207,
      "ous ": 1208,
      "ed\r\n": 1209,
      "let": 1210,
      " thing": 1211,
      "fam": 1212,
      "kill ": 1213,
      "Jo": 1214,
      "age": 1215,
      "Som": 1216,
      "ree ": 1217,
      "se.\r\n": 1218,
      "kid": 1219,
      "ge ": 1220,
      "ide": 1221,
      "over ": 1222,
      "aybe ": 1223,
      "Who": 1224,
      " those who ": 1225,
      "list": 1226,
      "For": 1227,
      "put ": 1228,
      "man ": 1229,
      "I'm sorr": 1230,
      "chang": 1231,
      "bab": 1232,
      "When ": 1233,
      "well": 1234,
      "err": 1235,
      "What's ": 1236,
      "cor": 1237,
      "alway": 1238,
      "part": 1239,
      "play": 1240,
      "Wa": 1241,
      "fl": 1242,
      "add": 1243,
      " this.\r\n": 1244,
      "ste": 1245,
      "here": 1246,
      "] ": 1247,
      "a t": 1248,
      "plac": 1249,
      "cri": 1250,
      "What?\r\n": 1251,
      "said ": 1252,
      "ve": 1253,
      "after ": 1254,
      " then ": 1255,
      "Te": 1256,
      "--": 1257,
      " them.\r\n": 1258,
      "Mar": 1259,
      "gott": 1260,
      "mak": 1261,
      "help": 1262,
      "ub": 1263,
      "minut": 1264,
      "Come on, ": 1265,
      "need": 1266,
      "Yes, ": 1267,
      "Okay.\r\n": 1268,
      " that?\r\n": 1269,
      "good": 1270,
      "I can ": 1271,
      "name ": 1272,
      ", they ": 1273,
      "Can ": 1274,
      "do not ": 1275,
      "other": 1276,
      "is a ": 1277,
      "cour": 1278,
      "son": 1279,
      "du": 1280,
      "in a ": 1281,
      "ink": 1282,
      "No.\r\n": 1283,
      "ated ": 1284,
      "ch.\r\n": 1285,
      "Okay, ": 1286,
      "one": 1287,
      "Ar": 1288,
      "gl": 1289,
      "I know ": 1290,
      "Did ": 1291,
      "ise ": 1292,
      "have a ": 1293,
      "girl": 1294,
      "right, ": 1295,
      "Thank ": 1296,
      "Let ": 1297,
      "ant ": 1298,
      "jo": 1299,
      "won't ": 1300,
      "ail": 1301,
      "dd": 1302,
      "most ": 1303,
      "call ": 1304,
      "sy": 1305,
      "rect": 1306,
      "does ": 1307,
      "m.\r\n": 1308,
      "doesn't ": 1309,
      "tting ": 1310,
      "here?\r\n": 1311,
      "inv": 1312,
      "its ": 1313,
      "sure": 1314,
      "fucking ": 1315,
      "If you ": 1316,
      "foll": 1317,
      " too ": 1318,
      "much ": 1319,
      "ble ": 1320,
      "Gr": 1321,
      "Lord ": 1322,
      ", this ": 1323,
      "miss": 1324,
      "keep ": 1325,
      "la": 1326,
      "for a ": 1327,
      "ur ": 1328,
      "en't ": 1329,
      "liv": 1330,
      "win": 1331,
      "d\r\n": 1332,
      "rememb": 1333,
      "last ": 1334,
      " than ": 1335,
      "fun": 1336,
      "Now ": 1337,
      "sign": 1338,
      "they ": 1339,
      "..\r\n": 1340,
      "know, ": 1341,
      "col": 1342,
      "do.\r\n": 1343,
      "ance ": 1344,
      "ry": 1345,
      "ult": 1346,
      "ho": 1347,
      "her.\r\n": 1348,
      "Pro": 1349,
      "mat": 1350,
      "head": 1351,
      "back.\r\n": 1352,
      "I'm": 1353,
      "fil": 1354,
      "every ": 1355,
      "ing\r\n": 1356,
      "plan": 1357,
      "Lo": 1358,
      "day.\r\n": 1359,
      "know.\r\n": 1360,
      " two ": 1361,
      "They're ": 1362,
      "cha": 1363,
      "always ": 1364,
      "'\r\n": 1365,
      "app": 1366,
      "ish ": 1367,
      "ict": 1368,
      "gg": 1369,
      "ig ": 1370,
      "Yes": 1371,
      "pow": 1372,
      "lov": 1373,
      "very": 1374,
      "doing ": 1375,
      "ation.\r\n": 1376,
      "urn ": 1377,
      "move ": 1378,
      "start": 1379,
      "I can't ": 1380,
      "Li": 1381,
      " the s": 1382,
      "ely ": 1383,
      "alread": 1384,
      "leave ": 1385,
      "dat": 1386,
      "ask ": 1387,
      "okay?\r\n": 1388,
      "off ": 1389,
      "riv": 1390,
      "er?\r\n": 1391,
      "famil": 1392,
      "ek": 1393,
      "ers.\r\n": 1394,
      " told ": 1395,
      " that you ": 1396,
      "what you ": 1397,
      "star": 1398,
      "ext": 1399,
      "ion\r\n": 1400,
      "quest": 1401,
      "O ": 1402,
      "is not ": 1403,
      "Can": 1404,
      "aut": 1405,
      "ase.\r\n": 1406,
      "fre": 1407,
      "believ": 1408,
      " tak": 1409,
      "diff": 1410,
      "nex": 1411,
      "did you ": 1412,
      "chil": 1413,
      "bet": 1414,
      ", \"": 1415,
      "sir.\r\n": 1416,
      "new": 1417,
      "ies ": 1418,
      "arr": 1419,
      "ard ": 1420,
      "hur": 1421,
      "to": 1422,
      "away ": 1423,
      "son ": 1424,
      "Hell": 1425,
      "down.\r\n": 1426,
      "e the ": 1427,
      "th.\r\n": 1428,
      "job": 1429,
      "first ": 1430,
      "work ": 1431,
      "came ": 1432,
      "don't": 1433,
      "secon": 1434,
      "Every": 1435,
      "sur": 1436,
      "wom": 1437,
      "hell ": 1438,
      "Br": 1439,
      "- S": 1440,
      "ess.\r\n": 1441,
      "ash": 1442,
      ", we ": 1443,
      "ue ": 1444,
      "To": 1445,
      "a lo": 1446,
      "Look ": 1447,
      "here, ": 1448,
      "Lord": 1449,
      "ick ": 1450,
      "Tr": 1451,
      "how": 1452,
      "kind ": 1453,
      " to be ": 1454,
      "Do": 1455,
      "IN": 1456,
      ": %s\r\n": 1457,
      "at.\r\n": 1458,
      "fac": 1459,
      "To ": 1460,
      "ine ": 1461,
      "stop": 1462,
      "Go ": 1463,
      "We have ": 1464,
      "Take ": 1465,
      "Please ": 1466,
      "Our ": 1467,
      "I just ": 1468,
      "ar.\r\n": 1469,
      "key": 1470,
      "ence ": 1471,
      "I will ": 1472,
      "Ev": 1473,
      "ort": 1474,
      "le.\r\n": 1475,
      "vis": 1476,
      "being ": 1477,
      "numb": 1478,
      "wer": 1479,
      "ning ": 1480,
      "place ": 1481,
      "Ro": 1482,
      "a little ": 1483,
      "able": 1484,
      "Qu": 1485,
      "exc": 1486,
      "might ": 1487,
      "prom": 1488,
      "yeah": 1489,
      "I'd ": 1490,
      "file ": 1491,
      "In ": 1492,
      " try": 1493,
      "und": 1494,
      " thought ": 1495,
      "am.\r\n": 1496,
      "s in ": 1497,
      "Bl": 1498,
      "- What ": 1499,
      "no, ": 1500,
      "ful ": 1501,
      "life ": 1502,
      "Come on.\r\n": 1503,
      ", that's ": 1504,
      "wrong": 1505,
      "I mean": 1506,
      "Because ": 1507,
      "ing for ": 1508,
      "ak ": 1509,
      "Is ": 1510,
      "inter": 1511,
      "Could ": 1512,
      "sin": 1513,
      "into": 1514,
      "ed?\r\n": 1515,
      "me!\r\n": 1516,
      "oo.\r\n": 1517,
      "I got ": 1518,
      "%s ": 1519,
      "many ": 1520,
      "put": 1521,
      "fr": 1522,
      ", that ": 1523,
      "proble": 1524,
      "cam": 1525,
      "gun": 1526,
      "itch": 1527,
      "sho": 1528,
      "'%s": 1529,
      "another ": 1530,
      "She's ": 1531,
      "One ": 1532,
      "- H": 1533,
      "ation\r\n": 1534,
      "de ": 1535,
      "cap": 1536,
      "ef": 1537,
      "Pr": 1538,
      "hop": 1539,
      "u ": 1540,
      "dest": 1541,
      "ject": 1542,
      "again.\r\n": 1543,
      "red ": 1544,
      "n't": 1545,
      "select": 1546,
      "I'm gonna ": 1547,
      "Ma": 1548,
      " this?\r\n": 1549,
      "ly.\r\n": 1550,
      "alk ": 1551,
      "me to ": 1552,
      "char": 1553,
      "ye": 1554,
      "able to ": 1555,
      "gotta ": 1556,
      "air": 1557,
      "Good ": 1558,
      "understand": 1559,
      "file": 1560,
      "feel ": 1561,
      "long ": 1562,
      "y. ": 1563,
      "sk": 1564,
      "land": 1565,
      "o, ": 1566,
      "es?\r\n": 1567,
      "hear ": 1568,
      "found ": 1569,
      "So, ": 1570,
      " time.\r\n": 1571,
      "dev": 1572,
      "For ": 1573,
      "You are ": 1574,
      "ice.\r\n": 1575,
      "ener": 1576,
      "It was ": 1577,
      "ity.\r\n": 1578,
      "ow.\r\n": 1579,
      "bus": 1580,
      "good.\r\n": 1581,
      "getting ": 1582,
      "heav": 1583,
      "without ": 1584,
      "all the ": 1585,
      "pect": 1586,
      "self ": 1587,
      "er of ": 1588,
      "List": 1589,
      "I w": 1590,
      "stay ": 1591,
      "it was ": 1592,
      "'t.\r\n": 1593,
      "save ": 1594,
      "aught": 1595,
      "iful": 1596,
      "om.\r\n": 1597,
      "feel": 1598,
      "care ": 1599,
      "d, ": 1600,
      "Give ": 1601,
      "point": 1602,
      "ide ": 1603,
      "or\r\n": 1604,
      "Pre": 1605,
      "anything ": 1606,
      "wanna ": 1607,
      "s for ": 1608,
      "differ": 1609,
      "Ad": 1610,
      "te": 1611,
      "side ": 1612,
      "all.\r\n": 1613,
      "leav": 1614,
      "lock": 1615,
      "s like ": 1616,
      "ing a ": 1617,
      "& ": 1618,
      "h, ": 1619,
      "swe": 1620,
      "Op": 1621,
      "men ": 1622,
      " the b": 1623,
      "1 ": 1624,
      "hou": 1625,
      "self.\r\n": 1626,
      "Have ": 1627,
      "mm": 1628,
      "You know ": 1629,
      "what?\r\n": 1630,
      " tri": 1631,
      "selv": 1632,
      "better ": 1633,
      "I didn't ": 1634,
      "Gu": 1635,
      "cut": 1636,
      "ate": 1637,
      "cra": 1638,
      "vers": 1639,
      "ange": 1640,
      "already ": 1641,
      "'ll be ": 1642,
      "let's ": 1643,
      ", then ": 1644,
      "night": 1645,
      "Ver": 1646,
      "nect": 1647,
      "Maybe ": 1648,
      "oot": 1649,
      "Gre": 1650,
      "Wi": 1651,
      "not be ": 1652,
      "Sorr": 1653,
      "coming ": 1654,
      "set ": 1655,
      "ept": 1656,
      "Some": 1657,
      "ary ": 1658,
      "ept ": 1659,
      "nor": 1660,
      "hon": 1661,
      "ire ": 1662,
      "while ": 1663,
      "follow": 1664,
      "men": 1665,
      "sch": 1666,
      ", and": 1667,
      "isn't ": 1668,
      "a!\r\n": 1669,
      "people": 1670,
      "opt": 1671,
      "in this ": 1672,
      "wait": 1673,
      "dec": 1674,
      "betwe": 1675,
      "shi": 1676,
      "Fr": 1677,
      "ime ": 1678,
      "sl": 1679,
      "after": 1680,
      "cal": 1681,
      "show ": 1682,
      "ye ": 1683,
      "up!\r\n": 1684,
      "great ": 1685,
      "Bo": 1686,
      "you've ": 1687,
      "New ": 1688,
      " toge": 1689,
      "e that": 1690,
      "sent ": 1691,
      "in your ": 1692,
      "something": 1693,
      "when": 1694,
      "okay.\r\n": 1695,
      "each ": 1696,
      "gave ": 1697,
      "ing!\r\n": 1698,
      "ath ": 1699,
      "stu": 1700,
      "kind of ": 1701,
      "sm": 1702,
      "ist ": 1703,
      "heart": 1704,
      "pun": 1705,
      "yp": 1706,
      "Col": 1707,
      "vie": 1708,
      "Ke": 1709,
      "show": 1710,
      "saf": 1711,
      "val": 1712,
      "eas": 1713,
      "it is ": 1714,
      "k.\r\n": 1715,
      "Ab": 1716,
      "high": 1717,
      "♪ ": 1718,
      " tell": 1719,
      "speci": 1720,
      "ight.\r\n": 1721,
      "inn": 1722,
      "sist": 1723,
      "All right, ": 1724,
      "pon": 1725,
      "buil": 1726,
      "pri": 1727,
      "mess": 1728,
      "es to ": 1729,
      "je": 1730,
      "inde": 1731,
      "en to ": 1732,
      "ale": 1733,
      "You don't ": 1734,
      "vel": 1735,
      "believer": 1736,
      "ific": 1737,
      " thou": 1738,
      "of your ": 1739,
      "port ": 1740,
      "someone ": 1741,
      "guys ": 1742,
      "loc": 1743,
      "sle": 1744,
      "]\r\n": 1745,
      " thing ": 1746,
      "serv": 1747,
      "Fa": 1748,
      "you can ": 1749,
      "direct": 1750,
      "you are ": 1751,
      "bring ": 1752,
      "Ed": 1753,
      "count": 1754,
      "stop ": 1755,
      "sub": 1756,
      "are": 1757,
      "see": 1758,
      " tru": 1759,
      " they're ": 1760,
      " turn": 1761,
      "reas": 1762,
      "- M": 1763,
      "them ": 1764,
      "Did you ": 1765,
      "you think ": 1766,
      "ure.\r\n": 1767,
      "cop": 1768,
      "Hel": 1769,
      "light": 1770,
      "Tell ": 1771,
      "# ": 1772,
      "dam": 1773,
      "y's ": 1774,
      "Where": 1775,
      "of a ": 1776,
      "return": 1777,
      "Pl": 1778,
      "Show ": 1779,
      "ens": 1780,
      "set": 1781,
      "go, ": 1782,
      "order": 1783,
      "ed in ": 1784,
      "got to ": 1785,
      "play ": 1786,
      "such ": 1787,
      "That": 1788,
      "you!\r\n": 1789,
      "whole ": 1790,
      "left ": 1791,
      "Er": 1792,
      "hour": 1793,
      "fer": 1794,
      "possi": 1795,
      "sol": 1796,
      "nothing ": 1797,
      "by the ": 1798,
      "pass": 1799,
      "rec": 1800,
      "beh": 1801,
      "cert": 1802,
      "ship": 1803,
      "ve.\r\n": 1804,
      "med": 1805,
      "enough": 1806,
      "hell": 1807,
      "saw ": 1808,
      "Could not ": 1809,
      ": \"": 1810,
      "around ": 1811,
      "curr": 1812,
      "meet ": 1813,
      "Exc": 1814,
      "ating ": 1815,
      "Che": 1816,
      "a?\r\n": 1817,
      "live ": 1818,
      "Amer": 1819,
      "ull": 1820,
      "what's ": 1821,
      "pose": 1822,
      "uh?\r\n": 1823,
      "father": 1824,
      "What the ": 1825,
      "omorr": 1826,
      "OK": 1827,
      "ical ": 1828,
      "ze ": 1829,
      "them": 1830,
      "fight": 1831,
      "on?\r\n": 1832,
      "age.\r\n": 1833,
      "S ": 1834,
      "everything ": 1835,
      "Americ": 1836,
      "I thought ": 1837,
      "away": 1838,
      "sav": 1839,
      "world ": 1840,
      "idd": 1841,
      "Of ": 1842,
      "plet": 1843,
      "bar": 1844,
      "As ": 1845,
      "If": 1846,
      "hu": 1847,
      "lear": 1848,
      "killed ": 1849,
      "-- ": 1850,
      "actu": 1851,
      "daught": 1852,
      "ition": 1853,
      "oup": 1854,
      "ers": 1855,
      "up, ": 1856,
      "best ": 1857,
      "ult ": 1858,
      "prett": 1859,
      "guy ": 1860,
      "Po": 1861,
      "real ": 1862,
      "seen ": 1863,
      "you were ": 1864,
      "in' ": 1865,
      "less ": 1866,
      "dar": 1867,
      "ass ": 1868,
      "word": 1869,
      "Sir": 1870,
      "Let me ": 1871,
      "Per": 1872,
      "keep": 1873,
      "Joh": 1874,
      "Dis": 1875,
      "ous.\r\n": 1876,
      "ros": 1877,
      "done ": 1878,
      "Please": 1879,
      "adi": 1880,
      "ool ": 1881,
      "world": 1882,
      "years ": 1883,
      "Or ": 1884,
      "dre": 1885,
      "Man": 1886,
      "no.\r\n": 1887,
      "act ": 1888,
      "in my ": 1889,
      "er!\r\n": 1890,
      ", it's ": 1891,
      "; and ": 1892,
      "Sha": 1893,
      "both ": 1894,
      "cc": 1895,
      "it to ": 1896,
      "az": 1897,
      "on!\r\n": 1898,
      "Pe": 1899,
      "end.\r\n": 1900,
      "I can": 1901,
      " trying to ": 1902,
      "Im": 1903,
      "It's not ": 1904,
      "ang ": 1905,
      "I want ": 1906,
      "of this ": 1907,
      " through": 1908,
      "You've ": 1909,
      "boy": 1910,
      "pris": 1911,
      "about the ": 1912,
      "arm": 1913,
      "na": 1914,
      "? - ": 1915,
      "are you?\r\n": 1916,
      "back to ": 1917,
      "have been ": 1918,
      "ld.\r\n": 1919,
      "int ": 1920,
      "used to ": 1921,
      "she's ": 1922,
      "ink ": 1923,
      "y the ": 1924,
      "life.\r\n": 1925,
      "I need ": 1926,
      "P ": 1927,
      "pat": 1928,
      "connect": 1929,
      "Dad": 1930,
      "Par": 1931,
      "find": 1932,
      "ed by ": 1933,
      "s that ": 1934,
      "please": 1935,
      "You can ": 1936,
      "a good ": 1937,
      "s, and ": 1938,
      "craz": 1939,
      "ik": 1940,
      "E ": 1941,
      "Ser": 1942,
      "hal": 1943,
      "bor": 1944,
      "I don't know ": 1945,
      "beaut": 1946,
      "inst": 1947,
      "do?\r\n": 1948,
      "We'll ": 1949,
      "open ": 1950,
      "great": 1951,
      "fire": 1952,
      "inform": 1953,
      "5 ": 1954,
      "more.\r\n": 1955,
      "rid": 1956,
      "cat": 1957,
      "gam": 1958,
      "with a ": 1959,
      "also ": 1960,
      "gin": 1961,
      "mom": 1962,
      "n.\r\n": 1963,
      "Mon": 1964,
      "few ": 1965,
      "I love ": 1966,
      "older": 1967,
      "ING": 1968,
      "wasn't ": 1969,
      "home.\r\n": 1970,
      "mean ": 1971,
      "week": 1972,
      "Now, ": 1973,
      "AR": 1974,
      "wo": 1975,
      "ond": 1976,
      "looking ": 1977,
      "Err": 1978,
      "as a ": 1979,
      "are.\r\n": 1980,
      "has been ": 1981,
      "ble.\r\n": 1982,
      "tect": 1983,
      "thing to ": 1984,
      "dri": 1985,
      "You have ": 1986,
      "word ": 1987,
      "come to ": 1988,
      "gonna be ": 1989,
      "it. ": 1990,
      "fuck ": 1991,
      "ings ": 1992,
      "It's a ": 1993,
      "sage": 1994,
      "ood.\r\n": 1995,
      "first": 1996,
      "Mess": 1997,
      "here!\r\n": 1998,
      "ly, ": 1999,
      "Don": 2000,
      "sou": 2001,
      "scar": 2002,
      "Any": 2003,
      "head ": 2004,
      "Hey.\r\n": 2005,
      "ext ": 2006,
      "Cap": 2007,
      "How": 2008,
      "not.\r\n": 2009,
      "hat.\r\n": 2010,
      "e, and ": 2011,
      "same ": 2012,
      "I'll": 2013,
      "you have ": 2014,
      "father ": 2015,
      "against ": 2016,
      "only": 2017,
      "cli": 2018,
      "inc": 2019,
      "bel": 2020,
      "next ": 2021,
      "Move ": 2022,
      "figu": 2023,
      "leg": 2024,
      "en?\r\n": 2025,
      "this": 2026,
      "Thank": 2027,
      "ents ": 2028,
      "go!\r\n": 2029,
      "ound.\r\n": 2030,
      "ry.\r\n": 2031,
      "contro": 2032,
      "used ": 2033,
      "It is ": 2034,
      "you and ": 2035,
      "wif": 2036,
      "Mis": 2037,
      "es the ": 2038,
      "window": 2039,
      "stand": 2040,
      "now?\r\n": 2041,
      "fect": 2042,
      "I'm sorry.\r\n": 2043,
      "into the ": 2044,
      "Of cour": 2045,
      "bir": 2046,
      "hum": 2047,
      "Wor": 2048,
      "2 ": 2049,
      "Car": 2050,
      "Say": 2051,
      "son.\r\n": 2052,
      "What do you ": 2053,
      "ance.\r\n": 2054,
      "are the ": 2055,
      "cho": 2056,
      "mother": 2057,
      "e-": 2058,
      "called ": 2059,
      "Like ": 2060,
      "stat": 2061,
      "i.\r\n": 2062,
      "knew ": 2063,
      "start ": 2064,
      "he was ": 2065,
      "heard ": 2066,
      "guid": 2067,
      "et.\r\n": 2068,
      "full": 2069,
      "now, ": 2070,
      "upon ": 2071,
      "lost ": 2072,
      "00 ": 2073,
      "fine.\r\n": 2074,
      "dro": 2075,
      "These ": 2076,
      "fav": 2077,
      "a f": 2078,
      "pi": 2079,
      "had": 2080,
      "what I ": 2081,
      " ton": 2082,
      "wit": 2083,
      "promis": 2084,
      "brother": 2085,
      "appe": 2086,
      "on\r\n": 2087,
      "like to ": 2088,
      "ses ": 2089,
      "ens ": 2090,
      "- No": 2091,
      "night ": 2092,
      "Char": 2093,
      "se, ": 2094,
      "oot ": 2095,
      "complet": 2096,
      "nor ": 2097,
      "him?\r\n": 2098,
      "sing ": 2099,
      "until ": 2100,
      "tr": 2101,
      "ap ": 2102,
      "maybe ": 2103,
      "Those ": 2104,
      "mot": 2105,
      "eni": 2106,
      "knows ": 2107,
      "off.\r\n": 2108,
      "ally": 2109,
      "led": 2110,
      "I told ": 2111,
      "ain.\r\n": 2112,
      "What are you ": 2113,
      "check": 2114,
      "ere.\r\n": 2115,
      "morn": 2116,
      "ment.\r\n": 2117,
      "than ": 2118,
      "scre": 2119,
      "you'll ": 2120,
      "ari": 2121,
      "- B": 2122,
      "ici": 2123,
      "even": 2124,
      "that ": 2125,
      "sc": 2126,
      "Excuse ": 2127,
      " turn ": 2128,
      "pretty ": 2129,
      "something.\r\n": 2130,
      "oper": 2131,
      "should be ": 2132,
      "ilit": 2133,
      "ing to": 2134,
      " the tru": 2135,
      "line ": 2136,
      "dou": 2137,
      "es!\r\n": 2138,
      "destro": 2139,
      "Oh ": 2140,
      "she": 2141,
      "exp": 2142,
      "on your ": 2143,
      "life": 2144,
      "Look, ": 2145,
      "essage": 2146,
      "for you.\r\n": 2147,
      "must be ": 2148,
      "Hey!\r\n": 2149,
      "remember ": 2150,
      "busin": 2151,
      "ty ": 2152,
      "You know": 2153,
      "Cre": 2154,
      "prov": 2155,
      ", this is ": 2156,
      "away.\r\n": 2157,
      "stri": 2158,
      "10": 2159,
      "Him": 2160,
      "t\r\n": 2161,
      "”\r\n": 2162,
      "ris": 2163,
      "lose ": 2164,
      "Right": 2165,
      "ory ": 2166,
      "seem": 2167,
      "become ": 2168,
      " there's ": 2169,
      ".. ": 2170,
      "empt": 2171,
      "creat": 2172,
      "ship ": 2173,
      "You know, ": 2174,
      "ain't ": 2175,
      "an, ": 2176,
      "if I ": 2177,
      "won": 2178,
      "lect ": 2179,
      " tou": 2180,
      ").\r\n": 2181,
      "Res": 2182,
      "does not ": 2183,
      "of them ": 2184,
      "import": 2185,
      ". I ": 2186,
      "Keep ": 2187,
      "run ": 2188,
      "un ": 2189,
      "we can ": 2190,
      "x.\r\n": 2191,
      "on a ": 2192,
      " three ": 2193,
      "sear": 2194,
      "ident": 2195,
      "would be ": 2196,
      "ally, ": 2197,
      " talking ": 2198,
      "home ": 2199,
      "o\r\n": 2200,
      "- I'm ": 2201,
      "beautiful": 2202,
      "ann": 2203,
      "... and ": 2204,
      "when you ": 2205,
      "suppose": 2206,
      "known ": 2207,
      "mind": 2208,
      "second": 2209,
      "exact": 2210,
      "dead.\r\n": 2211,
      "please.\r\n": 2212,
      "Is that ": 2213,
      "\"%s": 2214,
      "afra": 2215,
      "- It's ": 2216,
      "Cont": 2217,
      "punish": 2218,
      "Spe": 2219,
      "got a ": 2220,
      "matt": 2221,
      "haven't ": 2222,
      "Af": 2223,
      "watch": 2224,
      " this is ": 2225,
      "ate.\r\n": 2226,
      "wrong ": 2227,
      "much": 2228,
      "ush": 2229,
      " through ": 2230,
      "Me": 2231,
      "hold ": 2232,
      "luck": 2233,
      "rist": 2234,
      "well ": 2235,
      "ce.\r\n": 2236,
      "respon": 2237,
      "er than ": 2238,
      "ither ": 2239,
      "b ": 2240,
      "Can you ": 2241,
      "We've ": 2242,
      "wanted to ": 2243,
      " thre": 2244,
      "lice ": 2245,
      "secre": 2246,
      "s of the ": 2247,
      "alid ": 2248,
      "big ": 2249,
      "us, ": 2250,
      "earth": 2251,
      "Whe": 2252,
      "ward": 2253,
      "D ": 2254,
      "ump": 2255,
      "it\r\n": 2256,
      "light ": 2257,
      "Wat": 2258,
      "hor": 2259,
      "ham": 2260,
      "law": 2261,
      "We are ": 2262,
      "anyone ": 2263,
      "between ": 2264,
      "brought ": 2265,
      "huh?\r\n": 2266,
      "of my ": 2267,
      "--\r\n": 2268,
      "one, ": 2269,
      "- Oh, ": 2270,
      " took ": 2271,
      "break": 2272,
      "since ": 2273,
      "AN": 2274,
      "e to the ": 2275,
      "couldn't ": 2276,
      "around": 2277,
      "What is ": 2278,
      "e...\r\n": 2279,
      "t, ": 2280,
      "person": 2281,
      "command": 2282,
      "question": 2283,
      "lad": 2284,
      "I'll be ": 2285,
      "work.\r\n": 2286,
      "you think": 2287,
      "ed a ": 2288,
      "log": 2289,
      "dead ": 2290,
      "ent\r\n": 2291,
      "ign": 2292,
      "coll": 2293,
      "doing?\r\n": 2294,
      "It's": 2295,
      "meet": 2296,
      "open": 2297,
      "childr": 2298,
      "Here ": 2299,
      "last": 2300,
      "I want to ": 2301,
      "month": 2302,
      "Sp": 2303,
      "stay": 2304,
      "seri": 2305,
      "ER": 2306,
      "Su": 2307,
      "we'll ": 2308,
      "/ ": 2309,
      "key ": 2310,
      "else ": 2311,
      "please ": 2312,
      " there?\r\n": 2313,
      " that they ": 2314,
      " tell me ": 2315,
      "older ": 2316,
      "fron": 2317,
      "view": 2318,
      "ence.\r\n": 2319,
      "is no ": 2320,
      "Mor": 2321,
      "faile": 2322,
      "where": 2323,
      "go to ": 2324,
      "shit.\r\n": 2325,
      "Inde": 2326,
      " that, ": 2327,
      "get the ": 2328,
      "Whi": 2329,
      "load": 2330,
      "like a ": 2331,
      "understand ": 2332,
      "you. ": 2333,
      "As": 2334,
      "bad ": 2335,
      "Error ": 2336,
      ", there ": 2337,
      "cover": 2338,
      "And the ": 2339,
      "cript": 2340,
      "ding ": 2341,
      "I know": 2342,
      " talk to ": 2343,
      "I could ": 2344,
      "exist": 2345,
      "ner": 2346,
      "whom ": 2347,
      "change ": 2348,
      " trans": 2349,
      " there, ": 2350,
      "makes ": 2351,
      "Mer": 2352,
      "could": 2353,
      "send ": 2354,
      "I mean, ": 2355,
      "s in the ": 2356,
      "ed with ": 2357,
      "Mom": 2358,
      "path": 2359,
      "ed for ": 2360,
      "him, ": 2361,
      "bit": 2362,
      "fai": 2363,
      "No, no, ": 2364,
      "-\r\n": 2365,
      "ness ": 2366,
      "friend ": 2367,
      "been": 2368,
      "ful.\r\n": 2369,
      "lead": 2370,
      "walk": 2371,
      "rat": 2372,
      "ing you ": 2373,
      "abo": 2374,
      "fault ": 2375,
      "surely ": 2376,
      "amp": 2377,
      "night.\r\n": 2378,
      "?\"\r\n": 2379,
      "The": 2380,
      " them, ": 2381,
      "selected ": 2382,
      "Dam": 2383,
      "mill": 2384,
      "book": 2385,
      "clear": 2386,
      "Co": 2387,
      "ck.\r\n": 2388,
      "cannot ": 2389,
      "ine.\r\n": 2390,
      "Hold ": 2391,
      "cer": 2392,
      "mag": 2393,
      "people.\r\n": 2394,
      "marri": 2395,
      "bably ": 2396,
      "ai": 2397,
      "five ": 2398,
      "death": 2399,
      "fort": 2400,
      "ed and ": 2401,
      "all right?\r\n": 2402,
      "%1": 2403,
      "Fe": 2404,
      "led ": 2405,
      "day, ": 2406,
      "ber": 2407,
      "was the ": 2408,
      "dra": 2409,
      "less": 2410,
      "supposed to ": 2411,
      "al\r\n": 2412,
      "be.\r\n": 2413,
      "fact": 2414,
      " things ": 2415,
      "fight ": 2416,
      "their ": 2417,
      "are you": 2418,
      "ant.\r\n": 2419,
      "cent": 2420,
      "mark": 2421,
      "found": 2422,
      " talk ": 2423,
      "weap": 2424,
      "Allah is ": 2425,
      "Cl": 2426,
      "es. ": 2427,
      "said, ": 2428,
      "Or": 2429,
      "Not": 2430,
      "what they ": 2431,
      "Act": 2432,
      "rest": 2433,
      "stre": 2434,
      "Day ": 2435,
      "Just": 2436,
      "sen": 2437,
      "es and ": 2438,
      "out of the ": 2439,
      "drink": 2440,
      "Will ": 2441,
      "ing me ": 2442,
      "dead": 2443,
      "Fuck": 2444,
      "ster": 2445,
      "ount ": 2446,
      " tomorr": 2447,
      "ity": 2448,
      "I've been ": 2449,
      "ili": 2450,
      "y and ": 2451,
      "Stay ": 2452,
      "mone": 2453,
      "e and ": 2454,
      "cell": 2455,
      "Fl": 2456,
      "um ": 2457,
      "Do not ": 2458,
      "cum": 2459,
      "s...\r\n": 2460,
      "me\r\n": 2461,
      "out!\r\n": 2462,
      "g.\r\n": 2463,
      "addres": 2464,
      "reg": 2465,
      "is, ": 2466,
      "youn": 2467,
      "l.\r\n": 2468,
      "hold": 2469,
      "earth ": 2470,
      "speak": 2471,
      "dang": 2472,
      "hous": 2473,
      "create ": 2474,
      "Bar": 2475,
      "expect": 2476,
      "let me ": 2477,
      "- We ": 2478,
      "Capt": 2479,
      "With ": 2480,
      "ok": 2481,
      "stem": 2482,
      "ily ": 2483,
      "we have ": 2484,
      "full ": 2485,
      "Jes": 2486,
      "Sy": 2487,
      "He was ": 2488,
      "anything": 2489,
      "girl ": 2490,
      "hope ": 2491,
      "did.\r\n": 2492,
      "Ca": 2493,
      "pack": 2494,
      " ter": 2495,
      "be t": 2496,
      "Stop ": 2497,
      "able.\r\n": 2498,
      "face ": 2499,
      "From": 2500,
      "given ": 2501,
      "Cannot ": 2502,
      "went ": 2503,
      "Which ": 2504,
      "ool.\r\n": 2505,
      "ab ": 2506,
      "bull": 2507,
      "wind": 2508,
      "care": 2509,
      "wouldn't ": 2510,
      "under ": 2511,
      "e that.\r\n": 2512,
      "or, ": 2513,
      "on my ": 2514,
      "You'll ": 2515,
      "Give me ": 2516,
      "Messeng": 2517,
      "Dav": 2518,
      "er's ": 2519,
      "Open ": 2520,
      "ject ": 2521,
      ". You ": 2522,
      "Cop": 2523,
      "insid": 2524,
      "cu": 2525,
      "I don't": 2526,
      ", too.\r\n": 2527,
      "Good": 2528,
      "requ": 2529,
      "among": 2530,
      "read ": 2531,
      "L ": 2532,
      "Mast": 2533,
      "fear ": 2534,
      "has": 2535,
      "allow": 2536,
      "ele": 2537,
      "hun": 2538,
      "hit ": 2539,
      "- That's ": 2540,
      "ions\r\n": 2541,
      "igg": 2542,
      "friend.\r\n": 2543,
      "wait ": 2544,
      "a new ": 2545,
      "- Yeah": 2546,
      "les ": 2547,
      "Stop": 2548,
      "shall be ": 2549,
      "is that ": 2550,
      "ic.\r\n": 2551,
      "over.\r\n": 2552,
      "phe": 2553,
      "♪\r\n": 2554,
      "Nor": 2555,
      "e:\r\n": 2556,
      "pay": 2557,
      "once ": 2558,
      "prof": 2559,
      "Jack": 2560,
      "- The ": 2561,
      " to take ": 2562,
      "wel": 2563,
      "the t": 2564,
      "oose ": 2565,
      "I think": 2566,
      "ction ": 2567,
      "ally.\r\n": 2568,
      "one of ": 2569,
      "head.\r\n": 2570,
      "4 ": 2571,
      "you\r\n": 2572,
      "aint": 2573,
      "right now.\r\n": 2574,
      "I'm going to ": 2575,
      "This is the ": 2576,
      "posit": 2577,
      " tra": 2578,
      "with your ": 2579,
      "ell": 2580,
      "aj": 2581,
      "ange ": 2582,
      "bi": 2583,
      "an\r\n": 2584,
      "room": 2585,
      " that the ": 2586,
      "Fir": 2587,
      "what happen": 2588,
      "family ": 2589,
      "ying ": 2590,
      "ori": 2591,
      "ion, ": 2592,
      "ime.\r\n": 2593,
      "pray": 2594,
      "pu": 2595,
      "ed you ": 2596,
      "vill": 2597,
      "current ": 2598,
      "er and ": 2599,
      " trust ": 2600,
      "not the ": 2601,
      "him!\r\n": 2602,
      "I had ": 2603,
      "ick.\r\n": 2604,
      "vo": 2605,
      "you'd ": 2606,
      "iti": 2607,
      "shit ": 2608,
      "He is ": 2609,
      "would have ": 2610,
      "problem": 2611,
      "3 ": 2612,
      "Uh": 2613,
      "auth": 2614,
      "Use ": 2615,
      "message": 2616,
      "fast": 2617,
      "sor": 2618,
      "spo": 2619,
      "Him ": 2620,
      "actually ": 2621,
      "liver": 2622,
      "man, ": 2623,
      ", I don't ": 2624,
      "ing that ": 2625,
      "comes ": 2626,
      "el.\r\n": 2627,
      "power": 2628,
      "gener": 2629,
      "id.\r\n": 2630,
      "here to ": 2631,
      "money ": 2632,
      "Get": 2633,
      " tell you ": 2634,
      "sleep": 2635,
      "pas": 2636,
      "this.\r\n": 2637,
      "s you ": 2638,
      "That was ": 2639,
      "which": 2640,
      "protect": 2641,
      "ani": 2642,
      "ing and ": 2643,
      "e's ": 2644,
      "\".\r\n": 2645,
      "Ge": 2646,
      "ing this ": 2647,
      "die ": 2648,
      "certain": 2649,
      "die.\r\n": 2650,
      "we've ": 2651,
      "Be ": 2652,
      "sim": 2653,
      "give me ": 2654,
      "would": 2655,
      "have you ": 2656,
      "Save ": 2657,
      "ed!\r\n": 2658,
      "down!\r\n": 2659,
      "had to ": 2660,
      "Pres": 2661,
      "mur": 2662,
      "alt": 2663,
      "Have you ": 2664,
      "far ": 2665,
      "le\r\n": 2666,
      "should": 2667,
      "pur": 2668,
      "d of ": 2669,
      "Em": 2670,
      "evil ": 2671,
      " trou": 2672,
      "ype ": 2673,
      "se?\r\n": 2674,
      "world.\r\n": 2675,
      "An ": 2676,
      "And you ": 2677,
      "whatever ": 2678,
      "Christ": 2679,
      "ug": 2680,
      "pit": 2681,
      "art ": 2682,
      "- You're ": 2683,
      "memor": 2684,
      "sed": 2685,
      "own.\r\n": 2686,
      "gent": 2687,
      "erest": 2688,
      "belong": 2689,
      "– ": 2690,
      "in, ": 2691,
      "kind": 2692,
      "ed. ": 2693,
      "God.\r\n": 2694,
      "See ": 2695,
      "Sure": 2696,
      "heart ": 2697,
      "Faile": 2698,
      "cut ": 2699,
      "hap": 2700,
      "imag": 2701,
      "ness": 2702,
      "pan": 2703,
      "sett": 2704,
      "eg": 2705,
      "hard": 2706,
      "one's ": 2707,
      "how to ": 2708,
      "alo": 2709,
      "a/": 2710,
      "pay ": 2711,
      "now!\r\n": 2712,
      "Where's ": 2713,
      "exactly ": 2714,
      "Here": 2715,
      "police ": 2716,
      "place.\r\n": 2717,
      "I have to ": 2718,
      "adv": 2719,
      "bad": 2720,
      "gra": 2721,
      "wis": 2722,
      "stup": 2723,
      "Key": 2724,
      "ash ": 2725,
      "probably ": 2726,
      "hard ": 2727,
      "Don't": 2728,
      "sw": 2729,
      "Shut ": 2730,
      "when the ": 2731,
      "What happen": 2732,
      "s:\r\n": 2733,
      "ric": 2734,
      "working ": 2735,
      "driv": 2736,
      ".”\r\n": 2737,
      "nat": 2738,
      "be a ": 2739,
      "Select ": 2740,
      "fut": 2741,
      "em ": 2742,
      "en\r\n": 2743,
      "And I ": 2744,
      "don't you ": 2745,
      "dream": 2746,
      "- A": 2747,
      "with you.\r\n": 2748,
      "Bro": 2749,
      "cess": 2750,
      "with me.\r\n": 2751,
      "Hey": 2752,
      "guess ": 2753,
      "Make ": 2754,
      "roll": 2755,
      "Mu": 2756,
      "folder": 2757,
      "those ": 2758,
      "will not ": 2759,
      "do it.\r\n": 2760,
      "valu": 2761,
      "one?\r\n": 2762,
      "You can't ": 2763,
      "- C": 2764,
      "ag ": 2765,
      "Har": 2766,
      "pa": 2767,
      "Right ": 2768,
      "vir": 2769,
      "door": 2770,
      "about?\r\n": 2771,
      "eat ": 2772,
      "know?\r\n": 2773,
      "butt": 2774,
      "human ": 2775,
      "board ": 2776,
      "support": 2777,
      "uck ": 2778,
      "they": 2779,
      "- No, ": 2780,
      "suff": 2781,
      "ed to": 2782,
      "Only ": 2783,
      "mou": 2784,
      "rece": 2785,
      "docum": 2786,
      ", to ": 2787,
      "ions ": 2788,
      "what is ": 2789,
      "yeah.\r\n": 2790,
      "Wel": 2791,
      "least ": 2792,
      "gets ": 2793,
      "al, ": 2794,
      "writ": 2795,
      "stem ": 2796,
      "ing your ": 2797,
      "medi": 2798,
      "- Yeah, ": 2799,
      "have the ": 2800,
      "anything.\r\n": 2801,
      "stra": 2802,
      "us?\r\n": 2803,
      "we are ": 2804,
      "ever.\r\n": 2805,
      "did not ": 2806,
      "indeed ": 2807,
      "Comm": 2808,
      "age\r\n": 2809,
      "matter ": 2810,
      "19": 2811,
      "defin": 2812,
      "land ": 2813,
      "expl": 2814,
      " themselv": 2815,
      "house ": 2816,
      "knowled": 2817,
      "ations ": 2818,
      "gri": 2819,
      "nic": 2820,
      "urr": 2821,
      " this, ": 2822,
      "damn ": 2823,
      "Lu": 2824,
      "ard.\r\n": 2825,
      "Some ": 2826,
      "appear": 2827,
      "-h": 2828,
      "equ": 2829,
      "appoint": 2830,
      "sev": 2831,
      "room.\r\n": 2832,
      "left": 2833,
      "stuff": 2834,
      "it's": 2835,
      "apo": 2836,
      "God, ": 2837,
      "It's the ": 2838,
      "a's ": 2839,
      "yet": 2840,
      "enough ": 2841,
      "and they ": 2842,
      "come.\r\n": 2843,
      "mind ": 2844,
      "Sear": 2845,
      "Come on": 2846,
      "much.\r\n": 2847,
      "years.\r\n": 2848,
      "le of ": 2849,
      "figure ": 2850,
      "well.\r\n": 2851,
      "follow ": 2852,
      "flo": 2853,
      "itu": 2854,
      "The t": 2855,
      "a lot of ": 2856,
      "-t": 2857,
      "ON": 2858,
      "fli": 2859,
      "way to ": 2860,
      "thr": 2861,
      "fear": 2862,
      "soci": 2863,
      "wish": 2864,
      "see you ": 2865,
      "away from ": 2866,
      ",00": 2867,
      "- D": 2868,
      "- T": 2869,
      "know what ": 2870,
      "merc": 2871,
      "are t": 2872,
      "listen": 2873,
      "ft": 2874,
      "jud": 2875,
      ", so ": 2876,
      "for your ": 2877,
      "Even ": 2878,
      "ade ": 2879,
      "net": 2880,
      "you a ": 2881,
      "delet": 2882,
      "error ": 2883,
      "hurt ": 2884,
      " tre": 2885,
      ", he ": 2886,
      "enn": 2887,
      "are we ": 2888,
      "mother ": 2889,
      "gone ": 2890,
      "s from ": 2891,
      "ited ": 2892,
      " than": 2893,
      "you want to ": 2894,
      "name is ": 2895,
      "Look at ": 2896,
      "help.\r\n": 2897,
      "lim": 2898,
      "All right": 2899,
      "12": 2900,
      "Put ": 2901,
      "UR": 2902,
      "yourself ": 2903,
      "clear ": 2904,
      ", but": 2905,
      "done.\r\n": 2906,
      "g\r\n": 2907,
      "ely.\r\n": 2908,
      "Yeah.\r\n": 2909,
      "ed my ": 2910,
      "Oh, my ": 2911,
      "Sar": 2912,
      " tow": 2913,
      "was a ": 2914,
      "out the ": 2915,
      "Don't wor": 2916,
      "remember": 2917,
      "bur": 2918,
      "valid ": 2919,
      "one of": 2920,
      "He has ": 2921,
      "Go!\r\n": 2922,
      "stand ": 2923,
      "money": 2924,
      "there ": 2925,
      "I'm sorry, ": 2926,
      "los": 2927,
      "Got ": 2928,
      ";\r\n": 2929,
      "Would ": 2930,
      "- How ": 2931,
      "out of": 2932,
      "more than ": 2933,
      "Tim": 2934,
      "John": 2935,
      "Peop": 2936,
      "Failed to ": 2937,
      "'%s' ": 2938,
      "Mi": 2939,
      "unto ": 2940,
      "You were ": 2941,
      "one who ": 2942,
      "But you ": 2943,
      "Well, I ": 2944,
      "get to ": 2945,
      "house.\r\n": 2946,
      "Uh, ": 2947,
      "s a ": 2948,
      "as.\r\n": 2949,
      "s on ": 2950,
      "y of ": 2951,
      "pleas": 2952,
      "dist": 2953,
      "You're not ": 2954,
      "There are ": 2955,
      "check ": 2956,
      "in that ": 2957,
      "ates ": 2958,
      "_B": 2959,
      "may": 2960,
      ", I'm ": 2961,
      "warn": 2962,
      "ward ": 2963,
      "yourself": 2964,
      "Dr. ": 2965,
      "uni": 2966,
      "e... ": 2967,
      "in'": 2968,
      " thing.\r\n": 2969,
      "ake.\r\n": 2970,
      "bos": 2971,
      "io": 2972,
      "ground ": 2973,
      "look at ": 2974,
      "except ": 2975,
      "all of ": 2976,
      "M ": 2977,
      "when they ": 2978,
      " thought": 2979,
      "ago.\r\n": 2980,
      "ently ": 2981,
      "Her": 2982,
      "reve": 2983,
      "That is ": 2984,
      "hot": 2985,
      "Mov": 2986,
      "having ": 2987,
      "host": 2988,
      "different ": 2989,
      "ct.\r\n": 2990,
      "fall": 2991,
      "secur": 2992,
      "going?\r\n": 2993,
      "10 ": 2994,
      "At ": 2995,
      "ing. ": 2996,
      "deed": 2997,
      "ent to ": 2998,
      ", there's ": 2999,
      "means ": 3000,
      "AT": 3001,
      "ie ": 3002,
      "send": 3003,
      "What do ": 3004,
      "etim": 3005,
      "press": 3006,
      "see the ": 3007,
      "mission": 3008,
      "\"?\r\n": 3009,
      "answ": 3010,
      "Thank you.\r\n": 3011,
      "whe": 3012,
      "four ": 3013,
      "an?\r\n": 3014,
      "rel": 3015,
      "like, ": 3016,
      "Help": 3017,
      "a-": 3018,
      "rif": 3019,
      "offic": 3020,
      "spac": 3021,
      "oh": 3022,
      "%s: ": 3023,
      "system": 3024,
      "anim": 3025,
      "There": 3026,
      "All-": 3027,
      "watch ": 3028,
      "Please, ": 3029,
      "nice ": 3030,
      "ers, ": 3031,
      "print": 3032,
      "survi": 3033,
      "Up": 3034,
      "per ": 3035,
      "y-": 3036,
      "ought": 3037,
      "god": 3038,
      "image ": 3039,
      "everyone ": 3040,
      "Thank you ": 3041,
      "I'm just ": 3042,
      "next": 3043,
      "ual ": 3044,
      "and then ": 3045,
      "attack": 3046,
      "Select": 3047,
      "I would ": 3048,
      "se\r\n": 3049,
      "finish": 3050,
      "ive.\r\n": 3051,
      "mi": 3052,
      "pect ": 3053,
      "not to ": 3054,
      "yourself.\r\n": 3055,
      "'%s'": 3056,
      "Nam": 3057,
      "oft": 3058,
      "when I ": 3059,
      "Sup": 3060,
      "ers\r\n": 3061,
      "ones ": 3062,
      "red": 3063,
      "out of here.\r\n": 3064,
      "ez": 3065,
      "s... ": 3066,
      "ince ": 3067,
      "aren't ": 3068,
      "off the ": 3069,
      "Can't ": 3070,
      "best": 3071,
      "way, ": 3072,
      "mist": 3073,
      "met": 3074,
      "like the ": 3075,
      "hand ": 3076,
      "asked ": 3077,
      "Je": 3078,
      "Sam": 3079,
      "folder ": 3080,
      "hy": 3081,
      "No. ": 3082,
      "Rememb": 3083,
      "olut": 3084,
      "Chin": 3085,
      "ype": 3086,
      "fied ": 3087,
      "eyes ": 3088,
      "say, ": 3089,
      "den": 3090,
      "a big ": 3091,
      "a man ": 3092,
      "Fil": 3093,
      "May": 3094,
      "High": 3095,
      "Cor": 3096,
      "le, ": 3097,
      "for this ": 3098,
      "up the ": 3099,
      "want to": 3100,
      "pati": 3101,
      "so.\r\n": 3102,
      "over the ": 3103,
      "behind ": 3104,
      "pie": 3105,
      "th, ": 3106,
      "ess, ": 3107,
      "gonna": 3108,
      "didn't": 3109,
      "igh": 3110,
      "it is": 3111,
      "room ": 3112,
      "Yeah, I ": 3113,
      "ment\r\n": 3114,
      "fore ": 3115,
      "up?\r\n": 3116,
      "mode": 3117,
      "everything.\r\n": 3118,
      "ge.\r\n": 3119,
      "But I ": 3120,
      "spec": 3121,
      "learn": 3122,
      "you the ": 3123,
      "against": 3124,
      "phone ": 3125,
      "funn": 3126,
      "Au": 3127,
      "mus": 3128,
      "IS": 3129,
      "ax": 3130,
      "boy.\r\n": 3131,
      "can you ": 3132,
      "anymore.\r\n": 3133,
      "Indi": 3134,
      " and ": 3135,
      "gres": 3136,
      "short": 3137,
      "error": 3138,
      "power ": 3139,
      "Run": 3140,
      "you will ": 3141,
      "rais": 3142,
      "Off": 3143,
      "vict": 3144,
      "s with ": 3145,
      "me. ": 3146,
      "car.\r\n": 3147,
      "money.\r\n": 3148,
      ".'\r\n": 3149,
      ": '": 3150,
      "Wait, ": 3151,
      "stru": 3152,
      "pert": 3153,
      "11": 3154,
      "real": 3155,
      "him to ": 3156,
      "on this ": 3157,
      "ing my ": 3158,
      "- F": 3159,
      "father.\r\n": 3160,
      "det": 3161,
      "uh, ": 3162,
      "I am": 3163,
      "ed that ": 3164,
      "we were ": 3165,
      "What's the ": 3166,
      "There's no ": 3167,
      "burn": 3168,
      "sound": 3169,
      "ven": 3170,
      "ed up ": 3171,
      "if they ": 3172,
      "Vie": 3173,
      "I was": 3174,
      "No, I ": 3175,
      "heavens ": 3176,
      "me t": 3177,
      "th\r\n": 3178,
      "created ": 3179,
      "had a ": 3180,
      "matter": 3181,
      "Two ": 3182,
      "ing in ": 3183,
      " time, ": 3184,
      " too.\r\n": 3185,
      "You got ": 3186,
      "entire ": 3187,
      "fair": 3188,
      "part ": 3189,
      "- Hey, ": 3190,
      "it a ": 3191,
      "Thank you, ": 3192,
      "doub": 3193,
      "On ": 3194,
      ". And ": 3195,
      "Dr": 3196,
      "enjo": 3197,
      "guy.\r\n": 3198,
      "- W": 3199,
      "guys.\r\n": 3200,
      "applic": 3201,
      "Add": 3202,
      "Cal": 3203,
      "Min": 3204,
      "God!\r\n": 3205,
      "Whether": 3206,
      "pap": 3207,
      "er is ": 3208,
      "alone.\r\n": 3209,
      "person ": 3210,
      "destroy": 3211,
      "anne": 3212,
      "fire ": 3213,
      "man?\r\n": 3214,
      "Inter": 3215,
      "Jam": 3216,
      "ator": 3217,
      "you don't ": 3218,
      "beg": 3219,
      "near": 3220,
      "aking ": 3221,
      "understand.\r\n": 3222,
      "What the hell ": 3223,
      "gn ": 3224,
      "pol": 3225,
      "inu": 3226,
      "shoot": 3227,
      "concer": 3228,
      "said, \"": 3229,
      "running ": 3230,
      "you're not ": 3231,
      "avail": 3232,
      "strong": 3233,
      "doct": 3234,
      "), ": 3235,
      "lay": 3236,
      "interest": 3237,
      "siz": 3238,
      "brother ": 3239,
      "ate\r\n": 3240,
      " thou ": 3241,
      "Create ": 3242,
      "certainly ": 3243,
      "sing": 3244,
      "ont": 3245,
      ". The ": 3246,
      "got the ": 3247,
      "Very ": 3248,
      "mount": 3249,
      "rest ": 3250,
      ", right?\r\n": 3251,
      "deal": 3252,
      "comput": 3253,
      "Ag": 3254,
      "She": 3255,
      "y for ": 3256,
      "shot ": 3257,
      "Des": 3258,
      "eat": 3259,
      "wonder": 3260,
      "in their ": 3261,
      "yet.\r\n": 3262,
      "Bu": 3263,
      "evil": 3264,
      "fault": 3265,
      "everything": 3266,
      "danger": 3267,
      "usb": 3268,
      "doing": 3269,
      "OM": 3270,
      "inste": 3271,
      "aste ": 3272,
      "budd": 3273,
      "Hello, ": 3274,
      "angel": 3275,
      "point ": 3276,
      "Gener": 3277,
      "ail ": 3278,
      "soon ": 3279,
      "what the ": 3280,
      "Delet": 3281,
      "command ": 3282,
      "girl.\r\n": 3283,
      "Pet": 3284,
      "ial ": 3285,
      "have t": 3286,
      "aph": 3287,
      "grand": 3288,
      "file\r\n": 3289,
      "see.\r\n": 3290,
      "You think ": 3291,
      "quite ": 3292,
      "capt": 3293,
      "ospit": 3294,
      "tect ": 3295,
      "ather": 3296,
      "ass.\r\n": 3297,
      "know that ": 3298,
      "bott": 3299,
      "20": 3300,
      "king ": 3301,
      "out, ": 3302,
      "may be ": 3303,
      "Hi.\r\n": 3304,
      "almost ": 3305,
      "ay.\r\n": 3306,
      "enter": 3307,
      "%1 ": 3308,
      "Let": 3309,
      "gur": 3310,
      "ren": 3311,
      "believe in ": 3312,
      "rep": 3313,
      "ed me ": 3314,
      "Unable to ": 3315,
      "Add ": 3316,
      "From ": 3317,
      "Opt": 3318,
      "form ": 3319,
      "vert": 3320,
      "says ": 3321,
      "contain": 3322,
      "listen to ": 3323,
      "Di": 3324,
      "oup ": 3325,
      "one of the ": 3326,
      "Why are you ": 3327,
      "I'm a ": 3328,
      "consid": 3329,
      "solut": 3330,
      "car ": 3331,
      "gram": 3332,
      "div": 3333,
      "quick": 3334,
      "Help ": 3335,
      "Most ": 3336,
      "dru": 3337,
      "ferenc": 3338,
      "afraid ": 3339,
      " then": 3340,
      "go?\r\n": 3341,
      "blood": 3342,
      "App": 3343,
      "inside ": 3344,
      "ribut": 3345,
      "job ": 3346,
      "decid": 3347,
      "Cli": 3348,
      "ource ": 3349,
      "half ": 3350,
      "stud": 3351,
      "sec": 3352,
      "and I ": 3353,
      "ed them ": 3354,
      "Um": 3355,
      "hid": 3356,
      "forgiv": 3357,
      "do it ": 3358,
      "get a ": 3359,
      " try to ": 3360,
      "ify ": 3361,
      "down, ": 3362,
      "job.\r\n": 3363,
      "Sorry, ": 3364,
      "That's the ": 3365,
      "Att": 3366,
      " too": 3367,
      "safe ": 3368,
      "CH": 3369,
      "row": 3370,
      "hurt": 3371,
      "mast": 3372,
      "sit ": 3373,
      "omb": 3374,
      "with my ": 3375,
      "Aut": 3376,
      "es that ": 3377,
      "in?\r\n": 3378,
      "wear": 3379,
      "Can I ": 3380,
      "reli": 3381,
      "ity, ": 3382,
      "looking for ": 3383,
      " together": 3384,
      "'ll": 3385,
      "goes ": 3386,
      "fill": 3387,
      "aliz": 3388,
      "Numb": 3389,
      "for?\r\n": 3390,
      "met ": 3391,
      "By": 3392,
      "date ": 3393,
      "sess": 3394,
      "as the ": 3395,
      ", or ": 3396,
      "augh": 3397,
      "alive.\r\n": 3398,
      "water ": 3399,
      "going on?\r\n": 3400,
      "gentle": 3401,
      "ort ": 3402,
      "of their ": 3403,
      "unch ": 3404,
      "back!\r\n": 3405,
      "People ": 3406,
      "ush ": 3407,
      "be the ": 3408,
      "lock ": 3409,
      "get you ": 3410,
      "ball": 3411,
      "OR": 3412,
      "case ": 3413,
      "What is": 3414,
      "Det": 3415,
      "ecut": 3416,
      "on that ": 3417,
      "shot": 3418,
      "def": 3419,
      "After ": 3420,
      "step": 3421,
      "wants to ": 3422,
      "if we ": 3423,
      "charact": 3424,
      "it's not ": 3425,
      "\"%s\" ": 3426,
      "mach": 3427,
      "als ": 3428,
      "In the ": 3429,
      ", thank ": 3430,
      "Where is ": 3431,
      "information ": 3432,
      "6 ": 3433,
      "AL": 3434,
      "sign ": 3435,
      " try ": 3436,
      "about to ": 3437,
      "first.\r\n": 3438,
      "pull": 3439,
      "argu": 3440,
      "chanc": 3441,
      "up to ": 3442,
      "With": 3443,
      "young ": 3444,
      "He will ": 3445,
      "make it ": 3446,
      "a lot ": 3447,
      "window ": 3448,
      "Never ": 3449,
      "ie.\r\n": 3450,
      "o!\r\n": 3451,
      "a few ": 3452,
      "We don't ": 3453,
      "main ": 3454,
      "second ": 3455,
      "care of ": 3456,
      "sto": 3457,
      "your hand": 3458,
      "men.\r\n": 3459,
      "death ": 3460,
      "vern": 3461,
      "! - ": 3462,
      "...?\r\n": 3463,
      "And they ": 3464,
      "idea ": 3465,
      "draw": 3466,
      "knew": 3467,
      "agre": 3468,
      "family.\r\n": 3469,
      "us to ": 3470,
      "in his ": 3471,
      "speak ": 3472,
      "yl": 3473,
      "reco": 3474,
      "you know ": 3475,
      "No one ": 3476,
      "husb": 3477,
      "of that ": 3478,
      "wid": 3479,
      "Engl": 3480,
      "human": 3481,
      "Did": 3482,
      "ed in the ": 3483,
      "for me.\r\n": 3484,
      "olv": 3485,
      "fiel": 3486,
      "Read": 3487,
      "Book": 3488,
      "never": 3489,
      "her?\r\n": 3490,
      "well, ": 3491,
      "Ear": 3492,
      "ply ": 3493,
      "before.\r\n": 3494,
      "name.\r\n": 3495,
      "pick": 3496,
      "it the ": 3497,
      "ing it ": 3498,
      "pet": 3499,
      "can be ": 3500,
      "ID": 3501,
      "es of ": 3502,
      "deser": 3503,
      "city ": 3504,
      "Fre": 3505,
      "- I don't ": 3506,
      "ver.\r\n": 3507,
      "histor": 3508,
      "body.\r\n": 3509,
      " together.\r\n": 3510,
      "#\r\n": 3511,
      "At": 3512,
      "hospit": 3513,
      "p.\r\n": 3514,
      "us!\r\n": 3515,
      "succ": 3516,
      "say?\r\n": 3517,
      "Miss ": 3518,
      "Will": 3519,
      "ben": 3520,
      "me that ": 3521,
      "walk ": 3522,
      "Du": 3523,
      "Pat": 3524,
      "escap": 3525,
      "ins": 3526,
      "rem": 3527,
      "of cour": 3528,
      "cond": 3529,
      "give you ": 3530,
      "sorry.\r\n": 3531,
      "build": 3532,
      "Dadd": 3533,
      "nothing.\r\n": 3534,
      "load ": 3535,
      "od": 3536,
      "is?\r\n": 3537,
      "ed it ": 3538,
      "shoot ": 3539,
      "bit ": 3540,
      "ft ": 3541,
      "yö": 3542,
      "ans ": 3543,
      "stair": 3544,
      "ator ": 3545,
      "omat": 3546,
      "- R": 3547,
      "name?\r\n": 3548,
      "dinn": 3549,
      "incre": 3550,
      "around.\r\n": 3551,
      "parent": 3552,
      "promise ": 3553,
      "y...\r\n": 3554,
      "sed.\r\n": 3555,
      "Charli": 3556,
      "8 ": 3557,
      "all that ": 3558,
      "firm": 3559,
      "will.\r\n": 3560,
      "idea.\r\n": 3561,
      "Fin": 3562,
      "bri": 3563,
      "until": 3564,
      "problem.\r\n": 3565,
      "ions.\r\n": 3566,
      "We will ": 3567,
      "manag": 3568,
      "All right.\r\n": 3569,
      "Dar": 3570,
      "esid": 3571,
      "forc": 3572,
      "ed your ": 3573,
      "accept": 3574,
      ", M": 3575,
      ", take ": 3576,
      "ys": 3577,
      "ically ": 3578,
      "figur": 3579,
      "birth": 3580,
      "do we ": 3581,
      "Wr": 3582,
      "sci": 3583,
      "e tr": 3584,
      "es are ": 3585,
      "fix": 3586,
      "outsid": 3587,
      "ing with ": 3588,
      "ion of ": 3589,
      "brother.\r\n": 3590,
      "better.\r\n": 3591,
      "heavens and the ": 3592,
      "Cha": 3593,
      "Sat": 3594,
      "in!\r\n": 3595,
      " today.\r\n": 3596,
      "When": 3597,
      "gone.\r\n": 3598,
      "stopp": 3599,
      "number ": 3600,
      ", they're ": 3601,
      "enem": 3602,
      "T ": 3603,
      "activ": 3604,
      "ordin": 3605,
      "ize ": 3606,
      "color ": 3607,
      "think": 3608,
      "No!\r\n": 3609,
      "box": 3610,
      "rain ": 3611,
      "protect ": 3612,
      "Acc": 3613,
      "ff ": 3614,
      "object": 3615,
      "wrong.\r\n": 3616,
      "Would you ": 3617,
      "Sub": 3618,
      "of you ": 3619,
      "dep": 3620,
      "conf": 3621,
      "could be ": 3622,
      "Please.\r\n": 3623,
      "non": 3624,
      "zz": 3625,
      "whose ": 3626,
      "boy ": 3627,
      " train": 3628,
      "answer": 3629,
      "ublic": 3630,
      "four": 3631,
      "low": 3632,
      "pick ": 3633,
      "s is ": 3634,
      "ried ": 3635,
      "weapon": 3636,
      "Bob": 3637,
      "it is.\r\n": 3638,
      "can I ": 3639,
      "minutes.\r\n": 3640,
      "50": 3641,
      "list ": 3642,
      "ular ": 3643,
      "man!\r\n": 3644,
      "ground": 3645,
      "Are you sure ": 3646,
      "break ": 3647,
      "Yes!\r\n": 3648,
      "Frank": 3649,
      "radi": 3650,
      "game ": 3651,
      "using ": 3652,
      "hate ": 3653,
      "exper": 3654,
      "write ": 3655,
      "Tell me ": 3656,
      "vel ": 3657,
      "hath ": 3658,
      "que": 3659,
      "value ": 3660,
      "2\r\n": 3661,
      "dog": 3662,
      " trust": 3663,
      "What's": 3664,
      "enough.\r\n": 3665,
      "Yeah. ": 3666,
      "blood ": 3667,
      ", my ": 3668,
      "C ": 3669,
      "gan": 3670,
      "edi": 3671,
      "ah ": 3672,
      "woman ": 3673,
      "Que": 3674,
      "Merc": 3675,
      "Chi": 3676,
      "One": 3677,
      "dad": 3678,
      "fell": 3679,
      "record": 3680,
      "Back": 3681,
      "Sa": 3682,
      "shut ": 3683,
      "myself.\r\n": 3684,
      "bag": 3685,
      "obe": 3686,
      "I saw ": 3687,
      "wher": 3688,
      "dur": 3689,
      "kt": 3690,
      "mm.\r\n": 3691,
      "pict": 3692,
      "ile.\r\n": 3693,
      "me and ": 3694,
      "Don't you ": 3695,
      "great.\r\n": 3696,
      "special ": 3697,
      " touch ": 3698,
      "La": 3699,
      "ies.\r\n": 3700,
      "I need to ": 3701,
      "I won't ": 3702,
      "six ": 3703,
      "these ": 3704,
      "I'm sure ": 3705,
      "weir": 3706,
      "no one ": 3707,
      "Leave ": 3708,
      "\\t": 3709,
      "ations.\r\n": 3710,
      "wed": 3711,
      "among ": 3712,
      "dialo": 3713,
      "oly ": 3714,
      "can't": 3715,
      "Everything ": 3716,
      "Pri": 3717,
      "fel": 3718,
      "saying ": 3719,
      "days.\r\n": 3720,
      "baby.\r\n": 3721,
      "Wait.\r\n": 3722,
      "norm": 3723,
      "Mus": 3724,
      "dom": 3725,
      "uro": 3726,
      "view ": 3727,
      "Win": 3728,
      "eth ": 3729,
      "coming.\r\n": 3730,
      "proc": 3731,
      "Hello.\r\n": 3732,
      "where.\r\n": 3733,
      "about.\r\n": 3734,
      "just a ": 3735,
      "handle ": 3736,
      "drive ": 3737,
      "f.\r\n": 3738,
      "i\r\n": 3739,
      ", you're ": 3740,
      "ense ": 3741,
      "miss ": 3742,
      "vide": 3743,
      "- Okay.\r\n": 3744,
      "would you ": 3745,
      "morning.\r\n": 3746,
      "he t": 3747,
      "ing...\r\n": 3748,
      " their": 3749,
      "If I ": 3750,
      "system ": 3751,
      "Prof": 3752,
      "high ": 3753,
      "I don't think ": 3754,
      "reveale": 3755,
      "20 ": 3756,
      "bb": 3757,
      "other.\r\n": 3758,
      "who's ": 3759,
      "IM": 3760,
      "Rob": 3761,
      "sus": 3762,
      "ors ": 3763,
      "ed him ": 3764,
      "I'm so ": 3765,
      "clos": 3766,
      "there": 3767,
      "ity\r\n": 3768,
      "Remove ": 3769,
      "c ": 3770,
      "ung": 3771,
      "e, you ": 3772,
      "making ": 3773,
      "Know": 3774,
      "ry, ": 3775,
      "report": 3776,
      "as you ": 3777,
      "commun": 3778,
      "* ": 3779,
      "deal ": 3780,
      "reach": 3781,
      "e, but ": 3782,
      " them to ": 3783,
      "about it.\r\n": 3784,
      "Okay?\r\n": 3785,
      "ased ": 3786,
      "- And ": 3787,
      "like that": 3788,
      "cros": 3789,
      "Any ": 3790,
      "That's why ": 3791,
      "when he ": 3792,
      "close ": 3793,
      " there!\r\n": 3794,
      "above ": 3795,
      "cir": 3796,
      "might": 3797,
      "item": 3798,
      "saw": 3799,
      "Oh.\r\n": 3800,
      "like that.\r\n": 3801,
      "safe.\r\n": 3802,
      "RE": 3803,
      "ing t": 3804,
      "- Get ": 3805,
      "abb": 3806,
      "They are ": 3807,
      "people who ": 3808,
      "ourc": 3809,
      "ING)\r\n": 3810,
      "Last ": 3811,
      "sme": 3812,
      "sent": 3813,
      "no!\r\n": 3814,
      "for you ": 3815,
      "appro": 3816,
      " they are ": 3817,
      "Go, ": 3818,
      "%d": 3819,
      "GN": 3820,
      "er to ": 3821,
      "your Lord ": 3822,
      "righte": 3823,
      "itting ": 3824,
      "ards ": 3825,
      "said: ": 3826,
      "Who's ": 3827,
      "require": 3828,
      "bad.\r\n": 3829,
      "h.\r\n": 3830,
      "n't.\r\n": 3831,
      "ing of ": 3832,
      "ident ": 3833,
      " that I ": 3834,
      "polic": 3835,
      "ough.\r\n": 3836,
      "make a ": 3837,
      " things.\r\n": 3838,
      "ance": 3839,
      "ace.\r\n": 3840,
      "search ": 3841,
      "Every ": 3842,
      "fall ": 3843,
      "Is it ": 3844,
      "ke.\r\n": 3845,
      "and a ": 3846,
      "ace": 3847,
      "doll": 3848,
      "preci": 3849,
      "install": 3850,
      "far": 3851,
      "You should ": 3852,
      "favor": 3853,
      "author": 3854,
      "Harr": 3855,
      "Mat": 3856,
      "n\r\n": 3857,
      "still": 3858,
      "We can ": 3859,
      "all right.\r\n": 3860,
      "display": 3861,
      "problem ": 3862,
      " thes": 3863,
      "conv": 3864,
      "sum": 3865,
      "ready to ": 3866,
      "wife ": 3867,
      "Of course ": 3868,
      "gar": 3869,
      "past": 3870,
      "xim": 3871,
      "ational ": 3872,
      "what we ": 3873,
      "alking ": 3874,
      "Cle": 3875,
      "Doc": 3876,
      "ings.\r\n": 3877,
      "emb": 3878,
      "left.\r\n": 3879,
      "By ": 3880,
      "Book ": 3881,
      "laugh": 3882,
      "lost": 3883,
      "responsi": 3884,
      "I...\r\n": 3885,
      "Ri": 3886,
      "ken ": 3887,
      "we t": 3888,
      "ition ": 3889,
      "board": 3890,
      "come on.\r\n": 3891,
      "space ": 3892,
      "I'm the ": 3893,
      "message ": 3894,
      "search": 3895,
      "cle ": 3896,
      "ings\r\n": 3897,
      "ge\r\n": 3898,
      "going to be ": 3899,
      "ger": 3900,
      "wall": 3901,
      "ed to the ": 3902,
      "fect ": 3903,
      "Mos": 3904,
      "kin": 3905,
      "ing to the ": 3906,
      "have any ": 3907,
      "X ": 3908,
      "hund": 3909,
      "shouldn't ": 3910,
      "mine.\r\n": 3911,
      "Mr": 3912,
      "entr": 3913,
      "Allah, ": 3914,
      "Invalid ": 3915,
      "late.\r\n": 3916,
      "beautiful ": 3917,
      "Sim": 3918,
      "sn": 3919,
      "Hey ": 3920,
      "sam": 3921,
      "entic": 3922,
      "We have to ": 3923,
      "aught ": 3924,
      "Bill": 3925,
      "ness.\r\n": 3926,
      "ore ": 3927,
      "govern": 3928,
      "and.\r\n": 3929,
      "Oh!\r\n": 3930,
      "prou": 3931,
      "dres": 3932,
      "camer": 3933,
      ".\" ": 3934,
      "ei": 3935,
      "- P": 3936,
      "evid": 3937,
      "not a ": 3938,
      "am I ": 3939,
      "server ": 3940,
      "Sorry.\r\n": 3941,
      "fully ": 3942,
      "amaz": 3943,
      "El": 3944,
      "rul": 3945,
      "Nothing ": 3946,
      " them?\r\n": 3947,
      "part of ": 3948,
      "control ": 3949,
      "Cause ": 3950,
      "Lad": 3951,
      "a...\r\n": 3952,
      "s to be ": 3953,
      "phot": 3954,
      "God is ": 3955,
      "cas": 3956,
      "lett": 3957,
      "black ": 3958,
      "days ": 3959,
      "clud": 3960,
      "Do you know ": 3961,
      "you...\r\n": 3962,
      "is to ": 3963,
      "bell": 3964,
      "e tim": 3965,
      "me a ": 3966,
      "What about ": 3967,
      "sure.\r\n": 3968,
      "do, ": 3969,
      " today": 3970,
      "Why don't you ": 3971,
      "Hi, ": 3972,
      "a th": 3973,
      "name\r\n": 3974,
      "There is ": 3975,
      "let you ": 3976,
      "flow": 3977,
      "aim": 3978,
      "shit!\r\n": 3979,
      "cau": 3980,
      "group": 3981,
      "I've got ": 3982,
      "associ": 3983,
      "bring": 3984,
      "rying to ": 3985,
      "Lord, ": 3986,
      "Si": 3987,
      "kis": 3988,
      "angu": 3989,
      "streng": 3990,
      "lar": 3991,
      "sun": 3992,
      "arriv": 3993,
      "started ": 3994,
      "'%s'\r\n": 3995,
      "e too ": 3996,
      "minute.\r\n": 3997,
      "ray": 3998,
      "cause": 3999,
      "things ": 4000,
      "Allah and ": 4001,
      "I should ": 4002,
      "adm": 4003,
      "Prophe": 4004,
      "Ir": 4005,
      "Shi": 4006,
      "- He's ": 4007,
      "ation, ": 4008,
      "execut": 4009,
      "movi": 4010,
      "women ": 4011,
      "Tru": 4012,
      "cent ": 4013,
      "ory\r\n": 4014,
      "al?\r\n": 4015,
      " taking ": 4016,
      "following ": 4017,
      "Rus": 4018,
      "sound ": 4019,
      "acros": 4020,
      "ate the ": 4021,
      "termin": 4022,
      "This is a ": 4023,
      "ously ": 4024,
      "move.\r\n": 4025,
      "Wow": 4026,
      " tot": 4027,
      "buy ": 4028,
      "o?\r\n": 4029,
      "se!\r\n": 4030,
      "unch": 4031,
      "op.\r\n": 4032,
      "again ": 4033,
      "kid.\r\n": 4034,
      "Day of ": 4035,
      "200": 4036,
      "Fire": 4037,
      "LE": 4038,
      "heard": 4039,
      "upt": 4040,
      "he is ": 4041,
      "wait.\r\n": 4042,
      "face.\r\n": 4043,
      "believers ": 4044,
      "I'll take ": 4045,
      "(the ": 4046,
      "dy": 4047,
      "en!\r\n": 4048,
      "- He ": 4049,
      "bear": 4050,
      " touch": 4051,
      "Find ": 4052,
      "dad ": 4053,
      "free ": 4054,
      "gat": 4055,
      "an!\r\n": 4056,
      "Ah": 4057,
      "B ": 4058,
      "ek ": 4059,
      "iet": 4060,
      "map": 4061,
      "witch": 4062,
      "emp": 4063,
      "mind.\r\n": 4064,
      "breath": 4065,
      "Listen, ": 4066,
      "Guy": 4067,
      "provid": 4068,
      "yet ": 4069,
      ", it ": 4070,
      ", what ": 4071,
      "step ": 4072,
      "of.\r\n": 4073,
      "- What's ": 4074,
      "ement ": 4075,
      "wanted ": 4076,
      "unto": 4077,
      "Maj": 4078,
      "fortun": 4079,
      "war ": 4080,
      "really": 4081,
      "I never ": 4082,
      "Master ": 4083,
      "another": 4084,
      "somebody ": 4085,
      "And then ": 4086,
      "There is no ": 4087,
      "secret": 4088,
      "Watch ": 4089,
      "RO": 4090,
      "dut": 4091,
      "u\r\n": 4092,
      "beat ": 4093,
      "How do you ": 4094,
      "Jim": 4095,
      "pose ": 4096,
      "he?\r\n": 4097,
      "here. ": 4098,
      " test": 4099,
      "Actu": 4100,
      "Yor": 4101,
      "like": 4102,
      "ility ": 4103,
      "'d you ": 4104,
      "catch ": 4105,
      "security ": 4106,
      "%d ": 4107,
      "'em ": 4108,
      "Hur": 4109,
      "Ok": 4110,
      "ull ": 4111,
      "doing here?\r\n": 4112,
      "Mart": 4113,
      "Say ": 4114,
      "Sav": 4115,
      "ont ": 4116,
      "arch": 4117,
      "ise.\r\n": 4118,
      "else.\r\n": 4119,
      "ult.\r\n": 4120,
      " they were ": 4121,
      "ignor": 4122,
      "ready.\r\n": 4123,
      "ile\r\n": 4124,
      "friends.\r\n": 4125,
      " the same ": 4126,
      "!\"\r\n": 4127,
      "You have to ": 4128,
      "cust": 4129,
      "along": 4130,
      "hey, ": 4131,
      "it for ": 4132,
      "First ": 4133,
      "Nic": 4134,
      "i, ": 4135,
      "king": 4136,
      "I guess ": 4137,
      "- Yes, ": 4138,
      "level": 4139,
      "default ": 4140,
      "from your ": 4141,
      "Yes, I ": 4142,
      "Am": 4143,
      "block": 4144,
      "ell ": 4145,
      "er. ": 4146,
      "up and ": 4147,
      "Gl": 4148,
      "continu": 4149,
      "es, and ": 4150,
      "nothing": 4151,
      "change": 4152,
      "size ": 4153,
      "... the ": 4154,
      "looks ": 4155,
      "runn": 4156,
      ", too": 4157,
      "year ": 4158,
      "Ju": 4159,
      "rele": 4160,
      "safe": 4161,
      "cry": 4162,
      "Will you ": 4163,
      "AS": 4164,
      "none ": 4165,
      "s' ": 4166,
      "is this ": 4167,
      "ion?\r\n": 4168,
      "I have a ": 4169,
      "pop": 4170,
      "ine": 4171,
      "I like ": 4172,
      "way!\r\n": 4173,
      "you're gonna ": 4174,
      "his": 4175,
      "forget ": 4176,
      "do that.\r\n": 4177,
      "Color ": 4178,
      "ref": 4179,
      "ated.\r\n": 4180,
      "immedi": 4181,
      "option ": 4182,
      "Sk": 4183,
      "ary.\r\n": 4184,
      "so much ": 4185,
      "fail": 4186,
      "Trans": 4187,
      " through the ": 4188,
      "_BAR": 4189,
      "dir": 4190,
      "pen": 4191,
      "happy ": 4192,
      "later.\r\n": 4193,
      "I want you to ": 4194,
      "Those who ": 4195,
      "Dev": 4196,
      "Ton": 4197,
      "sli": 4198,
      "I see ": 4199,
      "back, ": 4200,
      "invest": 4201,
      ",000 ": 4202,
      "> ": 4203,
      "Mag": 4204,
      "foc": 4205,
      " to your ": 4206,
      "dem": 4207,
      "can.\r\n": 4208,
      "yourselv": 4209,
      "But, ": 4210,
      "destin": 4211,
      "Pap": 4212,
      "round": 4213,
      "hair": 4214,
      "I hope ": 4215,
      "nothing to ": 4216,
      "have no ": 4217,
      "We were ": 4218,
      "cod": 4219,
      "server": 4220,
      "match": 4221,
      "30 ": 4222,
      "Ob": 4223,
      "sil": 4224,
      " thy ": 4225,
      "You will ": 4226,
      "with this ": 4227,
      "That's not ": 4228,
      "est.\r\n": 4229,
      "body": 4230,
      "Look at": 4231,
      "Does ": 4232,
      "children ": 4233,
      "s,\r\n": 4234,
      "vol": 4235,
      "a coup": 4236,
      "partn": 4237,
      "'cause ": 4238,
      "’\r\n": 4239,
      "is it?\r\n": 4240,
      "You want ": 4241,
      "We got ": 4242,
      "If we ": 4243,
      "where you ": 4244,
      "able\r\n": 4245,
      "dark": 4246,
      "7 ": 4247,
      "fast ": 4248,
      "rain": 4249,
      "s to the ": 4250,
      "ist of ": 4251,
      "whom": 4252,
      "I don't want to ": 4253,
      "We're gonna ": 4254,
      "Bre": 4255,
      "Day": 4256,
      "of a b": 4257,
      "ally?\r\n": 4258,
      "door.\r\n": 4259,
      "will you ": 4260,
      "\"The ": 4261,
      "Down": 4262,
      "This": 4263,
      "in fron": 4264,
      "except": 4265,
      "fly": 4266,
      "squ": 4267,
      "sty": 4268,
      "itor": 4269,
      "rot": 4270,
      "do this.\r\n": 4271,
      "prepar": 4272,
      "school ": 4273,
      " together ": 4274,
      "_BAR_": 4275,
      "ron": 4276,
      "You must ": 4277,
      " take a ": 4278,
      "she was ": 4279,
      "spir": 4280,
      "Once ": 4281,
      "Is this ": 4282,
      "reason": 4283,
      "Search ": 4284,
      "(S": 4285,
      "File ": 4286,
      "Hom": 4287,
      "eth": 4288,
      "s to": 4289,
      "offe": 4290,
      "group ": 4291,
      "Well, you ": 4292,
      "gun ": 4293,
      "im ": 4294,
      "remove ": 4295,
      "ounc": 4296,
      "Dad.\r\n": 4297,
      "Hor": 4298,
      "us\r\n": 4299,
      "godd": 4300,
      "want?\r\n": 4301,
      "super": 4302,
      "account": 4303,
      "There's a ": 4304,
      "needs ": 4305,
      "label": 4306,
      "behind": 4307,
      "Excuse me.\r\n": 4308,
      "ling ": 4309,
      "u.\r\n": 4310,
      "- Don't ": 4311,
      "and that ": 4312,
      "logi": 4313,
      "what he ": 4314,
      "mal": 4315,
      "Well ": 4316,
      "out?\r\n": 4317,
      "post": 4318,
      "which is ": 4319,
      "soul": 4320,
      "punishment ": 4321,
      "Euro": 4322,
      "Mic": 4323,
      "s) ": 4324,
      "went": 4325,
      "ered ": 4326,
      "worth ": 4327,
      "sive ": 4328,
      "graph": 4329,
      "But the ": 4330,
      "sleep ": 4331,
      "faith": 4332,
      "ract": 4333,
      "erg": 4334,
      " they will ": 4335,
      " time to ": 4336,
      "OK.\r\n": 4337,
      "white ": 4338,
      "We shall ": 4339,
      "old.\r\n": 4340,
      "grad": 4341,
      "compan": 4342,
      "'Cause ": 4343,
      "Qur": 4344,
      "y is ": 4345,
      "unk": 4346,
      "ce of ": 4347,
      "if he ": 4348,
      "kept ": 4349,
      "You just ": 4350,
      "enter ": 4351,
      "share ": 4352,
      "don't.\r\n": 4353,
      "drag": 4354,
      "possible.\r\n": 4355,
      "big": 4356,
      "I do ": 4357,
      "lot": 4358,
      "loy": 4359,
      "s, but ": 4360,
      "produ": 4361,
      "line.\r\n": 4362,
      "Something ": 4363,
      "I?\r\n": 4364,
      "Ow": 4365,
      "essed ": 4366,
      "We need to ": 4367,
      "ation of ": 4368,
      "Everyone ": 4369,
      "%d\r\n": 4370,
      "F ": 4371,
      "mp": 4372,
      "want.\r\n": 4373,
      "50 ": 4374,
      "s (": 4375,
      "I knew ": 4376,
      "- Let's ": 4377,
      "if the ": 4378,
      "spect": 4379,
      "America/": 4380,
      "important": 4381,
      "nal ": 4382,
      "sal": 4383,
      "sac": 4384,
      "aliv": 4385,
      " the time ": 4386,
      "mail ": 4387,
      "Couldn't ": 4388,
      "Mc": 4389,
      ". It's ": 4390,
      "and his ": 4391,
      "wants ": 4392,
      "ester": 4393,
      "Unknown ": 4394,
      "color": 4395,
      "version ": 4396,
      "school": 4397,
      "ship.\r\n": 4398,
      " tar": 4399,
      "s will ": 4400,
      "ent, ": 4401,
      "pract": 4402,
      "okay, ": 4403,
      "knowledge ": 4404,
      "Ho": 4405,
      "danc": 4406,
      "hang ": 4407,
      "door ": 4408,
      "On the ": 4409,
      "mail": 4410,
      "- G": 4411,
      "said: \"": 4412,
      "midd": 4413,
      "th and ": 4414,
      "Star": 4415,
      "say.\r\n": 4416,
      "yours.\r\n": 4417,
      "Ale": 4418,
      " thank ": 4419,
      "became ": 4420,
      "down the ": 4421,
      "fresh": 4422,
      "AM": 4423,
      "S)\r\n": 4424,
      "not?\r\n": 4425,
      "ocol": 4426,
      "definit": 4427,
      "Nice ": 4428,
      "ed his ": 4429,
      "going to": 4430,
      "better": 4431,
      "correct": 4432,
      "came to ": 4433,
      "View": 4434,
      "cul": 4435,
      "that": 4436,
      "ou ": 4437,
      "of his ": 4438,
      "me the ": 4439,
      "ak.\r\n": 4440,
      "remain": 4441,
      "Out": 4442,
      "ef ": 4443,
      "Whatever ": 4444,
      "whoever ": 4445,
      "going on ": 4446,
      "foot": 4447,
      "sell": 4448,
      "for my ": 4449,
      "um.\r\n": 4450,
      "it's a ": 4451,
      "love.\r\n": 4452,
      "must": 4453,
      "oop": 4454,
      "with you ": 4455,
      "friends ": 4456,
      "files\r\n": 4457,
      "Call ": 4458,
      "yes.\r\n": 4459,
      "…\r\n": 4460,
      "what you're ": 4461,
      "myself ": 4462,
      "Right.\r\n": 4463,
      "a tr": 4464,
      "- Are you ": 4465,
      "ed on ": 4466,
      "box ": 4467,
      "raise ": 4468,
      "finally ": 4469,
      ", then": 4470,
      "Shit!\r\n": 4471,
      "May ": 4472,
      "ump ": 4473,
      "say, \"": 4474,
      "before the ": 4475,
      "option": 4476,
      "a. ": 4477,
      "rop": 4478,
      "urrect": 4479,
      "ah!\r\n": 4480,
      "are you doing?\r\n": 4481,
      "present": 4482,
      "decis": 4483,
      "something?\r\n": 4484,
      "murder": 4485,
      "(%s": 4486,
      "in-": 4487,
      "- A ": 4488,
      "es...\r\n": 4489,
      "Okay. ": 4490,
      "l\r\n": 4491,
      "I said ": 4492,
      "is in the ": 4493,
      "You're a ": 4494,
      "Show": 4495,
      "viol": 4496,
      "God's ": 4497,
      "Default ": 4498,
      " talking about?\r\n": 4499,
      "surviv": 4500,
      "Bab": 4501,
      "cook": 4502,
      "Stat": 4503,
      "Yeah!\r\n": 4504,
      "a bit ": 4505,
      "look like ": 4506,
      "child ": 4507,
      "might be ": 4508,
      "Check ": 4509,
      "Set": 4510,
      "back to the ": 4511,
      "Sett": 4512,
      "ish.\r\n": 4513,
      "reason ": 4514,
      "idden ": 4515,
      "UN": 4516,
      "bast": 4517,
      "bigg": 4518,
      "kno": 4519,
      "pha": 4520,
      "fore": 4521,
      "You want to ": 4522,
      "word.\r\n": 4523,
      "mission ": 4524,
      "Ben": 4525,
      "Her ": 4526,
      "Val": 4527,
      "Y ": 4528,
      "one to ": 4529,
      "a and ": 4530,
      "at?\r\n": 4531,
      "esom": 4532,
      "de\r\n": 4533,
      "cast": 4534,
      "Allah has ": 4535,
      "Enable ": 4536,
      "TV": 4537,
      "air ": 4538,
      "gni": 4539,
      ", sir.\r\n": 4540,
      "issu": 4541,
      "ed t": 4542,
      "respect": 4543,
      "contact ": 4544,
      "Too ": 4545,
      "between": 4546,
      "%1\r\n": 4547,
      "er of the ": 4548,
      "know the ": 4549,
      "ction": 4550,
      "New Yor": 4551,
      "etimes ": 4552,
      "Asi": 4553,
      "elect": 4554,
      "gard": 4555,
      "looks like ": 4556,
      "messag": 4557,
      "million ": 4558,
      "instead ": 4559,
      "Mad": 4560,
      "Sign": 4561,
      "cou": 4562,
      "fing": 4563,
      "alone ": 4564,
      "Russi": 4565,
      "Jud": 4566,
      "soon.\r\n": 4567,
      "living ": 4568,
      "land.\r\n": 4569,
      "them.\r\n": 4570,
      "goddam": 4571,
      "request": 4572,
      "Then": 4573,
      "do you think ": 4574,
      "drink ": 4575,
      "find the ": 4576,
      ", that": 4577,
      "cit": 4578,
      "mom ": 4579,
      "and to ": 4580,
      "You're the ": 4581,
      "cele": 4582,
      "again?\r\n": 4583,
      "minutes ": 4584,
      "Foll": 4585,
      "LA": 4586,
      "pain": 4587,
      "you, and ": 4588,
      "her, ": 4589,
      "Got": 4590,
      "ency ": 4591,
      "We're not ": 4592,
      "Someone ": 4593,
      " tonight.\r\n": 4594,
      "Damn ": 4595,
      "Delete ": 4596,
      "fur": 4597,
      "you could ": 4598,
      "for you, ": 4599,
      "Head": 4600,
      "I've never ": 4601,
      "Check": 4602,
      "Rom": 4603,
      "Set ": 4604,
      "batt": 4605,
      "der ": 4606,
      "orig": 4607,
      "gest": 4608,
      "deli": 4609,
      "good to ": 4610,
      "let him ": 4611,
      "Send ": 4612,
      "one!\r\n": 4613,
      "for them ": 4614,
      "mbol": 4615,
      " telling ": 4616,
      "I told you ": 4617,
      "IC": 4618,
      "wo.\r\n": 4619,
      "has a ": 4620,
      "saying": 4621,
      "body's ": 4622,
      "Merciful": 4623,
      "Hu": 4624,
      "w.\r\n": 4625,
      "I feel ": 4626,
      "ed this ": 4627,
      "upon": 4628,
      "neither ": 4629,
      "es in ": 4630,
      "card": 4631,
      "either ": 4632,
      "e is ": 4633,
      "gett": 4634,
      "We need ": 4635,
      "business.\r\n": 4636,
      "Oliver": 4637,
      "War": 4638,
      "fol": 4639,
      "deliver": 4640,
      "y, and ": 4641,
      "He is the ": 4642,
      "pot": 4643,
      "myself": 4644,
      "such a ": 4645,
      "Image ": 4646,
      "success": 4647,
      "food ": 4648,
      "situ": 4649,
      "at, ": 4650,
      "separ": 4651,
      "going.\r\n": 4652,
      "necess": 4653,
      "outside ": 4654,
      "most": 4655,
      "something to ": 4656,
      "make sure ": 4657,
      "order ": 4658,
      "look.\r\n": 4659,
      "Sir, ": 4660,
      "configur": 4661,
      "What are you": 4662,
      "just like ": 4663,
      "only one ": 4664,
      "Everybody ": 4665,
      "0.\r\n": 4666,
      "Pa": 4667,
      "fal": 4668,
      "ident.\r\n": 4669,
      "poin": 4670,
      " thinking ": 4671,
      "I really ": 4672,
      "about your ": 4673,
      "Who are you?\r\n": 4674,
      "colum": 4675,
      "devic": 4676,
      "receiv": 4677,
      "Cong": 4678,
      "ple ": 4679,
      "priv": 4680,
      "s.\"\r\n": 4681,
      "s have ": 4682,
      "hamm": 4683,
      "And what ": 4684,
      "cloth": 4685,
      "Listen to ": 4686,
      "easy.\r\n": 4687,
      " true.\r\n": 4688,
      "drop ": 4689,
      "Hon": 4690,
      "city.\r\n": 4691,
      "wake ": 4692,
      "ar\r\n": 4693,
      "forgive ": 4694,
      "rible ": 4695,
      "worth": 4696,
      "aken ": 4697,
      " this t": 4698,
      "stuff ": 4699,
      "GNOM": 4700,
      "Cert": 4701,
      "unn": 4702,
      "fight.\r\n": 4703,
      " take the ": 4704,
      "So you ": 4705,
      " there is ": 4706,
      "number of ": 4707,
      "Perhap": 4708,
      "Fuck ": 4709,
      "at least ": 4710,
      "go to the ": 4711,
      "plan ": 4712,
      "get it ": 4713,
      "eyes.\r\n": 4714,
      "Alway": 4715,
      "saved ": 4716,
      "Sing": 4717,
      "pal": 4718,
      "see, ": 4719,
      "usu": 4720,
      "half": 4721,
      "I... ": 4722,
      "kid ": 4723,
      " to me.\r\n": 4724,
      "we should ": 4725,
      "cannot be ": 4726,
      "from a ": 4727,
      "make the ": 4728,
      ",\" ": 4729,
      "Jap": 4730,
      "a is ": 4731,
      "vious ": 4732,
      "business ": 4733,
      "Didn't ": 4734,
      "relat": 4735,
      "ite.\r\n": 4736,
      "- L": 4737,
      "Think ": 4738,
      "channe": 4739,
      "up\r\n": 4740,
      "Where are you ": 4741,
      "Get the ": 4742,
      "Here.\r\n": 4743,
      "aur": 4744,
      "deni": 4745,
      "rac": 4746,
      "ing up ": 4747,
      "ely": 4748,
      "They will ": 4749,
      "secret ": 4750,
      "bat": 4751,
      "ke, ": 4752,
      "- It ": 4753,
      "program": 4754,
      "Do you want to ": 4755,
      "Open the ": 4756,
      "jour": 4757,
      "for those who ": 4758,
      "back?\r\n": 4759,
      "display ": 4760,
      "Should ": 4761,
      "how you ": 4762,
      "one t": 4763,
      "state ": 4764,
      "it! ": 4765,
      "ing on ": 4766,
      "make you ": 4767,
      "where the ": 4768,
      "contact": 4769,
      "death.\r\n": 4770,
      "'em": 4771,
      "you that ": 4772,
      "or?\r\n": 4773,
      "revel": 4774,
      "like this": 4775,
      "port.\r\n": 4776,
      "mote ": 4777,
      " tomorrow.\r\n": 4778,
      "'?\r\n": 4779,
      "seek": 4780,
      "happen.\r\n": 4781,
      "Under": 4782,
      "'d be ": 4783,
      "colle": 4784,
      "Kr": 4785,
      "Loc": 4786,
      "My": 4787,
      "book ": 4788,
      "eld ": 4789,
      "ep.\r\n": 4790,
      " teach ": 4791,
      "explain": 4792,
      "(G": 4793,
      "1\r\n": 4794,
      "100": 4795,
      "Mac": 4796,
      "nes": 4797,
      "stick": 4798,
      "unless ": 4799,
      " to.\r\n": 4800,
      "y, you ": 4801,
      "fast.\r\n": 4802,
      "so that ": 4803,
      "She was ": 4804,
      "asking ": 4805,
      "Jan": 4806,
      "k\r\n": 4807,
      ", man.\r\n": 4808,
      "or the ": 4809,
      "of those who ": 4810,
      "do that?\r\n": 4811,
      "ap.\r\n": 4812,
      "ast.\r\n": 4813,
      "That's a ": 4814,
      "disc": 4815,
      "gives ": 4816,
      "hungr": 4817,
      "Mrs. ": 4818,
      "G ": 4819,
      "wood": 4820,
      "for.\r\n": 4821,
      "chie": 4822,
      "peopl": 4823,
      "recogni": 4824,
      "felt ": 4825,
      "you are.\r\n": 4826,
      "it was": 4827,
      " track": 4828,
      "I'm sorry ": 4829,
      "yeah, ": 4830,
      "sweet": 4831,
      "Eas": 4832,
      "Pha": 4833,
      "jump": 4834,
      "of our ": 4835,
      "tta ": 4836,
      "looked ": 4837,
      "Grand": 4838,
      "gun.\r\n": 4839,
      "crazy.\r\n": 4840,
      "Thanks, ": 4841,
      "Captain ": 4842,
      "Holy ": 4843,
      "Zo": 4844,
      "ned ": 4845,
      "seen": 4846,
      "forb": 4847,
      "Yeah?\r\n": 4848,
      "everybody ": 4849,
      "clean": 4850,
      "into a ": 4851,
      "wast": 4852,
      ", okay?\r\n": 4853,
      "sever": 4854,
      "alth": 4855,
      "We can't ": 4856,
      "Why": 4857,
      "about this ": 4858,
      " there are ": 4859,
      "ies and ": 4860,
      "Window": 4861,
      "in there.\r\n": 4862,
      "ence": 4863,
      "realiz": 4864,
      " to you ": 4865,
      "worship ": 4866,
      "we're gonna ": 4867,
      "better than ": 4868,
      "Ter": 4869,
      "Us": 4870,
      "rev": 4871,
      "sex": 4872,
      "on his ": 4873,
      "It's okay.\r\n": 4874,
      "rest of ": 4875,
      " times ": 4876,
      "My name is ": 4877,
      "a bad ": 4878,
      "There was ": 4879,
      "have.\r\n": 4880,
      "longer ": 4881,
      "leave.\r\n": 4882,
      "hide ": 4883,
      "inno": 4884,
      "eness ": 4885,
      "I did ": 4886,
      "at all.\r\n": 4887,
      "rock": 4888,
      "of the t": 4889,
      "That's what ": 4890,
      "audi": 4891,
      "life, ": 4892,
      "find a ": 4893,
      "after the ": 4894,
      "Big ": 4895,
      "h!\r\n": 4896,
      "you... ": 4897,
      "- Not ": 4898,
      "ing in the ": 4899,
      "mother.\r\n": 4900,
      "disbeliev": 4901,
      "pret": 4902,
      "Choose ": 4903,
      "Looks like ": 4904,
      "of t": 4905,
      "user ": 4906,
      "exam": 4907,
      "way?\r\n": 4908,
      "harm": 4909,
      "They were ": 4910,
      "serve ": 4911,
      "soldi": 4912,
      "Rep": 4913,
      "Sou": 4914,
      "i!\r\n": 4915,
      "ov": 4916,
      "s on the ": 4917,
      "confirm": 4918,
      "Come here.\r\n": 4919,
      "ready ": 4920,
      "seven ": 4921,
      ", they": 4922,
      "e! ": 4923,
      "hang": 4924,
      "kick": 4925,
      "- Y": 4926,
      "le?\r\n": 4927,
      "of you.\r\n": 4928,
      "Allah's ": 4929,
      "Bell": 4930,
      "Mal": 4931,
      "Other": 4932,
      "my.\r\n": 4933,
      "in\r\n": 4934,
      "with you?\r\n": 4935,
      "appreci": 4936,
      "field ": 4937,
      "moving ": 4938,
      "weren't ": 4939,
      "John ": 4940,
      "Since ": 4941,
      "vari": 4942,
      "refu": 4943,
      "along ": 4944,
      "Nobody ": 4945,
      "servant": 4946,
      "Sc": 4947,
      "dict": 4948,
      "past ": 4949,
      "le!\r\n": 4950,
      "unit": 4951,
      "get it.\r\n": 4952,
      "cover ": 4953,
      "phone.\r\n": 4954,
      "immediat": 4955,
      "Sm": 4956,
      "ago": 4957,
      "you t": 4958,
      "- Re": 4959,
      "like this.\r\n": 4960,
      "claim": 4961,
      "a mess": 4962,
      "broke ": 4963,
      "loved ": 4964,
      "Play": 4965,
      "fire.\r\n": 4966,
      "Addres": 4967,
      "use the ": 4968,
      "among the ": 4969,
      "He t": 4970,
      "Sch": 4971,
      "ware ": 4972,
      "worry ": 4973,
      ", you know, ": 4974,
      "Why do you ": 4975,
      "people, ": 4976,
      "stupid ": 4977,
      "Cam": 4978,
      "Folder": 4979,
      "Sal": 4980,
      "er-": 4981,
      "ut the ": 4982,
      " team ": 4983,
      " throw ": 4984,
      "daughter ": 4985,
      "I can't": 4986,
      "Back ": 4987,
      "Dou": 4988,
      " to get ": 4989,
      "event": 4990,
      "rog": 4991,
      "And We ": 4992,
      "It's all ": 4993,
      "again, ": 4994,
      "mean?\r\n": 4995,
      "spend ": 4996,
      "ages ": 4997,
      "list\r\n": 4998,
      "Command": 4999,
      "Whether to ": 5000,
      "origin": 5001,
      "Over": 5002,
      "Tom": 5003,
      "bra": 5004,
      "m\r\n": 5005,
      "ering ": 5006,
      "forth ": 5007,
      "ily": 5008,
      "ext\r\n": 5009,
      "You're gonna ": 5010,
      "thing's ": 5011,
      "a, who": 5012,
      "stuff.\r\n": 5013,
      "Ali": 5014,
      "DE": 5015,
      "ran": 5016,
      "son, ": 5017,
      "than": 5018,
      "lead ": 5019,
      "it and ": 5020,
      "plan.\r\n": 5021,
      "It's just ": 5022,
      "eye ": 5023,
      "ired ": 5024,
      "15": 5025,
      "Am ": 5026,
      "es:\r\n": 5027,
      " to this ": 5028,
      "Stre": 5029,
      "grate": 5030,
      "itten ": 5031,
      "Is there ": 5032,
      "child": 5033,
      "stop.\r\n": 5034,
      "choice.\r\n": 5035,
      "relig": 5036,
      "Mak": 5037,
      "low ": 5038,
      "edu": 5039,
      "New": 5040,
      " taken ": 5041,
      "heaven": 5042,
      "ratul": 5043,
      "Happ": 5044,
      "ung ": 5045,
      "do this ": 5046,
      "here and ": 5047,
      "Shit.\r\n": 5048,
      "story ": 5049,
      "crazy ": 5050,
      "fo": 5051,
      "on. ": 5052,
      "has to ": 5053,
      "and their ": 5054,
      "ole.\r\n": 5055,
      ": %": 5056,
      "Come on ": 5057,
      "Why did you ": 5058,
      "used": 5059,
      "famili": 5060,
      "ash.\r\n": 5061,
      "About ": 5062,
      "Barr": 5063,
      "Dire": 5064,
      "Mr ": 5065,
      ", Mr. ": 5066,
      "chos": 5067,
      "near ": 5068,
      "do this": 5069,
      "Oh, I ": 5070,
      "off!\r\n": 5071,
      "attent": 5072,
      "hot ": 5073,
      "data ": 5074,
      "diffic": 5075,
      "drug": 5076,
      "Litt": 5077,
      "SA": 5078,
      "ju": 5079,
      "jack": 5080,
      "mult": 5081,
      "smo": 5082,
      "ond ": 5083,
      "I couldn't ": 5084,
      "- Just ": 5085,
      "choose ": 5086,
      "Preferenc": 5087,
      " tried to ": 5088,
      "Micha": 5089,
      "Hop": 5090,
      "of them.\r\n": 5091,
      "he'll ": 5092,
      "do I ": 5093,
      "And when ": 5094,
      "waiting ": 5095,
      "you think?\r\n": 5096,
      "Ra": 5097,
      "by.\r\n": 5098,
      "men, ": 5099,
      "rect ": 5100,
      "I do not ": 5101,
      "chance ": 5102,
      "we?\r\n": 5103,
      "propert": 5104,
      "support ": 5105,
      "chast": 5106,
      "device ": 5107,
      "More ": 5108,
      "said, “": 5109,
      "Ap": 5110,
      "fle": 5111,
      "spre": 5112,
      "begin": 5113,
      "ation?\r\n": 5114,
      "He will": 5115,
      "monst": 5116,
      "And that ": 5117,
      "ma'": 5118,
      "Wait!\r\n": 5119,
      "ateg": 5120,
      "messeng": 5121,
      "Offic": 5122,
      "I.\r\n": 5123,
      "bal": 5124,
      "are, ": 5125,
      "neigh": 5126,
      "surpris": 5127,
      "waiting for ": 5128,
      "Their ": 5129,
      "inside.\r\n": 5130,
      "ublic ": 5131,
      "Bri": 5132,
      "pt ": 5133,
      "oud": 5134,
      "you take ": 5135,
      "ations\r\n": 5136,
      "guil": 5137,
      "man's ": 5138,
      "if it ": 5139,
      ", thank": 5140,
      "pull ": 5141,
      "Auth": 5142,
      "either.\r\n": 5143,
      "wife": 5144,
      "il.\r\n": 5145,
      "press ": 5146,
      "good, ": 5147,
      "window\r\n": 5148,
      "one\r\n": 5149,
      "get.\r\n": 5150,
      "blow ": 5151,
      "access": 5152,
      "crimin": 5153,
      "'s.\r\n": 5154,
      "Afri": 5155,
      "EL": 5156,
      "Kill": 5157,
      "`%s": 5158,
      "food": 5159,
      "nice.\r\n": 5160,
      "ene": 5161,
      "ham ": 5162,
      "guard": 5163,
      "? !\r\n": 5164,
      "see you.\r\n": 5165,
      "did he ": 5166,
      "This is my ": 5167,
      "Connect": 5168,
      "Tell": 5169,
      "lives ": 5170,
      "question ": 5171,
      "Evolut": 5172,
      "Help!\r\n": 5173,
      "ible ": 5174,
      "late ": 5175,
      "s; ": 5176,
      "we go.\r\n": 5177,
      "bot": 5178,
      "ign ": 5179,
      "water.\r\n": 5180,
      "Lord.\r\n": 5181,
      "won't be ": 5182,
      " turned ": 5183,
      "caught ": 5184,
      "Fri": 5185,
      "Huh?\r\n": 5186,
      "besid": 5187,
      "ed by the ": 5188,
      "died ": 5189,
      "hand.\r\n": 5190,
      "corn": 5191,
      "syn": 5192,
      "feeling ": 5193,
      "Edit": 5194,
      "full of ": 5195,
      "mountain": 5196,
      "list of ": 5197,
      "s were ": 5198,
      "- So ": 5199,
      "sequ": 5200,
      "ed, and ": 5201,
      "s, you ": 5202,
      "come on, ": 5203,
      "return ": 5204,
      "When you ": 5205,
      "Close ": 5206,
      "Sol": 5207,
      "ian ": 5208,
      "mir": 5209,
      "remain ": 5210,
      "- My ": 5211,
      "Beli": 5212,
      "killing ": 5213,
      "ones.\r\n": 5214,
      "lost.\r\n": 5215,
      "Sto": 5216,
      "Change ": 5217,
      "find out ": 5218,
      "house": 5219,
      "profess": 5220,
      "% ": 5221,
      "16": 5222,
      "s or ": 5223,
      "bey": 5224,
      "And he ": 5225,
      "... but ": 5226,
      " true ": 5227,
      "fine ": 5228,
      "Start ": 5229,
      "fun.\r\n": 5230,
      "Great ": 5231,
      "local ": 5232,
      "x\r\n": 5233,
      "remind": 5234,
      "edit": 5235,
      "icul": 5236,
      "am, ": 5237,
      "sug": 5238,
      "rather ": 5239,
      "side.\r\n": 5240,
      "like that ": 5241,
      "sir?\r\n": 5242,
      "need to": 5243,
      "hours.\r\n": 5244,
      "completely ": 5245,
      "meeting ": 5246,
      "goddamn ": 5247,
      ":%": 5248,
      "Kar": 5249,
      "cool": 5250,
      "coffe": 5251,
      "Three ": 5252,
      "in our ": 5253,
      "on it.\r\n": 5254,
      "cked ": 5255,
      "fell ": 5256,
      "out there.\r\n": 5257,
      "himself ": 5258,
      "fault.\r\n": 5259,
      "action ": 5260,
      "black": 5261,
      "code ": 5262,
      "involv": 5263,
      "to the ": 5264,
      "Print": 5265,
      "certific": 5266,
      "Way": 5267,
      "ahead.\r\n": 5268,
      "bly ": 5269,
      "ifi": 5270,
      "row ": 5271,
      "orn": 5272,
      "ing them ": 5273,
      "road": 5274,
      "express": 5275,
      "sudd": 5276,
      "just...\r\n": 5277,
      "anci": 5278,
      "iter": 5279,
      "nobody ": 5280,
      "are they ": 5281,
      "do the ": 5282,
      "ple.\r\n": 5283,
      "happen ": 5284,
      "key.\r\n": 5285,
      "but the ": 5286,
      "named ": 5287,
      "shot.\r\n": 5288,
      "Father": 5289,
      "Ah, ": 5290,
      "I thought": 5291,
      "Pi": 5292,
      "s as ": 5293,
      "thre": 5294,
      "Don't be ": 5295,
      "Surely ": 5296,
      "ype\r\n": 5297,
      "Profess": 5298,
      "definitely ": 5299,
      "song": 5300,
      "uk": 5301,
      "wise ": 5302,
      "I believe ": 5303,
      "for you to ": 5304,
      "some t": 5305,
      " the tr": 5306,
      "before you ": 5307,
      "hear me?\r\n": 5308,
      "whether ": 5309,
      "wish ": 5310,
      "yester": 5311,
      "ing at ": 5312,
      "opp": 5313,
      "grow": 5314,
      "brain": 5315,
      "slow": 5316,
      " tonight": 5317,
      "scen": 5318,
      "Move!\r\n": 5319,
      "s, the ": 5320,
      "I haven't ": 5321,
      "- What": 5322,
      "of Allah": 5323,
      "with that ": 5324,
      " talk.\r\n": 5325,
      "I wouldn't ": 5326,
      "investig": 5327,
      " to a ": 5328,
      "is that?\r\n": 5329,
      "de, ": 5330,
      "el\r\n": 5331,
      "guar": 5332,
      "get some ": 5333,
      "etc": 5334,
      "heart.\r\n": 5335,
      "Does": 5336,
      "enough to ": 5337,
      "pix": 5338,
      "Come on. ": 5339,
      "Lin": 5340,
      "fru": 5341,
      "ves ": 5342,
      "y t": 5343,
      "an's ": 5344,
      "level ": 5345,
      "see?\r\n": 5346,
      "all this ": 5347,
      "and t": 5348,
      "prove ": 5349,
      "He's not ": 5350,
      "a sing": 5351,
      "Yes, sir.\r\n": 5352,
      "night, ": 5353,
      "Of course.\r\n": 5354,
      "Geor": 5355,
      "Docum": 5356,
      "pis": 5357,
      "at\r\n": 5358,
      "- N": 5359,
      "Start": 5360,
      "strong ": 5361,
      "link": 5362,
      "heavens and the earth": 5363,
      "Are you sure you want to ": 5364,
      "in front of ": 5365,
      "EN": 5366,
      "als.\r\n": 5367,
      "be?\r\n": 5368,
      "add ": 5369,
      "get your ": 5370,
      "This isn't ": 5371,
      "there.\r\n": 5372,
      "I don't want ": 5373,
      "Unt": 5374,
      "marry ": 5375,
      "Listen": 5376,
      "calend": 5377,
      "Dad!\r\n": 5378,
      "destroy ": 5379,
      "Hou": 5380,
      "Kat": 5381,
      "langu": 5382,
      "milit": 5383,
      "hall": 5384,
      "ional ": 5385,
      "You need to ": 5386,
      "ird ": 5387,
      "what to ": 5388,
      "What's your ": 5389,
      "Europe": 5390,
      "celebr": 5391,
      "30": 5392,
      "[ ": 5393,
      "you go.\r\n": 5394,
      "is in ": 5395,
      "ride ": 5396,
      "are not ": 5397,
      " time": 5398,
      "iles ": 5399,
      "14": 5400,
      "Ger": 5401,
      "Ph": 5402,
      "Pan": 5403,
      "Time ": 5404,
      "hunt": 5405,
      "is your ": 5406,
      "god ": 5407,
      "all, ": 5408,
      "compl": 5409,
      "ement": 5410,
      "caus": 5411,
      "missed ": 5412,
      "Pass": 5413,
      "lli": 5414,
      "you in ": 5415,
      "and you ": 5416,
      "were t": 5417,
      "Abra": 5418,
      "learn ": 5419,
      "please?\r\n": 5420,
      "Was ": 5421,
      "’s ": 5422,
      "en't": 5423,
      "three ": 5424,
      "No, you ": 5425,
      "mort": 5426,
      "perfect": 5427,
      "anybody ": 5428,
      "establ": 5429,
      "How about ": 5430,
      "dark ": 5431,
      "onder ": 5432,
      "around the ": 5433,
      "Dep": 5434,
      "Scre": 5435,
      "nut": 5436,
      "spr": 5437,
      "real.\r\n": 5438,
      "chick": 5439,
      "amet": 5440,
      "it out.\r\n": 5441,
      "And if ": 5442,
      "modi": 5443,
      "with their ": 5444,
      "pped ": 5445,
      "come back ": 5446,
      "How did you ": 5447,
      "calling ": 5448,
      "a part": 5449,
      "each other": 5450,
      "Edit ": 5451,
      "prison": 5452,
      "soul ": 5453,
      "Whether ": 5454,
      "apologi": 5455,
      ", uh": 5456,
      "repe": 5457,
      "reward ": 5458,
      "ature": 5459,
      " tech": 5460,
      "day?\r\n": 5461,
      "club": 5462,
      "account ": 5463,
      "long.\r\n": 5464,
      "understand?\r\n": 5465,
      "game.\r\n": 5466,
      "against the ": 5467,
      "18": 5468,
      "Turn ": 5469,
      "bomb": 5470,
      "coun": 5471,
      "sens": 5472,
      "- Who": 5473,
      "y, but ": 5474,
      "parents ": 5475,
      "second.\r\n": 5476,
      "father's ": 5477,
      "control": 5478,
      "photo": 5479,
      "Phara": 5480,
      "Little ": 5481,
      "Hy": 5482,
      "rela": 5483,
      "we don't ": 5484,
      "blow": 5485,
      "make me ": 5486,
      "could have ": 5487,
      "a sm": 5488,
      "don't think ": 5489,
      " the truth": 5490,
      "David": 5491,
      "experi": 5492,
      "sacrif": 5493,
      "Del": 5494,
      "bin": 5495,
      "inf": 5496,
      "is it ": 5497,
      " to you.\r\n": 5498,
      "chance.\r\n": 5499,
      "suck": 5500,
      "wait, ": 5501,
      "playing ": 5502,
      "question.\r\n": 5503,
      "seem ": 5504,
      "American ": 5505,
      "(O ": 5506,
      "_R": 5507,
      "cool.\r\n": 5508,
      "hone": 5509,
      "includ": 5510,
      "ory.\r\n": 5511,
      "You said ": 5512,
      "meant": 5513,
      "we will ": 5514,
      "fix ": 5515,
      "morning ": 5516,
      "need a ": 5517,
      "ward.\r\n": 5518,
      "beautiful.\r\n": 5519,
      " tomorrow": 5520,
      "Cur": 5521,
      "TH": 5522,
      "bank": 5523,
      "path ": 5524,
      ", huh?\r\n": 5525,
      "verily ": 5526,
      ", you can ": 5527,
      "Mother": 5528,
      "home, ": 5529,
      "label\r\n": 5530,
      "GH": 5531,
      "RA": 5532,
      "Vict": 5533,
      "ore": 5534,
      ". I'm ": 5535,
      "here\r\n": 5536,
      "Stand ": 5537,
      "position": 5538,
      "Black ": 5539,
      "Open": 5540,
      "morning, ": 5541,
      "street": 5542,
      "Congratul": 5543,
      "Script": 5544,
      "We t": 5545,
      "lt": 5546,
      "y... ": 5547,
      "meas": 5548,
      "deal.\r\n": 5549,
      "Ste": 5550,
      "help you ": 5551,
      "password ": 5552,
      "standing ": 5553,
      "Speci": 5554,
      "detail": 5555,
      "dollar": 5556,
      "= ": 5557,
      "lam": 5558,
      "les.\r\n": 5559,
      "ion to ": 5560,
      "apt": 5561,
      "apart": 5562,
      "want me to ": 5563,
      "I wish ": 5564,
      "hammad": 5565,
      "hasn't ": 5566,
      "which they ": 5567,
      "Search": 5568,
      "I get ": 5569,
      "- Okay, ": 5570,
      "for that ": 5571,
      "have to": 5572,
      "determin": 5573,
      "proper": 5574,
      "gotten ": 5575,
      "seek ": 5576,
      "empty ": 5577,
      "What happened?\r\n": 5578,
      "i-": 5579,
      "ious": 5580,
      "mil": 5581,
      "rout": 5582,
      "in t": 5583,
      " thos": 5584,
      " though": 5585,
      "organ": 5586,
      "I want": 5587,
      "you for ": 5588,
      "I don't know": 5589,
      "... that ": 5590,
      "Bett": 5591,
      "Chil": 5592,
      "Enter": 5593,
      "Fren": 5594,
      "I need you to ": 5595,
      "i.": 5596,
      "y, the ": 5597,
      "I gotta ": 5598,
      "allow ": 5599,
      "look at": 5600,
      "Enter ": 5601,
      "school.\r\n": 5602,
      "Muhammad": 5603,
      "answer ": 5604,
      "communic": 5605,
      "Pow": 5606,
      "ies\r\n": 5607,
      "s)\r\n": 5608,
      "x, ": 5609,
      "itud": 5610,
      "we got ": 5611,
      " them!\r\n": 5612,
      "strang": 5613,
      "folder\r\n": 5614,
      "yöu ": 5615,
      "Actually, ": 5616,
      "Ba": 5617,
      "ip ": 5618,
      "s me ": 5619,
      " then, ": 5620,
      "ons ": 5621,
      "reject": 5622,
      "- No ": 5623,
      "- Thank you.\r\n": 5624,
      "rodu": 5625,
      "agu": 5626,
      "peace ": 5627,
      "believers.\r\n": 5628,
      "Captain": 5629,
      "Direct": 5630,
      "15 ": 5631,
      "Tool": 5632,
      "bill": 5633,
      "ans.\r\n": 5634,
      "....\r\n": 5635,
      "ly the ": 5636,
      "spend": 5637,
      "fuckin' ": 5638,
      "God has ": 5639,
      "I love you.\r\n": 5640,
      "Preferences\r\n": 5641,
      "Dat": 5642,
      "Swe": 5643,
      "gather": 5644,
      "you tell ": 5645,
      "I am.\r\n": 5646,
      "Thre": 5647,
      "river": 5648,
      "hes ": 5649,
      "ah.\r\n": 5650,
      "We should ": 5651,
      "How many ": 5652,
      "They've ": 5653,
      "I am not ": 5654,
      "story.\r\n": 5655,
      "missing ": 5656,
      "extr": 5657,
      "Doct": 5658,
      "Hang ": 5659,
      "zer": 5660,
      "a great ": 5661,
      "you should ": 5662,
      "convers": 5663,
      "prot": 5664,
      "How long ": 5665,
      "sure?\r\n": 5666,
      "Work": 5667,
      "promise.\r\n": 5668,
      " the truth ": 5669,
      "gram ": 5670,
      "Hurry ": 5671,
      ".’\r\n": 5672,
      "I made ": 5673,
      "You look ": 5674,
      "guess": 5675,
      "iled ": 5676,
      "izont": 5677,
      "isn't it?\r\n": 5678,
      "Jesus ": 5679,
      "receive ": 5680,
      "0}": 5681,
      "Ric": 5682,
      "oh ": 5683,
      "beat": 5684,
      "her!\r\n": 5685,
      "on our ": 5686,
      "Str": 5687,
      "when we ": 5688,
      "accord": 5689,
      "born ": 5690,
      "important ": 5691,
      "Wid": 5692,
      "ran ": 5693,
      "initi": 5694,
      "You guys ": 5695,
      "love": 5696,
      "depart": 5697,
      "Let's go ": 5698,
      "swear": 5699,
      "choic": 5700,
      "address ": 5701,
      "field": 5702,
      "DA": 5703,
      "King ": 5704,
      "Rel": 5705,
      "a... ": 5706,
      " though ": 5707,
      "- Where ": 5708,
      "en of ": 5709,
      "You didn't ": 5710,
      "detect": 5711,
      "come to": 5712,
      "utt": 5713,
      "deskt": 5714,
      "ject\r\n": 5715,
      "Options\r\n": 5716,
      "Bos": 5717,
      "Ram": 5718,
      "e.\"\r\n": 5719,
      "source ": 5720,
      "{0}": 5721,
      "is my ": 5722,
      "also": 5723,
      "get out of ": 5724,
      "say that ": 5725,
      "could not be ": 5726,
      "because of ": 5727,
      "Wait": 5728,
      "bird": 5729,
      "sort of ": 5730,
      "future ": 5731,
      "buddy.\r\n": 5732,
      "benef": 5733,
      "Ray": 5734,
      "me to": 5735,
      " then.\r\n": 5736,
      "erc": 5737,
      "owe ": 5738,
      "ruct": 5739,
      "Trust ": 5740,
      "board short": 5741,
      "video ": 5742,
      "point.\r\n": 5743,
      "Gard": 5744,
      "Ry": 5745,
      "Sher": 5746,
      "Tri": 5747,
      "bitch": 5748,
      "of those ": 5749,
      "in here.\r\n": 5750,
      "known": 5751,
      "Ange": 5752,
      "defe": 5753,
      "elop": 5754,
      "It doesn't ": 5755,
      "present ": 5756,
      "each other.\r\n": 5757,
      "Where's the ": 5758,
      "Resurrect": 5759,
      "afraid": 5760,
      "Detect": 5761,
      "ugin": 5762,
      "ous?\r\n": 5763,
      "- But ": 5764,
      "oo!\r\n": 5765,
      "it up.\r\n": 5766,
      " to them": 5767,
      "He'll ": 5768,
      "quot": 5769,
      "ourselv": 5770,
      "...\"\r\n": 5771,
      "how much ": 5772,
      "Quick": 5773,
      "build ": 5774,
      "After": 5775,
      "passed ": 5776,
      "General ": 5777,
      "Raj": 5778,
      "degre": 5779,
      "Nothing.\r\n": 5780,
      "uly ": 5781,
      "like you ": 5782,
      "say: ": 5783,
      "prev": 5784,
      "hands ": 5785,
      "Wait a ": 5786,
      "join ": 5787,
      "I can't believe ": 5788,
      "possible": 5789,
      "week.\r\n": 5790,
      "). ": 5791,
      "brid": 5792,
      "gen": 5793,
      "ly?\r\n": 5794,
      "- Who ": 5795,
      "All\r\n": 5796,
      "day\r\n": 5797,
      "brought": 5798,
      "offici": 5799,
      "buck": 5800,
      "year.\r\n": 5801,
      "If the ": 5802,
      "wife.\r\n": 5803,
      "What is it?\r\n": 5804,
      "Wil": 5805,
      "_F": 5806,
      "ai ": 5807,
      "ib": 5808,
      "ot ": 5809,
      "of us ": 5810,
      "your own ": 5811,
      "ely, ": 5812,
      "enti": 5813,
      "result": 5814,
      "earli": 5815,
      ", you know": 5816,
      "Do you think ": 5817,
      "help me ": 5818,
      "join": 5819,
      "moment ": 5820,
      "delete ": 5821,
      "Here, ": 5822,
      "-l": 5823,
      "CD": 5824,
      "ST": 5825,
      "fool": 5826,
      "oh, ": 5827,
      ", a ": 5828,
      "thought ": 5829,
      "I found ": 5830,
      "liz": 5831,
      "We gotta ": 5832,
      "giving ": 5833,
      "those who ": 5834,
      "straight ": 5835,
      "Run!\r\n": 5836,
      "ID ": 5837,
      "Net": 5838,
      "cow": 5839,
      "ern": 5840,
      "ingt": 5841,
      "an ex": 5842,
      "lot ": 5843,
      "ents\r\n": 5844,
      "What a ": 5845,
      "happy.\r\n": 5846,
      "... to ": 5847,
      "format ": 5848,
      "effect": 5849,
      "location ": 5850,
      "daughter.\r\n": 5851,
      "Shall ": 5852,
      "relation": 5853,
      " the hell ": 5854,
      "- We're ": 5855,
      " thee ": 5856,
      "in order": 5857,
      "irt": 5858,
      "weak": 5859,
      "know who ": 5860,
      "ruth": 5861,
      "does that ": 5862,
      "files ": 5863,
      "months ": 5864,
      "XM": 5865,
      "choo": 5866,
      "ge, ": 5867,
      " to t": 5868,
      "el, ": 5869,
      "When the ": 5870,
      "rav": 5871,
      "raz": 5872,
      "disappear": 5873,
      "ured ": 5874,
      "end of the ": 5875,
      "ousand ": 5876,
      "baby ": 5877,
      "mission.\r\n": 5878,
      "possible ": 5879,
      "Such ": 5880,
      "least": 5881,
      "force ": 5882,
      "idi": 5883,
      "it will ": 5884,
      "do with ": 5885,
      "... you ": 5886,
      "What did you ": 5887,
      ", I was ": 5888,
      "minist": 5889,
      "people of ": 5890,
      "law ": 5891,
      "rypt": 5892,
      "OK, ": 5893,
      "failed": 5894,
      "Gam": 5895,
      "lay ": 5896,
      "remov": 5897,
      "reach ": 5898,
      "I wanna ": 5899,
      "ature ": 5900,
      "light.\r\n": 5901,
      "and your ": 5902,
      "all the t": 5903,
      "dog ": 5904,
      "bless": 5905,
      "What, ": 5906,
      "said to ": 5907,
      "ence, ": 5908,
      "That's": 5909,
      "Bad ": 5910,
      "Path": 5911,
      "Yes.\r\n": 5912,
      "case.\r\n": 5913,
      "s for the ": 5914,
      "on t": 5915,
      "blood.\r\n": 5916,
      "And, ": 5917,
      "Ac": 5918,
      "then ": 5919,
      "Ant": 5920,
      "Hey. ": 5921,
      "earn": 5922,
      " them. ": 5923,
      "about you.\r\n": 5924,
      "bye.\r\n": 5925,
      "I have no ": 5926,
      "move!\r\n": 5927,
      "crib": 5928,
      "complete ": 5929,
      "Remember ": 5930,
      "Am I ": 5931,
      "0\r\n": 5932,
      "Curr": 5933,
      "Pos": 5934,
      "lu": 5935,
      "swi": 5936,
      "- I'll ": 5937,
      "- Good ": 5938,
      "gho": 5939,
      "go. ": 5940,
      "it all ": 5941,
      "specifi": 5942,
      "please, ": 5943,
      "motherfuck": 5944,
      "9 ": 5945,
      "on their ": 5946,
      "Your": 5947,
      "perhap": 5948,
      "notic": 5949,
      "occur": 5950,
      "For the ": 5951,
      "Yes. ": 5952,
      " takes ": 5953,
      "view\r\n": 5954,
      "concern": 5955,
      "3\r\n": 5956,
      "I tell ": 5957,
      "Sur": 5958,
      "cend": 5959,
      "s-": 5960,
      "- Come on, ": 5961,
      "for their ": 5962,
      "with his ": 5963,
      "attack ": 5964,
      "war.\r\n": 5965,
      "putt": 5966,
      "directory ": 5967,
      "Dad, ": 5968,
      "Excuse me, ": 5969,
      "Ret": 5970,
      "ather ": 5971,
      "ahead ": 5972,
      "I got": 5973,
      "ition.\r\n": 5974,
      "achi": 5975,
      "image\r\n": 5976,
      "your t": 5977,
      "glad ": 5978,
      "OK?\r\n": 5979,
      "Display ": 5980,
      "collect": 5981,
      "Christm": 5982,
      "mistak": 5983,
      "smell": 5984,
      "Bat": 5985,
      "Tar": 5986,
      "dad.\r\n": 5987,
      "re.\r\n": 5988,
      "rest.\r\n": 5989,
      "- Well, ": 5990,
      "introdu": 5991,
      "if you're ": 5992,
      "hard to ": 5993,
      "was that?\r\n": 5994,
      "ive\r\n": 5995,
      "pressed ": 5996,
      "made the ": 5997,
      "invalid ": 5998,
      "yell": 5999,
      "Color": 6000,
      "witness": 6001,
      "personal ": 6002,
      "Number of ": 6003,
      "Key ": 6004,
      "N ": 6005,
      "e, the ": 6006,
      "nu": 6007,
      "smar": 6008,
      "ers are ": 6009,
      "reck": 6010,
      "gold": 6011,
      "ations, ": 6012,
      "many": 6013,
      " team": 6014,
      "cell ": 6015,
      "order.\r\n": 6016,
      "let them ": 6017,
      "jok": 6018,
      "scared ": 6019,
      "faith ": 6020,
      ")}": 6021,
      "CK": 6022,
      "Vol": 6023,
      "shar": 6024,
      " thank": 6025,
      "lie ": 6026,
      "ic\r\n": 6027,
      "We had ": 6028,
      "with.\r\n": 6029,
      "water": 6030,
      "Jose": 6031,
      "small ": 6032,
      "position ": 6033,
      "Chinese ": 6034,
      "'d": 6035,
      "Fire ": 6036,
      "mos": 6037,
      "yr": 6038,
      "arm ": 6039,
      "- Wh": 6040,
      "why": 6041,
      "absolut": 6042,
      "emerg": 6043,
      ", I am ": 6044,
      "anymor": 6045,
      ", there": 6046,
      "alize ": 6047,
      "ance, ": 6048,
      "kidding ": 6049,
      "Black": 6050,
      "Asia/": 6051,
      "-do": 6052,
      "Cat": 6053,
      "I-": 6054,
      "corr": 6055,
      "s at ": 6056,
      "erv": 6057,
      "itch.\r\n": 6058,
      "is this?\r\n": 6059,
      "Then, ": 6060,
      "going": 6061,
      "it down.\r\n": 6062,
      "can't.\r\n": 6063,
      "Inst": 6064,
      "awesom": 6065,
      "kidd": 6066,
      "I thought you ": 6067,
      "supposed to be ": 6068,
      "authentic": 6069,
      "document ": 6070,
      "size\r\n": 6071,
      "Oli": 6072,
      "it's the ": 6073,
      "for you": 6074,
      "out there ": 6075,
      "poor ": 6076,
      "get this ": 6077,
      "indic": 6078,
      "GNOME ": 6079,
      "\", \"": 6080,
      "Out ": 6081,
      "Ren": 6082,
      "hero": 6083,
      "default": 6084,
      "It's my ": 6085,
      ", you are ": 6086,
      "blu": 6087,
      "iff": 6088,
      "shall": 6089,
      "And that's ": 6090,
      "body, ": 6091,
      "call.\r\n": 6092,
      "just the ": 6093,
      "invit": 6094,
      "ggle ": 6095,
      "show you ": 6096,
      "each other ": 6097,
      "hearts ": 6098,
      "judg": 6099,
      "Kill ": 6100,
      "S\r\n": 6101,
      "bul": 6102,
      "mid": 6103,
      "itch ": 6104,
      "bear ": 6105,
      "me...\r\n": 6106,
      "decl": 6107,
      "compet": 6108,
      "um, ": 6109,
      " the two ": 6110,
      "guys, ": 6111,
      "Are you okay?\r\n": 6112,
      "country ": 6113,
      "Tha": 6114,
      "Text ": 6115,
      "bar ": 6116,
      "er in ": 6117,
      "in and ": 6118,
      "on and ": 6119,
      "worried ": 6120,
      "from their ": 6121,
      "ach.\r\n": 6122,
      "flu": 6123,
      "charge ": 6124,
      "sleep.\r\n": 6125,
      " themselves ": 6126,
      "Nick": 6127,
      "bas": 6128,
      "pass ": 6129,
      "scor": 6130,
      "van": 6131,
      "th of ": 6132,
      "open the ": 6133,
      "week ": 6134,
      "what do you ": 6135,
      "He who ": 6136,
      "prec": 6137,
      "bar\r\n": 6138,
      "hundred ": 6139,
      "instead of ": 6140,
      ".S": 6141,
      "ahead": 6142,
      "y that ": 6143,
      "ous, ": 6144,
      "is an ": 6145,
      "ed it.\r\n": 6146,
      "nother ": 6147,
      "unk ": 6148,
      "ily, ": 6149,
      "diam": 6150,
      "That's my ": 6151,
      ", those ": 6152,
      "about that.\r\n": 6153,
      "crit": 6154,
      "I'm not gonna ": 6155,
      "away!\r\n": 6156,
      "No, no, no.\r\n": 6157,
      "a single ": 6158,
      "-M": 6159,
      "Lar": 6160,
      "Lat": 6161,
      "You gotta ": 6162,
      "with him.\r\n": 6163,
      ", and you ": 6164,
      "anyway.\r\n": 6165,
      "He's a ": 6166,
      "kids ": 6167,
      "configuration ": 6168,
      ".A": 6169,
      "Clear": 6170,
      "FI": 6171,
      "cast ": 6172,
      "dud": 6173,
      "pag": 6174,
      "push": 6175,
      "ated": 6176,
      "es to the ": 6177,
      "now\r\n": 6178,
      "come, ": 6179,
      "like this ": 6180,
      "him. ": 6181,
      "somewhere ": 6182,
      "perfect ": 6183,
      "said.\r\n": 6184,
      "udd": 6185,
      "company ": 6186,
      "Is he ": 6187,
      "What the fuck ": 6188,
      "chastis": 6189,
      "Stock ": 6190,
      "CI": 6191,
      "Hand": 6192,
      "uri": 6193,
      " till ": 6194,
      "you who ": 6195,
      "oot.\r\n": 6196,
      "gold ": 6197,
      "and, ": 6198,
      "so, ": 6199,
      "class": 6200,
      "desire": 6201,
      "glad": 6202,
      "Ask ": 6203,
      "No, no, no, ": 6204,
      "Guys, ": 6205,
      "Settings\r\n": 6206,
      "folk": 6207,
      "2.\r\n": 6208,
      "CP": 6209,
      "Part": 6210,
      "S) ": 6211,
      "de.\r\n": 6212,
      "e.": 6213,
      "pant": 6214,
      "inj": 6215,
      "regre": 6216,
      "er for ": 6217,
      "while.\r\n": 6218,
      "e two ": 6219,
      "We just ": 6220,
      "he has ": 6221,
      "his own ": 6222,
      "grant": 6223,
      "ruin": 6224,
      " take it ": 6225,
      "Before ": 6226,
      "is not a ": 6227,
      "Brother": 6228,
      "consider": 6229,
      ", their ": 6230,
      "Try ": 6231,
      "rad": 6232,
      "ouch": 6233,
      "once.\r\n": 6234,
      "you'll be ": 6235,
      "setting ": 6236,
      "we could ": 6237,
      "attribut": 6238,
      "Why don't ": 6239,
      "a mist": 6240,
      "descript": 6241,
      "smart": 6242,
      " the truth.\r\n": 6243,
      "switch": 6244,
      "they're ": 6245,
      "flict": 6246,
      "government ": 6247,
      "middle ": 6248,
      "Follow ": 6249,
      "Africa": 6250,
      "HT": 6251,
      "Next ": 6252,
      "eight ": 6253,
      "sit": 6254,
      "recor": 6255,
      "I heard ": 6256,
      "imp": 6257,
      "what I'm ": 6258,
      "ended ": 6259,
      " them, and ": 6260,
      "grow ": 6261,
      "blame ": 6262,
      "ready?\r\n": 6263,
      "right here.\r\n": 6264,
      "people are ": 6265,
      "must have ": 6266,
      "kidn": 6267,
      "Forgiv": 6268,
      "ask you ": 6269,
      "Blu": 6270,
      "nerv": 6271,
      "17": 6272,
      "12 ": 6273,
      "less.\r\n": 6274,
      ", not ": 6275,
      "is\r\n": 6276,
      "see that ": 6277,
      "bet ": 6278,
      "up. ": 6279,
      "doing.\r\n": 6280,
      "with me ": 6281,
      "And now ": 6282,
      "e to meet ": 6283,
      "man. ": 6284,
      "because you ": 6285,
      "building ": 6286,
      "seconds.\r\n": 6287,
      "paid ": 6288,
      "(to ": 6289,
      "Bon": 6290,
      "Vis": 6291,
      "dumb": 6292,
      "hour ": 6293,
      "ray ": 6294,
      "sell ": 6295,
      "roll ": 6296,
      "deep ": 6297,
      "What you ": 6298,
      "empl": 6299,
      "littl": 6300,
      "United ": 6301,
      "brok": 6302,
      "ize\r\n": 6303,
      "a ter": 6304,
      "Can we ": 6305,
      "call me ": 6306,
      " told me ": 6307,
      "let's go.\r\n": 6308,
      "Sorry ": 6309,
      "What the hell": 6310,
      "Messenger ": 6311,
      "available ": 6312,
      "Five ": 6313,
      "Lay": 6314,
      "Lev": 6315,
      "Light": 6316,
      "Sco": 6317,
      "sat": 6318,
      "soft": 6319,
      "edd": 6320,
      "rick": 6321,
      "assho": 6322,
      "it in ": 6323,
      " today ": 6324,
      "in the t": 6325,
      ", you know?\r\n": 6326,
      "you're a ": 6327,
      "Uncle ": 6328,
      "clear.\r\n": 6329,
      "Whoa!\r\n": 6330,
      "others ": 6331,
      "fun ": 6332,
      "(%s)\r\n": 6333,
      "B\r\n": 6334,
      "Goo": 6335,
      "UT": 6336,
      "pil": 6337,
      "ers?\r\n": 6338,
      "- You": 6339,
      "whos": 6340,
      "wear ": 6341,
      "quiet": 6342,
      "care.\r\n": 6343,
      "attach": 6344,
      "accept ": 6345,
      "What's going on?\r\n": 6346,
      "Please!\r\n": 6347,
      "anything?\r\n": 6348,
      "Kir": 6349,
      "Mik": 6350,
      "mitt": 6351,
      "scr": 6352,
      "amm": 6353,
      "shit": 6354,
      "do to ": 6355,
      "cred": 6356,
      "so...\r\n": 6357,
      "aware ": 6358,
      "worked ": 6359,
      "ly\r\n": 6360,
      "design": 6361,
      "steal": 6362,
      "mode\r\n": 6363,
      "doubt ": 6364,
      "Go, go, ": 6365,
      "Lau": 6366,
      ", your ": 6367,
      "or!\r\n": 6368,
      "en's ": 6369,
      "forget": 6370,
      "forever.\r\n": 6371,
      "go\r\n": 6372,
      "we have to ": 6373,
      "so much": 6374,
      "finish ": 6375,
      "pock": 6376,
      "you're the ": 6377,
      "change.\r\n": 6378,
      "I know you ": 6379,
      "leaving ": 6380,
      "sent down ": 6381,
      "Serge": 6382,
      "imagin": 6383,
      "grav": 6384,
      "across the ": 6385,
      "a couple of ": 6386,
      "Always ": 6387,
      "Ay": 6388,
      "GP": 6389,
      "PI": 6390,
      "les": 6391,
      "ind.\r\n": 6392,
      "reme": 6393,
      "ed from ": 6394,
      "do they ": 6395,
      "If he ": 6396,
      "alive ": 6397,
      "Why didn't ": 6398,
      "Where are ": 6399,
      "Mark": 6400,
      "Love ": 6401,
      "excit": 6402,
      "on to ": 6403,
      "has the ": 6404,
      "I will": 6405,
      "I wanted to ": 6406,
      "of these ": 6407,
      "as\r\n": 6408,
      " that!\r\n": 6409,
      "feet ": 6410,
      "spee": 6411,
      "options\r\n": 6412,
      "Drag": 6413,
      "Agent ": 6414,
      "discus": 6415,
      "25": 6416,
      "Dra": 6417,
      "bed": 6418,
      "all-": 6419,
      "all your ": 6420,
      "permission": 6421,
      "disable": 6422,
      "Why would ": 6423,
      "how many ": 6424,
      "spent ": 6425,
      "guys are ": 6426,
      "name:\r\n": 6427,
      "line\r\n": 6428,
      "power.\r\n": 6429,
      "Canon ": 6430,
      "boys.\r\n": 6431,
      "How's ": 6432,
      "sense ": 6433,
      "sense.\r\n": 6434,
      "piec": 6435,
      "unch of ": 6436,
      "machin": 6437,
      "stole ": 6438,
      "Paul": 6439,
      "Japan": 6440,
      "C_": 6441,
      "Coll": 6442,
      "sitting ": 6443,
      "ors.\r\n": 6444,
      "orment ": 6445,
      "arrest": 6446,
      "ow\r\n": 6447,
      "eder": 6448,
      "ed their ": 6449,
      "e to be ": 6450,
      "intell": 6451,
      "son of a b": 6452,
      " the best ": 6453,
      "greatest ": 6454,
      " trouble": 6455,
      "At least ": 6456,
      "Let's": 6457,
      "non-": 6458,
      "suggest": 6459,
      "U ": 6460,
      "mut": 6461,
      "pe ": 6462,
      " two": 6463,
      "at!\r\n": 6464,
      "assi": 6465,
      "at a ": 6466,
      "do that ": 6467,
      "uten": 6468,
      "Are we ": 6469,
      "encrypt": 6470,
      "e toge": 6471,
      "file.\r\n": 6472,
      "O my ": 6473,
      "long as ": 6474,
      "Keep": 6475,
      "catch": 6476,
      "witch ": 6477,
      "she?\r\n": 6478,
      "First": 6479,
      "struct": 6480,
      "Sound": 6481,
      "hidden ": 6482,
      "paint": 6483,
      ", don't ": 6484,
      "one that ": 6485,
      "libr": 6486,
      "do is ": 6487,
      ", I know ": 6488,
      "fair ": 6489,
      "All the ": 6490,
      "didn't.\r\n": 6491,
      "cold ": 6492,
      "soever ": 6493,
      "would not ": 6494,
      "carry ": 6495,
      "close.\r\n": 6496,
      "does it ": 6497,
      "Yes?\r\n": 6498,
      "loves ": 6499,
      "believe.\r\n": 6500,
      "connection ": 6501,
      " threat": 6502,
      "Syn": 6503,
      " towards ": 6504,
      "Ly": 6505,
      "bon": 6506,
      "dom ": 6507,
      "o-": 6508,
      "tho": 6509,
      "ed...\r\n": 6510,
      "an un": 6511,
      "guide ": 6512,
      " there is no ": 6513,
      "Exp": 6514,
      "clean ": 6515,
      "kill you.\r\n": 6516,
      "automat": 6517,
      "patter": 6518,
      "status ": 6519,
      "Fuck!\r\n": 6520,
      "apost": 6521,
      "doubt": 6522,
      "100 ": 6523,
      "Aw": 6524,
      "Turn": 6525,
      "bath": 6526,
      "fish": 6527,
      "no. ": 6528,
      "held ": 6529,
      "and...\r\n": 6530,
      "White ": 6531,
      "ation is ": 6532,
      "Allah will ": 6533,
      "but they ": 6534,
      "killed.\r\n": 6535,
      "explo": 6536,
      " terri": 6537,
      "Day of Resurrect": 6538,
      "Juli": 6539,
      "Dro": 6540,
      "E\r\n": 6541,
      "Mur": 6542,
      "m-h": 6543,
      "sick": 6544,
      "reward": 6545,
      "when it ": 6546,
      ", these ": 6547,
      "can't be ": 6548,
      "; but ": 6549,
      " there was ": 6550,
      "help you.\r\n": 6551,
      "always": 6552,
      "vision ": 6553,
      "service ": 6554,
      "Import ": 6555,
      "Give me the ": 6556,
      "message\r\n": 6557,
      "divid": 6558,
      ", thank you.\r\n": 6559,
      "Happy ": 6560,
      "By the ": 6561,
      "Dann": 6562,
      "Run ": 6563,
      "Were ": 6564,
      "oul": 6565,
      "there's ": 6566,
      "- This is ": 6567,
      "alter": 6568,
      " that he ": 6569,
      "dog.\r\n": 6570,
      "weal": 6571,
      "guy?\r\n": 6572,
      "so much.\r\n": 6573,
      "from my ": 6574,
      "How much ": 6575,
      "down to ": 6576,
      "office ": 6577,
      "hands.\r\n": 6578,
      "may not ": 6579,
      "When I ": 6580,
      "plann": 6581,
      "child.\r\n": 6582,
      "I'd like to ": 6583,
      "specified ": 6584,
      "servic": 6585,
      "Right, ": 6586,
      "Copy ": 6587,
      "Hey! ": 6588,
      "of course.\r\n": 6589,
      "hammad ": 6590,
      "enemy ": 6591,
      "Hen": 6592,
      "I, ": 6593,
      "US": 6594,
      "cy": 6595,
      "e? ": 6596,
      "rap": 6597,
      "ers!\r\n": 6598,
      "assist": 6599,
      "best.\r\n": 6600,
      "comfort": 6601,
      "Still ": 6602,
      "right!\r\n": 6603,
      "offer ": 6604,
      "princ": 6605,
      "viously ": 6606,
      "home?\r\n": 6607,
      "enge ": 6608,
      "click": 6609,
      "These are ": 6610,
      "lucky ": 6611,
      "judge ": 6612,
      "ies and gentle": 6613,
      "Fi": 6614,
      "Tit": 6615,
      "sion ": 6616,
      "yes, ": 6617,
      "er...\r\n": 6618,
      ". This ": 6619,
      "act.\r\n": 6620,
      "all my ": 6621,
      "were you ": 6622,
      "Now!\r\n": 6623,
      "Print ": 6624,
      "dream ": 6625,
      "scared.\r\n": 6626,
      "figured ": 6627,
      "Indeed ": 6628,
      "Good.\r\n": 6629,
      "kne": 6630,
      "oever ": 6631,
      "it, and ": 6632,
      "card ": 6633,
      "under the ": 6634,
      "Exact": 6635,
      " talking to ": 6636,
      "honest": 6637,
      " trouble.\r\n": 6638,
      "Cust": 6639,
      "Had": 6640,
      "Ima": 6641,
      "Sun": 6642,
      "Wow.\r\n": 6643,
      "fer ": 6644,
      " text ": 6645,
      " to tell ": 6646,
      "die, ": 6647,
      "who is ": 6648,
      "saying?\r\n": 6649,
      "had been ": 6650,
      "They'll ": 6651,
      "call you ": 6652,
      "To the ": 6653,
      ", and they ": 6654,
      "drop": 6655,
      "future.\r\n": 6656,
      "Muhammad ": 6657,
      "Click": 6658,
      "journe": 6659,
      "Was": 6660,
      "ba": 6661,
      "army ": 6662,
      "its": 6663,
      "- E": 6664,
      "- Come ": 6665,
      "of it.\r\n": 6666,
      " to them ": 6667,
      "right. ": 6668,
      "perform": 6669,
      "avo": 6670,
      "ceiv": 6671,
      "mention": 6672,
      "party ": 6673,
      "place?\r\n": 6674,
      "color\r\n": 6675,
      "datab": 6676,
      "I got a ": 6677,
      "seeing ": 6678,
      "Serv": 6679,
      "guidance ": 6680,
      "witness ": 6681,
      "yet?\r\n": 6682,
      "funny.\r\n": 6683,
      "besides ": 6684,
      "Mam": 6685,
      "Port": 6686,
      "wo, ": 6687,
      "- K": 6688,
      "assign": 6689,
      "person.\r\n": 6690,
      "anything to ": 6691,
      "he's not ": 6692,
      "offer": 6693,
      "Secur": 6694,
      "mark ": 6695,
      "izz": 6696,
      "way of ": 6697,
      "easy ": 6698,
      "currently ": 6699,
      "Anything ": 6700,
      "Indeed, ": 6701,
      "character ": 6702,
      "Here's ": 6703,
      "Hurr": 6704,
      "ger ": 6705,
      "talking ": 6706,
      "you two ": 6707,
      "really.\r\n": 6708,
      "itut": 6709,
      "is too ": 6710,
      "in an ": 6711,
      "opport": 6712,
      "with you, ": 6713,
      "What did ": 6714,
      "output ": 6715,
      "Step ": 6716,
      "active ": 6717,
      ", you don't ": 6718,
      "Inform": 6719,
      "ceed": 6720,
      "kids.\r\n": 6721,
      "front ": 6722,
      "Stop.\r\n": 6723,
      "\"\"": 6724,
      "bought ": 6725,
      "remote ": 6726,
      "select ": 6727,
      "forever": 6728,
      "final ": 6729,
      "print ": 6730,
      "port\r\n": 6731,
      "ousand": 6732,
      "Ext": 6733,
      "Look.\r\n": 6734,
      "champ": 6735,
      "energ": 6736,
      " tomorrow ": 6737,
      " trouble ": 6738,
      "natur": 6739,
      "enjoy": 6740,
      "deserve ": 6741,
      "Merciful.\r\n": 6742,
      "What are you talking about?\r\n": 6743,
      "idiot": 6744,
      " is ": 6745,
      "Sant": 6746,
      "Tot": 6747,
      "Tomorr": 6748,
      "Yes ": 6749,
      "kn": 6750,
      "hast": 6751,
      "ing their ": 6752,
      "acu": 6753,
      "en and ": 6754,
      " that was ": 6755,
      "ation:\r\n": 6756,
      " trad": 6757,
      "How could ": 6758,
      "Isra": 6759,
      "Oh my ": 6760,
      "Right?\r\n": 6761,
      "Indeed": 6762,
      "Luc": 6763,
      "Don't worry.\r\n": 6764,
      "condition": 6765,
      " totally ": 6766,
      "d?\r\n": 6767,
      "ethe": 6768,
      "- They ": 6769,
      "lit ": 6770,
      "ch, ": 6771,
      "abilit": 6772,
      "for it.\r\n": 6773,
      "et, ": 6774,
      "right there.\r\n": 6775,
      "what, ": 6776,
      "not that ": 6777,
      "over there.\r\n": 6778,
      "out of my ": 6779,
      "friend?\r\n": 6780,
      "woman.\r\n": 6781,
      "calm ": 6782,
      "first time ": 6783,
      "Contro": 6784,
      "voic": 6785,
      "cru": 6786,
      "i?\r\n": 6787,
      "national ": 6788,
      "enable": 6789,
      "- Hey.\r\n": 6790,
      ". But ": 6791,
      ". Please ": 6792,
      "set.\r\n": 6793,
      "demon": 6794,
      "ah, ": 6795,
      "expect ": 6796,
      "get out of here.\r\n": 6797,
      " this!\r\n": 6798,
      "ter\r\n": 6799,
      "I'll go ": 6800,
      "brow": 6801,
      "Chang": 6802,
      "firm ": 6803,
      "different.\r\n": 6804,
      "Absolut": 6805,
      "If they ": 6806,
      " through.\r\n": 6807,
      "matter.\r\n": 6808,
      "stupid": 6809,
      "Shut up!\r\n": 6810,
      "AP": 6811,
      "Mem": 6812,
      "Ros": 6813,
      "Rest": 6814,
      "bow": 6815,
      "hic": 6816,
      "I do.\r\n": 6817,
      "word\r\n": 6818,
      "consci": 6819,
      "ending ": 6820,
      "action": 6821,
      "See, ": 6822,
      "done, ": 6823,
      "regard": 6824,
      "Gar": 6825,
      "loo": 6826,
      "lab": 6827,
      " type ": 6828,
      "then": 6829,
      "ed her ": 6830,
      "ility.\r\n": 6831,
      "shit, ": 6832,
      "dear ": 6833,
      " to their ": 6834,
      "or a ": 6835,
      "with you": 6836,
      "tty ": 6837,
      "It's like ": 6838,
      ", though.\r\n": 6839,
      "other than ": 6840,
      "winn": 6841,
      "Load": 6842,
      "Rock": 6843,
      "hours ": 6844,
      " toward": 6845,
      "Minist": 6846,
      "Majest": 6847,
      "Han": 6848,
      "Sn": 6849,
      "win ": 6850,
      "ers of ": 6851,
      "rich ": 6852,
      " that we ": 6853,
      "all these ": 6854,
      "I'm fine.\r\n": 6855,
      "pois": 6856,
      ", thre": 6857,
      "good new": 6858,
      "Lord of the ": 6859,
      "charg": 6860,
      "e that?\r\n": 6861,
      "had the ": 6862,
      "chance to ": 6863,
      "Perhaps ": 6864,
      "3.\r\n": 6865,
      "Another ": 6866,
      "Pal": 6867,
      "is he ": 6868,
      "- That ": 6869,
      "icon ": 6870,
      "upstair": 6871,
      "died.\r\n": 6872,
      "six": 6873,
      "sight": 6874,
      "empor": 6875,
      "not, ": 6876,
      "if you don't ": 6877,
      "wrong?\r\n": 6878,
      "you've been ": 6879,
      "Parad": 6880,
      "ING) ": 6881,
      "process ": 6882,
      "FB": 6883,
      "Name ": 6884,
      "tim": 6885,
      "of an ": 6886,
      "lot of ": 6887,
      "on me.\r\n": 6888,
      "ents.\r\n": 6889,
      "out\r\n": 6890,
      "say: \"": 6891,
      "disbelieve ": 6892,
      "park": 6893,
      "like.\r\n": 6894,
      "where he ": 6895,
      "ask.\r\n": 6896,
      "Whoever ": 6897,
      "hell.\r\n": 6898,
      "screen ": 6899,
      "It's too ": 6900,
      "picture": 6901,
      "normal ": 6902,
      "Prom": 6903,
      "Ta": 6904,
      "iri": 6905,
      "psy": 6906,
      "s] ": 6907,
      "I didn't": 6908,
      "its.\r\n": 6909,
      " to see ": 6910,
      "Thom": 6911,
      "Thus ": 6912,
      "here to": 6913,
      "deb": 6914,
      "like you.\r\n": 6915,
      "progres": 6916,
      ", I will ": 6917,
      "I've been": 6918,
      "sorry ": 6919,
      "different": 6920,
      "boss.\r\n": 6921,
      "Doesn't ": 6922,
      "*\r\n": 6923,
      "Pac": 6924,
      "hood": 6925,
      "regi": 6926,
      "is!\r\n": 6927,
      ". He ": 6928,
      "op\r\n": 6929,
      "What are ": 6930,
      "et\r\n": 6931,
      "right now": 6932,
      "because they ": 6933,
      "crack": 6934,
      "medic": 6935,
      "Watch": 6936,
      "lawy": 6937,
      "Johnn": 6938,
      "Clear ": 6939,
      "Evolution ": 6940,
      "etc.": 6941,
      "ball ": 6942,
      "fly ": 6943,
      "m, ": 6944,
      "s will be ": 6945,
      "iness ": 6946,
      "anch": 6947,
      "I just": 6948,
      "I could": 6949,
      "at your ": 6950,
      " that is ": 6951,
      "himself": 6952,
      "get that ": 6953,
      "a bab": 6954,
      "Moses ": 6955,
      "last night.\r\n": 6956,
      "I'm trying to ": 6957,
      "save the ": 6958,
      "honor": 6959,
      "Colon": 6960,
      "alett": 6961,
      "John.\r\n": 6962,
      "luck.\r\n": 6963,
      " talk about ": 6964,
      "network ": 6965,
      "soon as ": 6966,
      "ximum ": 6967,
      "custom": 6968,
      "Gri": 6969,
      "Jack ": 6970,
      "King": 6971,
      "L\r\n": 6972,
      "Met": 6973,
      "base": 6974,
      "s: ": 6975,
      "s! ": 6976,
      "does.\r\n": 6977,
      "doing, ": 6978,
      "fill ": 6979,
      " take care of ": 6980,
      "have to be ": 6981,
      "uh.\r\n": 6982,
      "Wait ": 6983,
      "Boy": 6984,
      "Carol": 6985,
      "watching ": 6986,
      "'s, ": 6987,
      "Men": 6988,
      "egg": 6989,
      "gang": 6990,
      "pli": 6991,
      "as well ": 6992,
      "for an ": 6993,
      "ir.\r\n": 6994,
      " told": 6995,
      "from?\r\n": 6996,
      "fect.\r\n": 6997,
      "ific ": 6998,
      "sert ": 6999,
      "poss": 7000,
      " the sam": 7001,
      "free.\r\n": 7002,
      "away, ": 7003,
      "double ": 7004,
      "Copy": 7005,
      "would've ": 7006,
      "supported ": 7007,
      "secure ": 7008,
      "'.\r\n": 7009,
      "Cr": 7010,
      "Over ": 7011,
      "SS": 7012,
      "_S": 7013,
      "ie, ": 7014,
      "time ": 7015,
      "win.\r\n": 7016,
      "I need": 7017,
      "her to ": 7018,
      "as an ": 7019,
      "open.\r\n": 7020,
      "net ": 7021,
      "come to the ": 7022,
      "respect ": 7023,
      "no longer ": 7024,
      "phys": 7025,
      "stead": 7026,
      "n't that ": 7027,
      "fighting ": 7028,
      "straight": 7029,
      "argument": 7030,
      "5.\r\n": 7031,
      "City ": 7032,
      "Message": 7033,
      " took": 7034,
      "I wasn't ": 7035,
      "ed you.\r\n": 7036,
      "ed me.\r\n": 7037,
      "verse ": 7038,
      "He said ": 7039,
      "himself.\r\n": 7040,
      "so many ": 7041,
      "aster": 7042,
      "work?\r\n": 7043,
      "a mom": 7044,
      "Who is ": 7045,
      "- Sorr": 7046,
      "hour.\r\n": 7047,
      "years ago.\r\n": 7048,
      "responsib": 7049,
      "Allah and His ": 7050,
      "Sen": 7051,
      "p\r\n": 7052,
      "sick ": 7053,
      "sun ": 7054,
      "ator.\r\n": 7055,
      "it...\r\n": 7056,
      "e time.\r\n": 7057,
      "aband": 7058,
      "else": 7059,
      "with us.\r\n": 7060,
      "ement.\r\n": 7061,
      "him\r\n": 7062,
      "But he ": 7063,
      "If you're ": 7064,
      "office.\r\n": 7065,
      "attempt": 7066,
      "even know ": 7067,
      "excuse ": 7068,
      "nothing but ": 7069,
      "elev": 7070,
      "virt": 7071,
      "system.\r\n": 7072,
      "part of the ": 7073,
      "computer ": 7074,
      "Bye.\r\n": 7075,
      "neighbor": 7076,
      "Wake ": 7077,
      "cand": 7078,
      "report ": 7079,
      "as, ": 7080,
      "log ": 7081,
      "we'd ": 7082,
      "Heav": 7083,
      "what are you ": 7084,
      "prophe": 7085,
      "program ": 7086,
      ", I can ": 7087,
      "quart": 7088,
      "come on!\r\n": 7089,
      "function ": 7090,
      "small": 7091,
      "money, ": 7092,
      "Name\r\n": 7093,
      "insan": 7094,
      "SAW": 7095,
      "honey.\r\n": 7096,
      "11 ": 7097,
      "Av": 7098,
      "Jas": 7099,
      "Tur": 7100,
      "dust": 7101,
      "emot": 7102,
      "ls ": 7103,
      "I came ": 7104,
      "omet": 7105,
      "- Sh": 7106,
      "ality ": 7107,
      "short ": 7108,
      "can we ": 7109,
      "quer": 7110,
      "blind": 7111,
      "That's right.\r\n": 7112,
      "affect": 7113,
      "could not ": 7114,
      ", two": 7115,
      "let the ": 7116,
      "age, ": 7117,
      "darl": 7118,
      "favour": 7119,
      "problem?\r\n": 7120,
      "View ": 7121,
      "Call": 7122,
      "DV": 7123,
      "Dest": 7124,
      "Must ": 7125,
      "Ye": 7126,
      "went to ": 7127,
      "“%s": 7128,
      "- She ": 7129,
      "ing is ": 7130,
      "decre": 7131,
      "el?\r\n": 7132,
      "worst ": 7133,
      "minal ": 7134,
      "years, ": 7135,
      "country.\r\n": 7136,
      "North ": 7137,
      "High ": 7138,
      "music ": 7139,
      "dangerous.\r\n": 7140,
      "wedd": 7141,
      "crypt": 7142,
      "Cis": 7143,
      "File\r\n": 7144,
      "rate ": 7145,
      "I had to ": 7146,
      "at this ": 7147,
      "you just ": 7148,
      "ing out ": 7149,
      "Thou ": 7150,
      "worse ": 7151,
      "plant": 7152,
      "get me ": 7153,
      "us a ": 7154,
      "Secre": 7155,
      "want you to ": 7156,
      "happened to ": 7157,
      "clock": 7158,
      "change the ": 7159,
      "Somebody ": 7160,
      "Welcome to ": 7161,
      "Don't worry, ": 7162,
      "forgiveness ": 7163,
      "like that?\r\n": 7164,
      "geni": 7165,
      "lor": 7166,
      "zo": 7167,
      " tire": 7168,
      "onc": 7169,
      "restor": 7170,
      "I must ": 7171,
      "you got ": 7172,
      "- Your ": 7173,
      "It's been ": 7174,
      "ong.\r\n": 7175,
      "who are ": 7176,
      ", I can't ": 7177,
      " tele": 7178,
      "How you ": 7179,
      "No, it's ": 7180,
      "happened.\r\n": 7181,
      "a pain": 7182,
      "girl?\r\n": 7183,
      "set\r\n": 7184,
      "Jack.\r\n": 7185,
      "fresh ": 7186,
      "5\r\n": 7187,
      "Centr": 7188,
      "Dani": 7189,
      "Ru": 7190,
      "Tu": 7191,
      "cool ": 7192,
      "ter.\r\n": 7193,
      "ve, ": 7194,
      "I say ": 7195,
      "I hate ": 7196,
      "omb ": 7197,
      " to my ": 7198,
      "- I'm not ": 7199,
      ". -": 7200,
      "You'll be ": 7201,
      "chur": 7202,
      "ion:\r\n": 7203,
      "ago ": 7204,
      "And it ": 7205,
      " they have ": 7206,
      "man\r\n": 7207,
      "Go to ": 7208,
      ", I got ": 7209,
      "was.\r\n": 7210,
      "everyone.\r\n": 7211,
      "Channe": 7212,
      "Let's go, ": 7213,
      "man who ": 7214,
      "son?\r\n": 7215,
      "Arab": 7216,
      "already.\r\n": 7217,
      "Princ": 7218,
      "bottom ": 7219,
      "obey ": 7220,
      "Ber": 7221,
      "Hmm": 7222,
      "San ": 7223,
      "boo": 7224,
      "jail": 7225,
      "page ": 7226,
      "s this ": 7227,
      "ya ": 7228,
      "ha ": 7229,
      "- Do you ": 7230,
      "I'm going ": 7231,
      "ver\r\n": 7232,
      "umm": 7233,
      ", I have ": 7234,
      "grab ": 7235,
      "What? ": 7236,
      "carry": 7237,
      "on the t": 7238,
      "stuck ": 7239,
      "money?\r\n": 7240,
      "evidence ": 7241,
      "Prophet ": 7242,
      "pip": 7243,
      "ty.\r\n": 7244,
      " tast": 7245,
      "one. ": 7246,
      "is...\r\n": 7247,
      "be, ": 7248,
      "unne": 7249,
      "aint ": 7250,
      "symbol": 7251,
      "launch": 7252,
      "- No!\r\n": 7253,
      " than the ": 7254,
      "Certific": 7255,
      "sudden": 7256,
      "Bru": 7257,
      "Dist": 7258,
      "Kev": 7259,
      "Man ": 7260,
      "bount": 7261,
      "eh": 7262,
      "ian": 7263,
      "ies": 7264,
      "sect": 7265,
      "what it ": 7266,
      "guess.\r\n": 7267,
      "ground.\r\n": 7268,
      " times.\r\n": 7269,
      "up with ": 7270,
      "Oh, yeah": 7271,
      "get to the ": 7272,
      "we're not ": 7273,
      "plane ": 7274,
      "ash\r\n": 7275,
      "punishment": 7276,
      "ample ": 7277,
      "drink.\r\n": 7278,
      "Buil": 7279,
      "ma'am.\r\n": 7280,
      "Childr": 7281,
      "-8": 7282,
      ":00": 7283,
      "\\\\": 7284,
      "dadd": 7285,
      "e. - ": 7286,
      "miles ": 7287,
      "rand": 7288,
      "recomp": 7289,
      "ic, ": 7290,
      "in love ": 7291,
      "eler": 7292,
      "He's": 7293,
      ", you know ": 7294,
      "background ": 7295,
      "when I was ": 7296,
      "I think it's ": 7297,
      "remember.\r\n": 7298,
      "built ": 7299,
      "I cannot ": 7300,
      "ING ": 7301,
      "Say, ": 7302,
      "should've ": 7303,
      "beginn": 7304,
      "Automat": 7305,
      "Home ": 7306,
      "'re": 7307,
      "1.\r\n": 7308,
      "food.\r\n": 7309,
      "map ": 7310,
      "nation": 7311,
      "on's ": 7312,
      "of them": 7313,
      "al!\r\n": 7314,
      "ries ": 7315,
      "asle": 7316,
      "he'd ": 7317,
      "unt ": 7318,
      "I'm not": 7319,
      "els ": 7320,
      "do something ": 7321,
      "guest": 7322,
      "get my ": 7323,
      "Come, ": 7324,
      "cock": 7325,
      "by a ": 7326,
      "mean, ": 7327,
      "done?\r\n": 7328,
      "sorry, ": 7329,
      "Pleas": 7330,
      "hurt.\r\n": 7331,
      "swear ": 7332,
      "sister.\r\n": 7333,
      "regular ": 7334,
      "President ": 7335,
      "viron": 7336,
      "hypo": 7337,
      "piece of ": 7338,
      "What is this?\r\n": 7339,
      "1.": 7340,
      "IP": 7341,
      "Oper": 7342,
      "_Re": 7343,
      "ago, ": 7344,
      "ing]\r\n": 7345,
      "th?\r\n": 7346,
      "ed (": 7347,
      "And we ": 7348,
      "all you ": 7349,
      "... - ": 7350,
      "ever, ": 7351,
      "ends ": 7352,
      "hard.\r\n": 7353,
      " those who are ": 7354,
      "vehic": 7355,
      "apped ": 7356,
      "put the ": 7357,
      ".. ..": 7358,
      "children.\r\n": 7359,
      "Thank you for ": 7360,
      "heavens and the earth ": 7361,
      "diamond": 7362,
      "(C": 7363,
      "MAN": 7364,
      "Rac": 7365,
      "Vide": 7366,
      "a to ": 7367,
      "ory": 7368,
      "pping ": 7369,
      "you, but ": 7370,
      "cle.\r\n": 7371,
      "warri": 7372,
      "made me ": 7373,
      "God and ": 7374,
      "committ": 7375,
      "listen.\r\n": 7376,
      "moment": 7377,
      "through": 7378,
      "single ": 7379,
      "KD": 7380,
      "Old ": 7381,
      "hood ": 7382,
      "ya.\r\n": 7383,
      ", and the ": 7384,
      "orph": 7385,
      "ics ": 7386,
      "else?\r\n": 7387,
      "Well, that's ": 7388,
      "some kind of ": 7389,
      "a cop": 7390,
      "made a ": 7391,
      "invent": 7392,
      "live.\r\n": 7393,
      "born": 7394,
      "Um, ": 7395,
      "Oliver ": 7396,
      "Muhammad SAW": 7397,
      "): ": 7398,
      "Bull": 7399,
      "Rem": 7400,
      " taught ": 7401,
      "on-": 7402,
      "stol": 7403,
      "you guys ": 7404,
      "at all": 7405,
      "am\r\n": 7406,
      "idol": 7407,
      "out for ": 7408,
      "get him ": 7409,
      ", and I ": 7410,
      "said that ": 7411,
      "sir!\r\n": 7412,
      "friend, ": 7413,
      "partic": 7414,
      "Mark ": 7415,
      ", they will ": 7416,
      "Arch": 7417,
      "- How": 7418,
      "You've been ": 7419,
      "seems ": 7420,
      "husband ": 7421,
      "- I don't know.\r\n": 7422,
      "intellig": 7423,
      "Had ": 7424,
      "I took ": 7425,
      "aver": 7426,
      "seiz": 7427,
      "The only ": 7428,
      "was not ": 7429,
      "That's it.\r\n": 7430,
      "ist.\r\n": 7431,
      "my t": 7432,
      "data\r\n": 7433,
      "Take it ": 7434,
      "serious": 7435,
      "Damn": 7436,
      "explain ": 7437,
      "Oh, my God!\r\n": 7438,
      "Remember": 7439,
      "Files\r\n": 7440,
      "polit": 7441,
      "session ": 7442,
      "Willi": 7443,
      "bastard": 7444,
      "PE": 7445,
      "Sil": 7446,
      "Switch": 7447,
      "e,\r\n": 7448,
      "sort": 7449,
      "itz": 7450,
      "- J": 7451,
      "liar": 7452,
      "got.\r\n": 7453,
      "me... ": 7454,
      "dig": 7455,
      "What kind of ": 7456,
      "when you're ": 7457,
      "Oh, no.\r\n": 7458,
      "about that ": 7459,
      "spell": 7460,
      "likes ": 7461,
      "God. ": 7462,
      "given": 7463,
      "changed ": 7464,
      "steal ": 7465,
      "risk": 7466,
      "Contact": 7467,
      "bullet": 7468,
      "future": 7469,
      "Calend": 7470,
      "kind.\r\n": 7471,
      "Bur": 7472,
      "Isa": 7473,
      "Ms. ": 7474,
      "SE": 7475,
      "].\r\n": 7476,
      "ze.\r\n": 7477,
      "ings, ": 7478,
      "- This ": 7479,
      "user": 7480,
      "road ": 7481,
      "loser": 7482,
      " to that ": 7483,
      "agg": 7484,
      "don't know ": 7485,
      "mankind": 7486,
      "disput": 7487,
      "works.\r\n": 7488,
      "paramet": 7489,
      "run.\r\n": 7490,
      "others.\r\n": 7491,
      "Art": 7492,
      "leave the ": 7493,
      "betray": 7494,
      "Sir.\r\n": 7495,
      "boys ": 7496,
      "drug ": 7497,
      "revealed to ": 7498,
      "User ": 7499,
      "establish": 7500,
      "ghost": 7501,
      "(%": 7502,
      ":00 ": 7503,
      "Lif": 7504,
      "Lond": 7505,
      "Med": 7506,
      "Ooh": 7507,
      "Sure.\r\n": 7508,
      "ious ": 7509,
      " twi": 7510,
      "lob": 7511,
      "I'm really ": 7512,
      "perman": 7513,
      "a bre": 7514,
      "give a ": 7515,
      "green ": 7516,
      "bye, ": 7517,
      "set the ": 7518,
      "I'll tell you ": 7519,
      "business": 7520,
      "dialog\r\n": 7521,
      "(of ": 7522,
      "Besid": 7523,
      "Uni": 7524,
      "Vert": 7525,
      ", just ": 7526,
      "ing-": 7527,
      "thes": 7528,
      "staf": 7529,
      "is still ": 7530,
      "ing his ": 7531,
      "plent": 7532,
      "Stev": 7533,
      " teac": 7534,
      "So I ": 7535,
      "object ": 7536,
      "buy": 7537,
      "happening?\r\n": 7538,
      "I was just ": 7539,
      "which you ": 7540,
      "complic": 7541,
      "lives.\r\n": 7542,
      "remember?\r\n": 7543,
      "signs ": 7544,
      "Log": 7545,
      "Great.\r\n": 7546,
      "slav": 7547,
      "sister ": 7548,
      "damn": 7549,
      "What are you doing here?\r\n": 7550,
      "last time ": 7551,
      "months.\r\n": 7552,
      "serious ": 7553,
      "package ": 7554,
      "husband": 7555,
      "favorite ": 7556,
      "private ": 7557,
      "Long ": 7558,
      "ma ": 7559,
      "ital ": 7560,
      "ing you.\r\n": 7561,
      "ooper": 7562,
      "ages\r\n": 7563,
      "distri": 7564,
      "plat": 7565,
      "out to ": 7566,
      " team.\r\n": 7567,
      "him a ": 7568,
      "belief": 7569,
      "buff": 7570,
      "%s: %s\r\n": 7571,
      "call the ": 7572,
      "error\r\n": 7573,
      "- What do you ": 7574,
      "people?\r\n": 7575,
      "Thanks for ": 7576,
      "Applic": 7577,
      "Without ": 7578,
      "incredi": 7579,
      "outside.\r\n": 7580,
      "+ ": 7581,
      "DN": 7582,
      "Hal": 7583,
      "Ic": 7584,
      "Nay": 7585,
      "Sand": 7586,
      "Squ": 7587,
      "da": 7588,
      "d the ": 7589,
      "e: ": 7590,
      "pill": 7591,
      "red.\r\n": 7592,
      "ster ": 7593,
      "it to the ": 7594,
      "ess\r\n": 7595,
      "We all ": 7596,
      "ation to ": 7597,
      "bodi": 7598,
      "about my ": 7599,
      "Allah.\r\n": 7600,
      "ation of the ": 7601,
      "reading ": 7602,
      "Let me t": 7603,
      "Lo! ": 7604,
      "freed": 7605,
      "number": 7606,
      "fram": 7607,
      "Franc": 7608,
      "cup": 7609,
      " tid": 7610,
      "- Oh": 7611,
      " the...\r\n": 7612,
      "upon the ": 7613,
      "he will ": 7614,
      "gift": 7615,
      "has no ": 7616,
      "anyone.\r\n": 7617,
      "us and ": 7618,
      "whatever": 7619,
      "off, ": 7620,
      "; so ": 7621,
      "ful, ": 7622,
      " think that ": 7623,
      "Alb": 7624,
      "may have ": 7625,
      "sky ": 7626,
      "looking at ": 7627,
      "ok?\r\n": 7628,
      "okay ": 7629,
      "mercy ": 7630,
      "All right. ": 7631,
      "during the ": 7632,
      "wedding ": 7633,
      "smell ": 7634,
      "original ": 7635,
      "0.": 7636,
      "Wind": 7637,
      "dwell": 7638,
      "dance ": 7639,
      "y! ": 7640,
      "e of ": 7641,
      "outta ": 7642,
      "hair ": 7643,
      "lie.\r\n": 7644,
      "Thr": 7645,
      "dear": 7646,
      "on you.\r\n": 7647,
      "akes ": 7648,
      "him and ": 7649,
      "This is not ": 7650,
      "maj": 7651,
      "Sometimes ": 7652,
      "fles": 7653,
      "Aren't ": 7654,
      "girls ": 7655,
      "keep your ": 7656,
      "Hello": 7657,
      "afterno": 7658,
      "Dad?\r\n": 7659,
      "Message ": 7660,
      "ville\r\n": 7661,
      "victim": 7662,
      ".D": 7663,
      "Sus": 7664,
      "dent": 7665,
      "scal": 7666,
      "canc": 7667,
      " track ": 7668,
      ", you know.\r\n": 7669,
      "I don't know, ": 7670,
      "icket": 7671,
      "work, ": 7672,
      "guy's ": 7673,
      "Who?\r\n": 7674,
      "chall": 7675,
      "clip": 7676,
      "appreciate ": 7677,
      "(i.": 7678,
      "D\r\n": 7679,
      "Font ": 7680,
      "Hav": 7681,
      "Lou": 7682,
      "hol": 7683,
      "kitch": 7684,
      "” ": 7685,
      "in there ": 7686,
      "eri": 7687,
      "ed up.\r\n": 7688,
      "as they ": 7689,
      "why?\r\n": 7690,
      "shown ": 7691,
      "losing ": 7692,
      "We must ": 7693,
      "worship": 7694,
      " time?\r\n": 7695,
      "Int": 7696,
      "previous ": 7697,
      "And this ": 7698,
      "where they ": 7699,
      "a cle": 7700,
      "will be the ": 7701,
      "Brow": 7702,
      "air.\r\n": 7703,
      "honey": 7704,
      "belongs to ": 7705,
      "your hands ": 7706,
      "close to ": 7707,
      "South ": 7708,
      "Central ": 7709,
      "%s.\r\n": 7710,
      "Dad ": 7711,
      "Gent": 7712,
      "Has ": 7713,
      "Tre": 7714,
      "Wise.\r\n": 7715,
      "a! ": 7716,
      "based ": 7717,
      "count ": 7718,
      "eating ": 7719,
      "script": 7720,
      "sourc": 7721,
      "inher": 7722,
      "al to ": 7723,
      "forward": 7724,
      "You did ": 7725,
      "as well.\r\n": 7726,
      "es of the ": 7727,
      "mine ": 7728,
      "uck.\r\n": 7729,
      "over here.\r\n": 7730,
      "night?\r\n": 7731,
      "prison ": 7732,
      "\"%s\"\r\n": 7733,
      "magic ": 7734,
      "found\r\n": 7735,
      "Fucking ": 7736,
      "panel ": 7737,
      "sounds ": 7738,
      "fortunat": 7739,
      "24": 7740,
      "24 ": 7741,
      "Might": 7742,
      "PO": 7743,
      "Son": 7744,
      "Two": 7745,
      "U.S": 7746,
      "Yu": 7747,
      "yes": 7748,
      ", please.\r\n": 7749,
      "ing, and ": 7750,
      "I still ": 7751,
      "ities ": 7752,
      "- Why ": 7753,
      "e ton": 7754,
      "neck": 7755,
      "do that": 7756,
      "him the ": 7757,
      "ion of the ": 7758,
      "so that you ": 7759,
      "brings ": 7760,
      ") and ": 7761,
      "should have ": 7762,
      "works ": 7763,
      "I've ever ": 7764,
      "end up ": 7765,
      "Unless ": 7766,
      "Yeah, but ": 7767,
      "good?\r\n": 7768,
      "Take a ": 7769,
      "Dom": 7770,
      "Ell": 7771,
      "Wall": 7772,
      "_T": 7773,
      "daw": 7774,
      "fought ": 7775,
      "gor": 7776,
      "s from the ": 7777,
      "ary\r\n": 7778,
      "reci": 7779,
      "essi": 7780,
      "lies ": 7781,
      "rock ": 7782,
      "plug": 7783,
      "intend": 7784,
      "process": 7785,
      "Chr": 7786,
      "moving.\r\n": 7787,
      "willing to ": 7788,
      "List\r\n": 7789,
      "atell": 7790,
      " tongu": 7791,
      "welcome.\r\n": 7792,
      "righteous ": 7793,
      "responsible ": 7794,
      "Where are you going?\r\n": 7795,
      "- Really?\r\n": 7796,
      "ki": 7797,
      "sca": 7798,
      "inat": 7799,
      "are?\r\n": 7800,
      "owed ": 7801,
      "it doesn't ": 7802,
      "action.\r\n": 7803,
      "but...\r\n": 7804,
      "string ": 7805,
      "self-": 7806,
      "out of your ": 7807,
      "iple ": 7808,
      "crow": 7809,
      "Today ": 7810,
      "a little bit ": 7811,
      "In fact": 7812,
      "climb": 7813,
      "gonna take ": 7814,
      "render": 7815,
      "escape ": 7816,
      "French ": 7817,
      "-B": 7818,
      "ers and ": 7819,
      "ha.\r\n": 7820,
      "lip": 7821,
      "list.\r\n": 7822,
      "as much ": 7823,
      "for me?\r\n": 7824,
      "we need to ": 7825,
      "sometimes ": 7826,
      "proof": 7827,
      "prostr": 7828,
      "right to ": 7829,
      "perio": 7830,
      "go back to ": 7831,
      "suppose ": 7832,
      "Bring ": 7833,
      "men and ": 7834,
      "Manag": 7835,
      "please!\r\n": 7836,
      "ridicul": 7837,
      "Error": 7838,
      "door!\r\n": 7839,
      "application ": 7840,
      "Bir": 7841,
      "Cy": 7842,
      "User": 7843,
      "c\r\n": 7844,
      "ine, ": 7845,
      "- All right.\r\n": 7846,
      "ion!\r\n": 7847,
      "heal": 7848,
      "imet": 7849,
      "ab\r\n": 7850,
      "const": 7851,
      "ed to be ": 7852,
      "vious": 7853,
      "sir\r\n": 7854,
      "Group": 7855,
      "freak": 7856,
      "itional ": 7857,
      "words ": 7858,
      "scream": 7859,
      "specific": 7860,
      "poly": 7861,
      "hundred": 7862,
      "large ": 7863,
      "batter": 7864,
      "Authentic": 7865,
      "Current ": 7866,
      ", tell ": 7867,
      "Line ": 7868,
      "bound": 7869,
      "cure ": 7870,
      "der.\r\n": 7871,
      "gain": 7872,
      "vamp": 7873,
      "wanna": 7874,
      "such": 7875,
      "'s that ": 7876,
      ", you will ": 7877,
      " time\r\n": 7878,
      "civi": 7879,
      "bugg": 7880,
      "sph": 7881,
      "home": 7882,
      "Configure ": 7883,
      "Mari": 7884,
      ", that was ": 7885,
      "risk ": 7886,
      "Felic": 7887,
      "careful.\r\n": 7888,
      "Keyboard short": 7889,
      "wish to ": 7890,
      "angels ": 7891,
      "until the ": 7892,
      "obey": 7893,
      "embarr": 7894,
      "a small ": 7895,
      "corrupt": 7896,
      "(in ": 7897,
      "Ep": 7898,
      "Fo": 7899,
      "Kid": 7900,
      "Me ": 7901,
      "Mill": 7902,
      "font ": 7903,
      "lon": 7904,
      "s)": 7905,
      "you to": 7906,
      "you can't ": 7907,
      "ed at ": 7908,
      "ay\r\n": 7909,
      "one more ": 7910,
      "so they ": 7911,
      "never be ": 7912,
      "Are you": 7913,
      "iet.\r\n": 7914,
      "put it ": 7915,
      "certain ": 7916,
      "creature": 7917,
      "position.\r\n": 7918,
      "Shut up.\r\n": 7919,
      "I am the ": 7920,
      "Whether the ": 7921,
      "Air ": 7922,
      "Aust": 7923,
      "Mail": 7924,
      "US ": 7925,
      "Vi": 7926,
      "bed.\r\n": 7927,
      "my, ": 7928,
      "enam": 7929,
      "you have to ": 7930,
      "you didn't ": 7931,
      "of us.\r\n": 7932,
      "You really ": 7933,
      "coming!\r\n": 7934,
      "out and ": 7935,
      "And if you ": 7936,
      "from this ": 7937,
      "A little ": 7938,
      "Island": 7939,
      " throw": 7940,
      "But they ": 7941,
      "retch": 7942,
      "hole ": 7943,
      "Color\r\n": 7944,
      "dream.\r\n": 7945,
      "I can't.\r\n": 7946,
      "stupid.\r\n": 7947,
      "they?\r\n": 7948,
      "Queen ": 7949,
      "Four": 7950,
      "Yet ": 7951,
      "skill": 7952,
      "s, they ": 7953,
      "ould.\r\n": 7954,
      "ons.\r\n": 7955,
      "- [": 7956,
      "- Come on.\r\n": 7957,
      "ise": 7958,
      "whis": 7959,
      "my own ": 7960,
      "eld": 7961,
      "agr": 7962,
      "all right, ": 7963,
      "This is": 7964,
      "que ": 7965,
      "within ": 7966,
      " this thing ": 7967,
      "ly!\r\n": 7968,
      "very much.\r\n": 7969,
      "minute ": 7970,
      "Propert": 7971,
      "heading ": 7972,
      "came to": 7973,
      "It was a ": 7974,
      "What happened to ": 7975,
      "English": 7976,
      "Law": 7977,
      "Mom ": 7978,
      "Mom.\r\n": 7979,
      "Ori": 7980,
      "nine ": 7981,
      "or's ": 7982,
      "I gave ": 7983,
      "stro": 7984,
      "ed of ": 7985,
      "of Allah ": 7986,
      "shif": 7987,
      "We have a ": 7988,
      "We sent ": 7989,
      "He's the ": 7990,
      "do anything ": 7991,
      "We'll": 7992,
      " truly ": 7993,
      ", then, ": 7994,
      "It'll ": 7995,
      "party.\r\n": 7996,
      "develop": 7997,
      ", and then ": 7998,
      "Captain.\r\n": 7999,
      "'%s': %s\r\n": 8000,
      "Super": 8001,
      "repent": 8002,
      "Atl": 8003,
      "Stock label\r\n": 8004,
      "2.": 8005,
      "_t": 8006,
      "b.\r\n": 8007,
      "hit": 8008,
      "k, ": 8009,
      "inci": 8010,
      "input ": 8011,
      "you tell me ": 8012,
      "ing... ": 8013,
      "es... ": 8014,
      "You never ": 8015,
      "meter": 8016,
      "die?\r\n": 8017,
      "do you?\r\n": 8018,
      "feet.\r\n": 8019,
      ", I just ": 8020,
      "blue ": 8021,
      "coven": 8022,
      "They have ": 8023,
      "down?\r\n": 8024,
      "Andre": 8025,
      "ieuten": 8026,
      "huge ": 8027,
      "icient ": 8028,
      "Him.\r\n": 8029,
      "Clar": 8030,
      "pursu": 8031,
      "memory ": 8032,
      "innocent ": 8033,
      "7.\r\n": 8034,
      "CO": 8035,
      "Ham": 8036,
      "Jer": 8037,
      "Mil": 8038,
      "Pol": 8039,
      "catt": 8040,
      "mad ": 8041,
      "pend": 8042,
      "trying to ": 8043,
      "havi": 8044,
      "ower ": 8045,
      "ed into ": 8046,
      "assu": 8047,
      "ide.\r\n": 8048,
      "impres": 8049,
      "You wanna ": 8050,
      "die!\r\n": 8051,
      "he can ": 8052,
      "suc": 8053,
      "suic": 8054,
      "summ": 8055,
      "guy, ": 8056,
      "guard ": 8057,
      "what that ": 8058,
      "All right?\r\n": 8059,
      "again\r\n": 8060,
      "We're going to ": 8061,
      "name, ": 8062,
      "Alpha": 8063,
      "place to ": 8064,
      "punishment.\r\n": 8065,
      "suffer": 8066,
      "mouth": 8067,
      "chosen ": 8068,
      "Ron": 8069,
      "Red": 8070,
      "se to ": 8071,
      "I only ": 8072,
      "I mean ": 8073,
      "dear.\r\n": 8074,
      "plugin": 8075,
      "saying, ": 8076,
      "harm ": 8077,
      "a bunch of ": 8078,
      "written ": 8079,
      "move, ": 8080,
      "feels ": 8081,
      "won't": 8082,
      "Norm": 8083,
      "figure out ": 8084,
      "Calm ": 8085,
      "bloody ": 8086,
      "Ladies and gentle": 8087,
      "military ": 8088,
      "whosoever ": 8089,
      "I take ": 8090,
      "Jac": 8091,
      "ume ": 8092,
      "waste ": 8093,
      " thing?\r\n": 8094,
      "ing)\r\n": 8095,
      "om\r\n": 8096,
      "you with ": 8097,
      "an old ": 8098,
      "What if ": 8099,
      "gust": 8100,
      "blind ": 8101,
      "soon": 8102,
      "Where the ": 8103,
      "Forget ": 8104,
      "key\r\n": 8105,
      "directory\r\n": 8106,
      "screw": 8107,
      "See you ": 8108,
      "button ": 8109,
      "griev": 8110,
      "Europe/": 8111,
      "4\r\n": 8112,
      "Ele": 8113,
      "Kore": 8114,
      "wound": 8115,
      "y'": 8116,
      "whit": 8117,
      "an in": 8118,
      "unjust": 8119,
      "your father ": 8120,
      "I'm afraid ": 8121,
      "with me?\r\n": 8122,
      "Nov": 8123,
      "worse.\r\n": 8124,
      "Hear": 8125,
      "ount of ": 8126,
      "project": 8127,
      "happened ": 8128,
      "got to be ": 8129,
      "strange ": 8130,
      "- She's ": 8131,
      "Except ": 8132,
      "keep the ": 8133,
      "imagine ": 8134,
      "199": 8135,
      "depend": 8136,
      "Prophet": 8137,
      "recognize ": 8138,
      "-R": 8139,
      "500": 8140,
      "Gir": 8141,
      "Hold": 8142,
      "Pop": 8143,
      "gy": 8144,
      "s? ": 8145,
      "ition\r\n": 8146,
      "You and ": 8147,
      "condu": 8148,
      "boy!\r\n": 8149,
      "moon ": 8150,
      "ble to ": 8151,
      "If it ": 8152,
      "disbeliever": 8153,
      "what's the ": 8154,
      "ant, ": 8155,
      "month ": 8156,
      "awa": 8157,
      "look, ": 8158,
      "ire.\r\n": 8159,
      " truth": 8160,
      "possibly ": 8161,
      "used for ": 8162,
      "operation ": 8163,
      "life?\r\n": 8164,
      "created the ": 8165,
      "where?\r\n": 8166,
      "floor.\r\n": 8167,
      "divor": 8168,
      "machine ": 8169,
      "60": 8170,
      "Care": 8171,
      "Pull ": 8172,
      "found.\r\n": 8173,
      "realize ": 8174,
      "I always ": 8175,
      "he's": 8176,
      "image": 8177,
      "rob": 8178,
      "need.\r\n": 8179,
      "we can't ": 8180,
      "conce": 8181,
      "emper": 8182,
      "illeg": 8183,
      "acting ": 8184,
      "go and ": 8185,
      "more than": 8186,
      "a cri": 8187,
      "retri": 8188,
      "If you don't ": 8189,
      "menu ": 8190,
      "book.\r\n": 8191,
      "restaur": 8192,
      "dead?\r\n": 8193,
      "dangerous ": 8194,
      "Professor ": 8195,
      "Lieuten": 8196,
      "S.": 8197,
      "San": 8198,
      "Shar": 8199,
      "Vik": 8200,
      "for them": 8201,
      "what was ": 8202,
      "few": 8203,
      "fine, ": 8204,
      "case": 8205,
      "obedi": 8206,
      "Isn't ": 8207,
      "common ": 8208,
      "long time.\r\n": 8209,
      "changed.\r\n": 8210,
      "behind.\r\n": 8211,
      "control.\r\n": 8212,
      "important.\r\n": 8213,
      "mind?\r\n": 8214,
      "voice ": 8215,
      "difficult": 8216,
      "BO": 8217,
      "Cart": 8218,
      "Nav": 8219,
      "Ok.\r\n": 8220,
      "Vir": 8221,
      "ible": 8222,
      "m?\r\n": 8223,
      "spl": 8224,
      "d and ": 8225,
      "a very ": 8226,
      "you from ": 8227,
      "ed them": 8228,
      "rill": 8229,
      "ge?\r\n": 8230,
      "No! ": 8231,
      "hill": 8232,
      "come back.\r\n": 8233,
      "I'll see you ": 8234,
      "I don't care ": 8235,
      "shadow": 8236,
      "name": 8237,
      "out of here!\r\n": 8238,
      "board\r\n": 8239,
      "Mmm": 8240,
      "Yo, ": 8241,
      "oke ": 8242,
      "ane": 8243,
      "us. ": 8244,
      "ed... ": 8245,
      "ed,\r\n": 8246,
      "as it ": 8247,
      "show.\r\n": 8248,
      "elder": 8249,
      "will not be ": 8250,
      "We gave ": 8251,
      "boat ": 8252,
      "did they ": 8253,
      ", then.\r\n": 8254,
      "rule ": 8255,
      "See?\r\n": 8256,
      "working.\r\n": 8257,
      "No more ": 8258,
      "a cl": 8259,
      "kill me.\r\n": 8260,
      "to-": 8261,
      "Take the ": 8262,
      "no, no, ": 8263,
      "Pretty ": 8264,
      "Serious": 8265,
      "Mont": 8266,
      "choice ": 8267,
      "loading ": 8268,
      "knock": 8269,
      "?”\r\n": 8270,
      "Four ": 8271,
      "Kh": 8272,
      "Next": 8273,
      "Tra": 8274,
      "Where?\r\n": 8275,
      "ia\r\n": 8276,
      "kick ": 8277,
      "round ": 8278,
      "shel": 8279,
      "vot": 8280,
      "I did": 8281,
      "ing our ": 8282,
      "seas": 8283,
      "section ": 8284,
      "chan": 8285,
      "unable to ": 8286,
      "worri": 8287,
      "And I'm ": 8288,
      "box.\r\n": 8289,
      "What was ": 8290,
      ": %s ": 8291,
      "right\r\n": 8292,
      "gonna get ": 8293,
      "grap": 8294,
      "about a ": 8295,
      "My father ": 8296,
      "pregn": 8297,
      "parse ": 8298,
      "ather.\r\n": 8299,
      "warn ": 8300,
      "why don't you ": 8301,
      "signal ": 8302,
      "stop!\r\n": 8303,
      "capable ": 8304,
      "actually.\r\n": 8305,
      "window.\r\n": 8306,
      "You know, I ": 8307,
      "- Yeah?\r\n": 8308,
      "Audi": 8309,
      "Harry.\r\n": 8310,
      "in-law": 8311,
      "%C": 8312,
      "Holl": 8313,
      "Pu": 8314,
      "bit.\r\n": 8315,
      "bust": 8316,
      "co ": 8317,
      "eli": 8318,
      "luck ": 8319,
      "ert ": 8320,
      "a (": 8321,
      "ate, ": 8322,
      "why.\r\n": 8323,
      "an error ": 8324,
      "as I ": 8325,
      "We'll be ": 8326,
      "Stand": 8327,
      " therein ": 8328,
      "play.\r\n": 8329,
      "I didn't know ": 8330,
      "reason.\r\n": 8331,
      "What do you want?\r\n": 8332,
      "whatever you ": 8333,
      "amazing.\r\n": 8334,
      "usually ": 8335,
      "organiz": 8336,
      "protocol": 8337,
      "Atlant": 8338,
      "%s, ": 8339,
      "EX": 8340,
      "Fun": 8341,
      "_C": 8342,
      "_n": 8343,
      "ne ": 8344,
      "nigg": 8345,
      "wind ": 8346,
      " tor": 8347,
      "is going to ": 8348,
      "it? ": 8349,
      "- \"": 8350,
      "aly": 8351,
      "Youn": 8352,
      "an acc": 8353,
      "idio": 8354,
      "for his ": 8355,
      "ul ": 8356,
      "It's your ": 8357,
      "way\r\n": 8358,
      "Complet": 8359,
      "early ": 8360,
      "anywhere.\r\n": 8361,
      " think of ": 8362,
      "I don't wanna ": 8363,
      "off?\r\n": 8364,
      "This is your ": 8365,
      "before I ": 8366,
      "due ": 8367,
      "away from the ": 8368,
      " turns ": 8369,
      "focus ": 8370,
      "a couple ": 8371,
      "recogniz": 8372,
      "immediately.\r\n": 8373,
      "Ky": 8374,
      "TI": 8375,
      "hook": 8376,
      "stick ": 8377,
      "forth": 8378,
      "ed out ": 8379,
      "edit ": 8380,
      "my life ": 8381,
      "exic": 8382,
      "in the world.\r\n": 8383,
      " this to ": 8384,
      " think about ": 8385,
      "up for ": 8386,
      "bud": 8387,
      "right now ": 8388,
      "got?\r\n": 8389,
      "a pie": 8390,
      ", two ": 8391,
      "sym": 8392,
      "arrow": 8393,
      "house?\r\n": 8394,
      "draw ": 8395,
      "powerful ": 8396,
      "specify ": 8397,
      "male ": 8398,
      "false": 8399,
      "heavens and ": 8400,
      "Epson ": 8401,
      "%(": 8402,
      "Fast": 8403,
      "bond": 8404,
      "cept": 8405,
      "host ": 8406,
      "- Hi.\r\n": 8407,
      "acqu": 8408,
      "for that.\r\n": 8409,
      "nolog": 8410,
      "hey.\r\n": 8411,
      "uplic": 8412,
      "eyes": 8413,
      "grat": 8414,
      "affor": 8415,
      "discover": 8416,
      "Hey, hey, ": 8417,
      "Where did you ": 8418,
      "mate.\r\n": 8419,
      "family, ": 8420,
      "provide ": 8421,
      "questions.\r\n": 8422,
      "failed ": 8423,
      "said, '": 8424,
      "through ": 8425,
      "Alex": 8426,
      "revelation": 8427,
      "audio ": 8428,
      "HTM": 8429,
      ".]\r\n": 8430,
      "Pack": 8431,
      "Son ": 8432,
      "dim": 8433,
      "sick.\r\n": 8434,
      "two ": 8435,
      "wand": 8436,
      "art.\r\n": 8437,
      "ed:\r\n": 8438,
      "chem": 8439,
      "You have a ": 8440,
      "not been ": 8441,
      "him who ": 8442,
      " them and ": 8443,
      "see what ": 8444,
      "affair": 8445,
      "Left ": 8446,
      "Where are you?\r\n": 8447,
      "I am a ": 8448,
      "place, ": 8449,
      "crime ": 8450,
      "Even": 8451,
      "Roger": 8452,
      "You know what ": 8453,
      "What the fuck": 8454,
      "lady ": 8455,
      "simply ": 8456,
      "Jerr": 8457,
      "Rev": 8458,
      "UGH": 8459,
      "fit ": 8460,
      "ft.\r\n": 8461,
      "t?\r\n": 8462,
      "inue ": 8463,
      "er, and ": 8464,
      "I ain't ": 8465,
      "- Go ": 8466,
      "ed on the ": 8467,
      "You, ": 8468,
      "us the ": 8469,
      "asse": 8470,
      "bel ": 8471,
      "as we ": 8472,
      "need the ": 8473,
      "or of ": 8474,
      "like it.\r\n": 8475,
      "Oh, you ": 8476,
      "go back ": 8477,
      "how it ": 8478,
      "fulfill": 8479,
      "goti": 8480,
      "let it ": 8481,
      "desire ": 8482,
      "] [": 8483,
      "itch!\r\n": 8484,
      "You are the ": 8485,
      "Verily ": 8486,
      "Display": 8487,
      "hadn't ": 8488,
      " there's no ": 8489,
      "said, ‘": 8490,
      "Valu": 8491,
      "etheart": 8492,
      "Bus": 8493,
      "Long": 8494,
      "Pick ": 8495,
      "fish ": 8496,
      "k?\r\n": 8497,
      "leng": 8498,
      "pound": 8499,
      "seat": 8500,
      "use to ": 8501,
      "with it.\r\n": 8502,
      "suit": 8503,
      "up your ": 8504,
      "what? ": 8505,
      "ank.\r\n": 8506,
      "Let's get ": 8507,
      "help me.\r\n": 8508,
      "cribe ": 8509,
      "Please don't ": 8510,
      "I will not ": 8511,
      "pected ": 8512,
      "you and your ": 8513,
      "appear ": 8514,
      "cellent ": 8515,
      "ric ": 8516,
      "Jew": 8517,
      "master ": 8518,
      "righteous": 8519,
      "KDE ": 8520,
      "-F": 8521,
      "-You ": 8522,
      "Gold": 8523,
      "Other ": 8524,
      "lt ": 8525,
      "maint": 8526,
      "ness, ": 8527,
      "s they ": 8528,
      "ery ": 8529,
      "oft ": 8530,
      "ing me.\r\n": 8531,
      "of His ": 8532,
      "all over ": 8533,
      "boy, ": 8534,
      "email ": 8535,
      "I've seen ": 8536,
      "like to": 8537,
      "it, but ": 8538,
      "Modi": 8539,
      "names ": 8540,
      "ment?\r\n": 8541,
      "Death ": 8542,
      "listen ": 8543,
      "plane.\r\n": 8544,
      "were.\r\n": 8545,
      "Guess ": 8546,
      "Play ": 8547,
      "fire!\r\n": 8548,
      "failed.\r\n": 8549,
      "failed\r\n": 8550,
      "mix": 8551,
      "ype:\r\n": 8552,
      "listen to me.\r\n": 8553,
      "company.\r\n": 8554,
      "Folder\r\n": 8555,
      "beyond ": 8556,
      "Fro": 8557,
      "Talk": 8558,
      "Yo": 8559,
      "bes": 8560,
      "dic": 8561,
      "pain ": 8562,
      "wav": 8563,
      "in. ": 8564,
      "infect": 8565,
      ", no ": 8566,
      ", which ": 8567,
      "ary": 8568,
      "at my ": 8569,
      "my friend.\r\n": 8570,
      "urg": 8571,
      "ent?\r\n": 8572,
      "sail": 8573,
      "Stor": 8574,
      "Stri": 8575,
      "here for ": 8576,
      "co.\r\n": 8577,
      "Oh, yeah.\r\n": 8578,
      "prefer": 8579,
      "made it ": 8580,
      "There's nothing ": 8581,
      "visit": 8582,
      "Server ": 8583,
      "ER: ": 8584,
      " themselves.\r\n": 8585,
      "yourselves ": 8586,
      "Hide ": 8587,
      "Mas": 8588,
      "Rot": 8589,
      "Tor": 8590,
      "flight ": 8591,
      "ring ": 8592,
      "va": 8593,
      " typ": 8594,
      "ont\r\n": 8595,
      "ass, ": 8596,
      "opin": 8597,
      "der\r\n": 8598,
      ", and he ": 8599,
      "But we ": 8600,
      "car?\r\n": 8601,
      "drown": 8602,
      "heavy ": 8603,
      "gave me ": 8604,
      "recit": 8605,
      "What is your ": 8606,
      "Here we go.\r\n": 8607,
      "hospital.\r\n": 8608,
      "weird.\r\n": 8609,
      "UNT": 8610,
      "pixel": 8611,
      "Best ": 8612,
      "Gen": 8613,
      "public ": 8614,
      "ring": 8615,
      "s and the ": 8616,
      "environ": 8617,
      "habit": 8618,
      "- Mr. ": 8619,
      "ed from the ": 8620,
      "rich": 8621,
      "of all ": 8622,
      "e time ": 8623,
      "unexpect": 8624,
      "shin": 8625,
      "we just ": 8626,
      "one of them ": 8627,
      "ply": 8628,
      "want the ": 8629,
      "up a ": 8630,
      "I'll get ": 8631,
      "about this.\r\n": 8632,
      "a matt": 8633,
      "age?\r\n": 8634,
      "Adam": 8635,
      "sweet ": 8636,
      "subject": 8637,
      " talking about ": 8638,
      "wise.\r\n": 8639,
      "doctor ": 8640,
      "police.\r\n": 8641,
      "map\r\n": 8642,
      " target": 8643,
      "View\r\n": 8644,
      "extra ": 8645,
      "Image\r\n": 8646,
      "2-": 8647,
      "25 ": 8648,
      "Priv": 8649,
      "Ze": 8650,
      "mic": 8651,
      "u, ": 8652,
      " ten ": 8653,
      " tool": 8654,
      "ones": 8655,
      "ative ": 8656,
      "e te": 8657,
      "impossible.\r\n": 8658,
      "I'm still ": 8659,
      "coming": 8660,
      "entry ": 8661,
      "os\r\n": 8662,
      "perfect.\r\n": 8663,
      "need you to ": 8664,
      "ive, ": 8665,
      "just to ": 8666,
      "why you ": 8667,
      "Enjo": 8668,
      "kill him.\r\n": 8669,
      "number.\r\n": 8670,
      "something, ": 8671,
      "easi": 8672,
      "We've been ": 8673,
      "holding ": 8674,
      "spok": 8675,
      "in'.\r\n": 8676,
      "enjoy ": 8677,
      "server\r\n": 8678,
      "Enter the ": 8679,
      "a painful ": 8680,
      "%.": 8681,
      "500 ": 8682,
      "Folder ": 8683,
      "H.": 8684,
      "Red ": 8685,
      "a time ": 8686,
      "be to ": 8687,
      "foot ": 8688,
      "iet ": 8689,
      "oce": 8690,
      "er... ": 8691,
      "think ": 8692,
      "of this.\r\n": 8693,
      "and get ": 8694,
      "You okay?\r\n": 8695,
      "all things.\r\n": 8696,
      "and those who ": 8697,
      "sometim": 8698,
      "sust": 8699,
      "grac": 8700,
      "So what ": 8701,
      "right now, ": 8702,
      "clu": 8703,
      "calls ": 8704,
      "love to ": 8705,
      "descend": 8706,
      "Who's": 8707,
      "needs to ": 8708,
      "Lock": 8709,
      "away from": 8710,
      "surround": 8711,
      "Brit": 8712,
      "place is ": 8713,
      "n't the ": 8714,
      "devil": 8715,
      "difference ": 8716,
      "Verily": 8717,
      "something that ": 8718,
      "prison.\r\n": 8719,
      "10)}": 8720,
      "System ": 8721,
      "allowed ": 8722,
      "wondering ": 8723,
      "width ": 8724,
      "Dude": 8725,
      "dinner.\r\n": 8726,
      "stopped ": 8727,
      "proud of ": 8728,
      "a, whoa, who": 8729,
      "Africa/": 8730,
      "Gentle": 8731,
      "%B": 8732,
      "Bal": 8733,
      "Jun": 8734,
      "K ": 8735,
      "Ka": 8736,
      "Want": 8737,
      "ax ": 8738,
      "mom.\r\n": 8739,
      "it that ": 8740,
      "You'd ": 8741,
      "shor": 8742,
      "coming to ": 8743,
      " this is the ": 8744,
      "et!\r\n": 8745,
      "No matter ": 8746,
      "cloud": 8747,
      "why are you ": 8748,
      "having a ": 8749,
      "moved ": 8750,
      "They're not ": 8751,
      "selection\r\n": 8752,
      "slow ": 8753,
      "area ": 8754,
      "I thought you were ": 8755,
      "away?\r\n": 8756,
      "Hold on.\r\n": 8757,
      "Hereafter": 8758,
      "bene": 8759,
      "sacrific": 8760,
      "smart ": 8761,
      "Each ": 8762,
      "Ha": 8763,
      "ggl": 8764,
      "mess ": 8765,
      "tit": 8766,
      "ator\r\n": 8767,
      "is un": 8768,
      "is there ": 8769,
      "use.\r\n": 8770,
      "assh": 8771,
      "whol": 8772,
      "updat": 8773,
      "feed": 8774,
      "out. ": 8775,
      "make it.\r\n": 8776,
      "before?\r\n": 8777,
      "clus": 8778,
      "possess": 8779,
      "back in ": 8780,
      "close": 8781,
      "without a ": 8782,
      "password": 8783,
      "- Oh, my ": 8784,
      "Spid": 8785,
      "Make sure ": 8786,
      "Deskt": 8787,
      "consider ": 8788,
      "Zoom ": 8789,
      "guardi": 8790,
      "( ": 8791,
      "Page ": 8792,
      "push ": 8793,
      "z ": 8794,
      "ino": 8795,
      "thank": 8796,
      "really, ": 8797,
      "- Do ": 8798,
      "it will be ": 8799,
      " that which ": 8800,
      "for me ": 8801,
      "days, ": 8802,
      "so that they ": 8803,
      "bug ": 8804,
      "a bro": 8805,
      " there will be ": 8806,
      "mary ": 8807,
      "broken ": 8808,
      "let her ": 8809,
      "will take ": 8810,
      "long time ": 8811,
      "well-": 8812,
      "cript ": 8813,
      "Let him ": 8814,
      "lovely ": 8815,
      "too ": 8816,
      "feel like ": 8817,
      "I need a ": 8818,
      "exist.\r\n": 8819,
      "Uh-h": 8820,
      "wearing ": 8821,
      "New York ": 8822,
      "further ": 8823,
      "Until ": 8824,
      "() ": 8825,
      "40": 8826,
      "Count": 8827,
      "eat.\r\n": 8828,
      "fold": 8829,
      "pir": 8830,
      "another.\r\n": 8831,
      "ing from ": 8832,
      "ed as ": 8833,
      "begg": 8834,
      "ical": 8835,
      "pell": 8836,
      "We could ": 8837,
      "caused ": 8838,
      "no matter ": 8839,
      "grace ": 8840,
      "blam": 8841,
      "back\r\n": 8842,
      "cost": 8843,
      "ante": 8844,
      "again!\r\n": 8845,
      " tell you": 8846,
      "let us ": 8847,
      "Alright, ": 8848,
      "a tri": 8849,
      "might have ": 8850,
      "I'd be ": 8851,
      "follow the ": 8852,
      "document\r\n": 8853,
      "decided to ": 8854,
      "absolutely ": 8855,
      "Custom ": 8856,
      "Hone": 8857,
      "Ja": 8858,
      "Kim": 8859,
      "cab": 8860,
      "ett": 8861,
      "mask": 8862,
      "rum": 8863,
      "ts ": 8864,
      "ually ": 8865,
      "ense.\r\n": 8866,
      "arrog": 8867,
      "- Did you ": 8868,
      "alright?\r\n": 8869,
      "for them.\r\n": 8870,
      "god.\r\n": 8871,
      "hero.\r\n": 8872,
      "my father ": 8873,
      "I'm in ": 8874,
      "It's an ": 8875,
      "ender ": 8876,
      "anyway?\r\n": 8877,
      "coordin": 8878,
      "Inv": 8879,
      "Secon": 8880,
      "Get your ": 8881,
      "fucking": 8882,
      "Just like ": 8883,
      "former ": 8884,
      "justic": 8885,
      "believing ": 8886,
      "ies of ": 8887,
      "Brother ": 8888,
      "limit": 8889,
      "Got it.\r\n": 8890,
      "Help\r\n": 8891,
      "One, two": 8892,
      "Special ": 8893,
      "Drop ": 8894,
      "knif": 8895,
      "Jacob": 8896,
      "Da": 8897,
      "Dor": 8898,
      "Dig": 8899,
      "GD": 8900,
      "IL": 8901,
      "Same ": 8902,
      "e; ": 8903,
      "ne.\r\n": 8904,
      "s. - ": 8905,
      ", for ": 8906,
      "onto ": 8907,
      "I got to ": 8908,
      "letting ": 8909,
      "ed.\"\r\n": 8910,
      "You mean ": 8911,
      "she t": 8912,
      "ophi": 8913,
      "or something.\r\n": 8914,
      "will have ": 8915,
      "He knows ": 8916,
      "mob": 8917,
      "day!\r\n": 8918,
      "See": 8919,
      "want to be ": 8920,
      "lying ": 8921,
      "wait!\r\n": 8922,
      "a prom": 8923,
      "There's something ": 8924,
      "girls.\r\n": 8925,
      "Lord is ": 8926,
      "already exist": 8927,
      "weeks ": 8928,
      "ER ": 8929,
      "Morn": 8930,
      "street ": 8931,
      "enter the ": 8932,
      "dude.\r\n": 8933,
      "200 ": 8934,
      "710)}": 8935,
      "burn ": 8936,
      "din": 8937,
      "far.\r\n": 8938,
      "ies, ": 8939,
      "king.\r\n": 8940,
      "o'": 8941,
      "ous\r\n": 8942,
      ", who ": 8943,
      "replac": 8944,
      "I ever ": 8945,
      "you in the ": 8946,
      "is gonna ": 8947,
      "urb": 8948,
      "I'm here.\r\n": 8949,
      "pect.\r\n": 8950,
      "We got to ": 8951,
      "While ": 8952,
      "He doesn't ": 8953,
      "interr": 8954,
      "Step": 8955,
      "right? ": 8956,
      "astray": 8957,
      "Then you ": 8958,
      "gotta": 8959,
      "lived ": 8960,
      "bring you ": 8961,
      "return.\r\n": 8962,
      "Pott": 8963,
      "crazy?\r\n": 8964,
      "afraid.\r\n": 8965,
      "million": 8966,
      "What do you think ": 8967,
      "When they ": 8968,
      "Would you like to ": 8969,
      "'m ": 8970,
      "E: ": 8971,
      "GT": 8972,
      "Hong ": 8973,
      "Jord": 8974,
      "_\r\n": 8975,
      "nak": 8976,
      "scare ": 8977,
      "ya": 8978,
      "s up ": 8979,
      "is very ": 8980,
      "it'll ": 8981,
      " to use ": 8982,
      "ooth": 8983,
      "me, and ": 8984,
      "with an ": 8985,
      "what this ": 8986,
      "antast": 8987,
      "give you a ": 8988,
      "Uncle": 8989,
      "move\r\n": 8990,
      "hot.\r\n": 8991,
      "Like, ": 8992,
      "heaven ": 8993,
      "tell": 8994,
      "Green ": 8995,
      "ride.\r\n": 8996,
      "controll": 8997,
      "mother's ": 8998,
      "\"%s\"": 8999,
      "failed to ": 9000,
      "walking ": 9001,
      "nearly ": 9002,
      "Window\r\n": 9003,
      ", thanks.\r\n": 9004,
      "modif": 9005,
      "introduce ": 9006,
      "Joseph": 9007,
      "Bor": 9008,
      "C\r\n": 9009,
      "Hmm.\r\n": 9010,
      "Lot": 9011,
      "Radi": 9012,
      "htt": 9013,
      "liter": 9014,
      "o's ": 9015,
      "usel": 9016,
      "I know, ": 9017,
      "item ": 9018,
      "ade.\r\n": 9019,
      "You won't ": 9020,
      "roy": 9021,
      "your help.\r\n": 9022,
      "es in the ": 9023,
      "age to ": 9024,
      "with me, ": 9025,
      "apart ": 9026,
      "both": 9027,
      "umer": 9028,
      "anywhere ": 9029,
      "ify": 9030,
      "did the ": 9031,
      "says, ": 9032,
      "soli": 9033,
      ", though": 9034,
      "give the ": 9035,
      "clin": 9036,
      "link ": 9037,
      "believe and ": 9038,
      "Look, I ": 9039,
      "love, ": 9040,
      "camp": 9041,
      "side of the ": 9042,
      "weeks.\r\n": 9043,
      "young": 9044,
      "give me a ": 9045,
      "writing ": 9046,
      "pleasure ": 9047,
      "sending ": 9048,
      "say, “": 9049,
      "picture ": 9050,
      "Horizont": 9051,
      "spread": 9052,
      "all the time.\r\n": 9053,
      "abandon": 9054,
      "Aar": 9055,
      "Eth": 9056,
      "Ign": 9057,
      "Light ": 9058,
      "Link": 9059,
      "List ": 9060,
      "Mexic": 9061,
      "Ni": 9062,
      "UL": 9063,
      "range ": 9064,
      " taste ": 9065,
      " the fuck ": 9066,
      "of that.\r\n": 9067,
      "You see ": 9068,
      "You could ": 9069,
      "robot": 9070,
      "iling ": 9071,
      "ily.\r\n": 9072,
      "as soon as ": 9073,
      "Anj": 9074,
      "utter": 9075,
      "we'll be ": 9076,
      "mode ": 9077,
      "mani": 9078,
      "This was ": 9079,
      "Stef": 9080,
      " tear": 9081,
      "It wasn't ": 9082,
      "ruth ": 9083,
      "car!\r\n": 9084,
      "he's a ": 9085,
      "make this ": 9086,
      "ance\r\n": 9087,
      "pressure ": 9088,
      "format\r\n": 9089,
      "access ": 9090,
      "down and ": 9091,
      "What's wrong ": 9092,
      "correct ": 9093,
      "a lot.\r\n": 9094,
      "interest ": 9095,
      "Could you ": 9096,
      "while they ": 9097,
      "location.\r\n": 9098,
      "barely ": 9099,
      "Anyone ": 9100,
      "promised ": 9101,
      "Empt": 9102,
      "survive ": 9103,
      "Create a new ": 9104,
      "4.\r\n": 9105,
      "40 ": 9106,
      "Pen": 9107,
      "Xi": 9108,
      "nav": 9109,
      "swor": 9110,
      ", because ": 9111,
      ", uh, ": 9112,
      "arrest ": 9113,
      "I remember ": 9114,
      "chi": 9115,
      "ch?\r\n": 9116,
      "an is ": 9117,
      "unknown ": 9118,
      "vert ": 9119,
      "worshi": 9120,
      "et?\r\n": 9121,
      ": %1\r\n": 9122,
      "sight ": 9123,
      "ant\r\n": 9124,
      "assass": 9125,
      "made you ": 9126,
      "It'll be ": 9127,
      "later ": 9128,
      "Probably ": 9129,
      "job, ": 9130,
      "IN ": 9131,
      "vision": 9132,
      "let's go!\r\n": 9133,
      "Carl": 9134,
      "Say, \"": 9135,
      "Say: \"": 9136,
      "What are you doing ": 9137,
      "Don't worry ": 9138,
      "one of those ": 9139,
      "yourself?\r\n": 9140,
      "animal": 9141,
      "Again": 9142,
      "building.\r\n": 9143,
      "kidnapp": 9144,
      "Window ": 9145,
      "1-": 9146,
      "Date ": 9147,
      "cue ": 9148,
      "d!\r\n": 9149,
      "na t": 9150,
      "s his ": 9151,
      "en. ": 9152,
      "ing' ": 9153,
[...]
